the 314178683
of 186433831
and 155059811
to 120705712
in 108904242
a 103067254
was 55950905
- 50815083
is 45147102
that 41959392
for 39393112
as 39275739
with 38802897
The 36851323
on 32624682
his 32527282
by 32198252
he 30293657
at 27542475
I 25199092
from 24209162
it 23677251
be 21847043
had 21804814
which 19581025
not 19212880
or 18055073
an 17035441
were 17008849
are 16794123
have 15736333
her 14975747
this 14578385
but 14514161
you 13969720
their 12750035
they 12342152
all 11982183
In 11916673
He 11585714
one 11248940
she 10835829
who 10607179
been 10234265
has 10124745
It 9018797
would 8695367
its 8550951
my 8183669
him 7979508
so 7893710
when 7824240
into 7675329
we 7674650
no 7461651
first 7330826
more 7136596
will 7082465
also 7011649
other 6710123
(@@ 6703357
two 6439338
"@@ 6414349
up 6364661
out 6318007
there 6099902
any 6082247
than 6028318
some 5935195
only 5859480
if 5839369
about 5821375
after 5696748
them 5536100
said 5491987
A 5465548
– 5460480
can 5362771
may 5175161
could 5118471
made 5118324
such 5036996
very 4991776
_@@ 4959688
over 4889951
me 4863190
what 4785609
do 4714040
time 4711684
where 4660520
most 4530387
then 4490713
our 4424314
This 4407427
your 4313533
upon 4252225
these 4206814
before 4132968
like 4073739
being 3896297
She 3882783
"The 3876288
through 3844089
And 3827914
did 3815230
under 3796933
But 3757252
many 3746670
little 3666249
should 3648427
work 3633032
must 3619901
man 3604289
now 3473860
between 3471044
New 3431870
Project 3427175
new 3419468
great 3413158
much 3294183
de 3215016
three 3213851
those 3186293
They 3157893
part 3151466
while 3145083
well 3112051
same 3104313
against 3099723
On 3036524
found 2976823
during 2930566
down 2926720
us 2915825
"I 2914923
own 2908114
without 2889229
United 2887319
see 2857018
came 2851888
make 2834285
used 2818217
Mr. 2814683
old 2782789
never 2782005
There 2700828
. 2670979
'@@ 2661432
years 2657452
even 2652663
good 2632165
both 2624076
As 2545160
long 2543171
back 2525160
every 2515299
people 2506867
American 2506075
His 2482303
known 2472154
until 2436652
called 2432000
how 2419291
" 2413579
men 2407435
became 2406155
each 2390976
went 2387957
still 2348025
took 2334658
just 2330353
last 2302229
know 2297438
take 2296621
way 2282852
might 2245809
come 2241929
shall 2240684
| 2237255
go 2237163
At 2183726
: 2174954
If 2174932
) 2173169
Gutenberg-tm 2152477
am 2150737
it, 2149019
place 2131765
For 2123131
set 2106476
left 2104467
use 2103296
second 2101208
John 2089632
name 2078650
because 2071066
After 2025110
number 2019041
When 2015541
few 1973540
day 1969433
including 1968523
several 1951196
off 1947666
himself 1945705
it. 1945582
* 1924203
though 1894950
You 1887725
later 1886062
since 1882434
another 1877262
-@@ 1854155
get 1850380
life 1844420
University 1843566
External 1834546
began 1829200
links. 1816889
young 1808977
four 1800710
small 1798895
, 1798143
We 1791964
& 1768812
him, 1766792
having 1761528
following 1761265
end 1749483
give 1744554
think 1733771
thought 1720445
within 1710002
among 1707300
National 1706525
To 1671320
put 1669773
early 1667830
too 1662969
large 1662122
held 1658880
See 1647572
state 1646845
; 1645997
received 1634701
saw 1613226
full 1604871
's 1602336
un@@ 1595069
him. 1593095
public 1592581
works 1588976
away 1587216
ever 1586923
given 1581313
", 1579769
once 1559198
and, 1551799
World 1545177
always 1528654
along 1526959
often 1518828
British 1514333
States 1512740
year 1512694
again 1509757
right 1507357
far 1506357
1 1501606
near 1492111
head 1476310
played 1472065
best 1471584
family 1471190
yet 1462639
“@@ 1461682
), 1460771
say 1447887
find 1447464
." 1445601
almost 1445215
May 1444004
around 1442416
South 1439827
THE 1438652
English 1437154
whom 1432766
home 1429624
side 1427651
high 1426593
former 1424340
". 1406267
gave 1402683
less 1398089
next 1390132
seen 1387323
film 1381383
got 1366646
," 1357673
here 1356533
taken 1349042
however, 1339345
whole 1334925
going 1331903
house 1331447
won 1324588
team 1313965
different 1308837
i 1308577
form 1308098
French 1306588
does 1298196
June 1296316
told 1294727
March 1294719
soon 1289573
days 1287606
brought 1285990
said, 1284823
also. 1284600
released 1283911
school 1282484
order 1282074
whose 1277606
five 1277316
January 1273552
One 1272436
2 1271351
city 1267673
nothing 1266059
! 1263349
State 1262237
July 1259500
(born 1249149
them, 1247785
become 1247164
September 1245500
located 1244366
Mrs. 1236151
let 1236120
October 1231592
me, 1223360
tell 1222986
looked 1222435
electronic 1221996
By 1220074
named 1217921
April 1217868
don't 1215816
son 1213985
). 1213956
world 1212555
age 1210574
School 1205917
August 1201975
St. 1198897
seemed 1197109
North 1195868
series 1190551
With 1189706
sent 1185996
born 1185445
led 1184451
That 1180582
rather 1178850
Then 1178188
OF 1177331
cannot 1176088
November 1171482
water 1168537
time, 1166853
able 1166508
better 1165590
half 1163360
them. 1159172
things 1157845
December 1152080
look 1148394
eyes 1147836
power 1146237
These 1139716
terms 1137050
quite 1136578
_ 1127955
country 1124069
show 1122904
3 1121964
heard 1121057
All 1117019
face 1115933
general 1113006
hand 1112473
member 1111702
based 1109703
line 1106320
love 1106300
present 1102229
built 1096983
certain 1095853
season 1095722
town 1095099
turned 1094100
--@@ 1092495
making 1087608
York 1084266
From 1074828
asked 1074365
due 1071417
something 1069490
served 1066708
means 1062092
General 1060767
knew 1059741
group 1058052
died 1049127
? 1046352
single 1045691
white 1045320
light 1044406
February 1043960
written 1036071
German 1030928
round 1029574
However, 1028713
various 1027936
father 1025460
album 1022777
land 1019825
area 1018188
either 1013868
William 1012524
is, 1012432
done 1004389
returned 1003681
game 1003407
point 1003056
that, 1001303
/@@ 1001266
s, 999334
published 997572
What 994015
During 993561
main 990182
above 987700
Sir 985032
s. 984160
local 984005
nor 983763
music 983488
thus 982491
six 982268
keep 980120
government 979123
late 975755
death 974945
enough 974672
help 970535
you, 970508
third 969940
U.S. 969898
moved 966293
e, 965111
free 964747
felt 962852
4 962459
K@@ 958920
lost 953133
original 950767
company 950676
want 950509
thing 946531
on, 945966
man, 945191
already 942564
Lord 942054
village 941418
King 937716
open 936705
War 936324
population 933410
case 932812
o 930945
book 930554
_, 930520
across 929988
ing, 923395
A@@ 920301
human 916613
members 914521
Gutenberg 913663
[@@ 911950
night 907560
return 906470
further 905279
short 904054
passed 903550
least 902739
national 897925
a, 897109
appeared 896733
song 895465
God 892670
common 892253
?" 891364
S@@ 891163
!" 888571
using 887441
George 883279
included 882951
children 882589
List 882084
us, 881941
Miss 879781
started 877825
word 875512
poor 871344
species 867153
towards 866859
important 866515
heart 865579
till 865379
International 864258
play 863719
West 861318
course 861180
continued 859291
T@@ 857272
support 856276
stood 855480
Of 855336
James 855181
en 854977
system 854561
times 854122
in@@ 853738
woman 851745
City 850549
close 849942
although 849275
body 846180
10 846088
Her 846006
produced 845786
"You 844158
her, 844045
themselves 842850
followed 842674
Some 840688
per 839104
station 835910
O@@ 834171
together 832964
So 832938
mind 832401
hundred 830808
life. 829952
live 829141
law 828265
service 827186
5 826896
es 825895
re@@ 824180
whether 822117
League 821372
behind 820729
building 819561
ten 819010
person 817778
y@@ 813935
run 810765
er 809645
women 808407
opened 807734
E@@ 805757
political 802704
top 801972
married 801843
' 801732
House 801112
others 800756
war 799493
business 799286
reached 794813
G@@ 794422
D@@ 792624
mother 790779
My 790682
money 788649
’s 787342
her. 783736
B@@ 783658
leave 783081
met 782289
hands 780180
band 779244
k@@ 778484
S. 778344
es, 778268
final 776378
1. 775319
._ 775041
black 774818
words 773139
moment 773039
history 772794
position 772283
include 771712
An 771055
Indian 766110
living 762814
kind 762133
considered 761505
established 760641
er, 759289
party 756222
story 755857
air 755260
Dr. 753588
call 752223
taking 752022
wife 751955
2. 751447
placed 751133
While 750205
Foundation 749121
site 748067
6 747504
A. 746416
p. 745821
P@@ 744877
described 743644
sometimes 743287
anything 743214
N@@ 741036
wrote 740834
major 739778
M@@ 739338
nearly 737956
believe 735944
carried 734394
formed 733991
created 732721
M. 732526
Charles 729308
s@@ 729246
worked 728779
art 726939
ed, 726930
rest 726257
ed. 724790
kept 724348
strong 723805
y 722436
al@@ 721707
military 721636
field 721112
fact 721033
e. 720534
joined 720274
s" 719060
read 718031
F@@ 716428
ing. 712518
character 710748
s; 710299
remained 709579
County 709381
official 708552
David 708476
lay 708408
L@@ 708328
room 707727
e@@ 707368
forth 706400
need 705740
High 705350
time. 705095
C@@ 704413
me. 704190
European 703960
in, 703514
San 703462
England 700932
President 700853
looking 698572
er@@ 698124
feet 696149
especially 695280
Royal 695255
London 694700
church 693405
et 692049
fire 692003
work, 690878
H@@ 690754
Robert 689864
similar 687604
football 682437
access 682210
e 682181
W@@ 680755
day, 680446
Church 680443
No 678733
matter 678069
s 677013
true 676620
a. 674354
coming 673686
I@@ 670511
la 670177
period 669097
says 668228
player 668153
paid 668045
an@@ 667729
itself 667415
really 665050
lead 664550
hear 662908
y, 658517
J. 658493
possible 657685
voice 656789
College 656057
7 653129
en@@ 652781
hold 652628
record 652357
East 651667
River 650100
thou 650071
First 649745
front 649285
provide 648890
8 648838
seems 648449
working 647052
thy 646354
fell 645993
north 645243
natural 645054
letter 644274
z@@ 643927
title 643766
turn 643650
Thomas 643114
Henry 642572
ran 642017
real 641095
then, 640567
announced 638901
care 637116
bring 636767
History. 636622
according 631629
outside 631102
12 629474
20 626699
Great 626623
information 626617
makes 626153
club 626119
on@@ 625545
V@@ 625357
provided 624975
total 624905
interest 624807
a" 623916
change 623345
— 622917
cause 622694
18 621753
subject 621321
social 621215
hope 620910
office 620396
cut 618884
road 618098
modern 617855
force 617169
king 617122
3. 616247
usually 614941
District 614307
ground 612669
charge 611219
added 610977
appointed 610179
red 610095
hard 610022
associated 609598
R@@ 609504
special 608511
Literary 607684
perhaps 607008
result 606339
u 605330
years, 604110
door 603142
low 602561
I'm 602497
t@@ 602009
Christian 601400
which, 600863
popular 599836
ers 599728
Its 598966
entered 597540
why 596704
copyright 596598
beginning 596336
feel 595714
meet 595246
sat 595180
ar@@ 595006
herself 594763
years. 594699
morning 594274
reason 593215
15 593051
million 593021
Archive 593015
Michael 592149
friend 592106
idea 591979
founded 591551
south 591430
") 590793
No. 590516
version 589445
=@@ 587865
seven 587771
development 587449
laws 587325
longer 586890
n@@ 586689
County, 586382
generally 586171
parts 585890
thousand 585211
district 583379
sure 582902
wish 582085
probably 581562
... 581511
throughout 580855
account 579606
on. 578195
According 578019
References. 577213
"S@@ 576986
miles 576553
future 576470
this, 576439
nature 575897
/ 574414
"It 574262
es. 574000
Paul 573943
er. 573825
lived 573793
Z@@ 573601
individual 572377
30 571717
a@@ 570540
except 569825
_. 569356
"A 567952
Roman 567777
private 566868
i@@ 566477
leading 566304
d@@ 565181
career 564695
el@@ 563242
life, 561548
How 561457
J@@ 561067
girl 560889
Australian 560590
9 560206
e" 559852
C. 559072
instead 559020
daughter 557795
2010 556569
1, 556459
("@@ 556421
fine 556282
gone 555476
comes 555467
eight 554850
"the 553465
LETTER 553206
o@@ 553196
win 553126
all, 552279
s: 552074
es@@ 551618
professional 551499
up, 550549
current 549972
necessary 548262
u@@ 548116
was, 547678
hand, 547012
men, 546765
role 546663
allowed 545714
work. 545431
Other 544588
playing 544433
particular 543938
century 543491
therefore 542967
toward 542918
Army 539927
.” 538802
it@@ 538142
Cup 537984
recorded 537722
writing 537438
study 537129
community 536033
at@@ 535930
latter 534766
Air 534689
Council 534614
international 533958
-- 533934
dark 533851
CHAPTER 532919
o, 532860
greater 532610
ship 532505
W. 532413
directed 530989
killed 530290
act 530120
Y@@ 529821
production 529669
beyond 529604
Peter 529497
river 529131
speak 528326
child 528250
States. 528015
alone 527824
us. 527500
previous 525828
E. 525486
am@@ 525467
developed 525103
11 523568
sold 522650
Captain 522257
finished 521905
US 521388
.' 521273
again, 520997
ing 519078
brother 518922
beautiful 518851
.@@ 518174
control 517939
big 517711
chief 517580
Their 517554
4. 517493
an, 516969
view 516766
television 516661
covered 516563
past 516325
SMALL 516265
U@@ 516067
months 515859
signed 514433
decided 514289
pay 513993
= 513966
language 513410
heavy 512973
wanted 512842
] 512784
elected 512417
.] 512120
Richard 512094
receive 511630
question 511224
is@@ 511216
le 511156
g@@ 510722
states 510451
y. 510403
sound 509755
points 509387
laid 508876
raised 508211
II 508193
friends 508180
Now 508059
students 507948
"What 507582
lower 507060
year, 506735
25 506434
Central 506141
fall 505569
Two 505116
now, 504719
takes 504262
ancient 503850
appear 503250
one, 502708
active 502605
say, 502014
ready 501733
sense 501616
"And 501026
effect 500758
deep 500640
available 500375
out, 500164
seem 500090
as, 499888
hour 499830
Park 499269
there, 499107
agreement 498612
class 498567
career. 498279
said. 497654
leaving 496596
tried 494959
average 494704
performed 493841
2011 493505
donations 493285
Many 493006
Russian 492856
army 492296
copy 491815
Best 491612
mean 490877
2006 490816
clear 490594
myself 489545
al 489403
Western 489311
Spanish 488860
reported 488537
personal 488245
O 487784
changed 487690
16 487648
Canadian 486050
it's 485795
spent 485243
pass 485199
action 485058
Award 485004
Court 484803
cried 484351
giving 484273
ye 484030
France 483572
sea 483452
services 483331
Early 483185
Division 482286
H. 482259
Italian 482254
length 481997
Although 481854
s) 481851
level 481452
list 479653
west 479337
hours 479266
required 479261
Since 479090
,' 478700
ed; 478427
boy 478379
Most 478201
14 478195
2008 478088
running 477247
stand 477057
games 476457
j@@ 476381
Lady 475829
ask 475672
higher 475671
gold 475610
sort 473665
race 473562
religious 473356
Government 472961
way, 472315
100 472140
caused 472095
Al@@ 471663
deal 471638
degree 471602
Mary 470401
s." 470073
wide 469777
I'll 469665
ch@@ 468628
term 467794
m@@ 467739
p@@ 467295
shown 467221
ti@@ 467184
Association 466500
v@@ 466061
b@@ 466035
additional 465837
research 465756
Department 465418
h@@ 465314
start 464949
Mar@@ 464529
includes 464163
didn't 464159
east 463812
2012 463788
as@@ 463382
website 463306
numerous 463255
Union 462951
or@@ 462124
influence 461295
originally 460609
particularly 460234
largest 459771
appears 459668
features 459667
house, 459514
13 459505
ought 459499
Chinese 459110
ad@@ 458329
knowledge 457994
immediately 457991
Lake 457852
dead 457278
Old 456880
Japanese 455384
addition 455306
5. 454560
designed 454467
t 454389
carry 454326
B. 454170
Ar@@ 453668
,” 453563
2009 453492
property 453317
le@@ 452346
collection 449535
books 448770
l@@ 448675
manner 447430
f@@ 446697
[Illustration: 445946
appearance 445618
dear 444199
talk 443858
too, 443746
paragraph 443706
i. 443694
of, 443620
replied 443088
neither 442980
attack 442659
season. 442578
discovered 442059
remain 440801
board 439744
complete 439511
you. 439338
AND 439089
doing 438764
Street 438525
() 438504
in. 438181
2007 437956
court 437922
forward 437894
attempt 437543
s' 437536
purpose 437202
"But 437122
grew 436888
offered 436869
ed@@ 436589
refer 436558
to, 436553
c@@ 436375
forced 436361
shot 436272
can't 436198
again. 436072
8@@ 435966
below 435428
highest 435357
shows 434901
copies 434657
Catholic 433996
TV 433205
believed 433015
stone 432725
Party 432711
I, 432566
Do 430852
attention 430731
regular 430421
event 429672
native 428895
entire 428706
events 428646
famous 428158
Minister 427907
introduced 427890
e-@@ 427626
man. 427258
showed 426970
unless 426858
arms 426708
R. 426570
year. 426528
save 426173
match 426168
9@@ 426088
cost 426050
di@@ 425260
Not 425199
allow 425144
design 424875
2, 424415
summer 424205
Prince 424055
arrived 423784
um 423292
agree 422868
day. 422820
La 422277
k 422067
Music 421786
tax 421736
author 420913
gives 420856
people, 420782
doubt 420697
17 420645
Grand 420081
course, 419631
closed 419606
region 419299
forces 419101
spirit 419073
opening 419070
2014 418841
distance 418091
rose 418067
so, 417626
video 417189
Society 416971
paper 416625
ers, 416565
—@@ 416546
likely 416221
stage 415893
bad 415740
m 415515
presented 415289
try 415263
cast 415223
spoke 415039
2013 414958
visit 414500
non-@@ 413425
forms 413025
space 412989
central 412729
rock 412221
distribution 411480
attended 411446
none 411279
debut 411129
process 411095
lines 410970
(the 410840
easily 410815
th@@ 410763
History 410387
represented 410333
strange 410249
completed 410087
Greek 410031
education 409931
t, 409606
answered 409173
5@@ 408328
getting 408258
Red 408198
L. 407966
suddenly 407636
follow 407329
food 407069
considerable 406630
ag@@ 406520
middle 406428
24 406009
ol@@ 405816
I. 405697
currently 405377
northern 405348
understand 405135
feeling 404833
fourth 404787
‘@@ 404229
style 404214
D. 403642
Institute 403461
dis@@ 402866
marked 402619
India 402611
an' 402360
filled 402070
fear 401884
move 401846
e's 401680
everything 401488
physical 401224
type 401202
size 400801
Act 400514
3@@ 400292
who, 400208
son, 400187
–@@ 399780
Hall 399394
foreign 399369
minutes 398979
St 398664
reach 398578
standing 398542
date 398128
en, 398098
eventually 397924
piece 397911
Club 397527
Edward 397511
range 397457
loss 397383
Company 397251
blood 396934
battle 396808
Is 396604
track 396588
pretty 396574
finally 396355
man's 396307
ate 396031
remains 395690
evidence 395361
female 395309
entirely 395192
himself, 395085
stated 394892
es" 394170
related 393893
green 393840
involved 393085
Here 392845
(_@@ 392685
t. 391566
season, 391502
not, 391261
"Oh, 391234
certainly 391160
send 391054
de@@ 391041
legal 391034
wild 391018
replaced 390967
fee 390725
page 390377
a-@@ 390347
Irish 390156
program 390149
African 389566
2015 389396
ar 388832
” 388765
Bar@@ 388749
southern 388363
ac@@ 387929
presence 387657
construction 387484
featured 387311
director 387178
sight 387118
In@@ 387071
release 387022
.) 386963
rights 386877
4, 386502
here, 386426
car 386152
ordered 386029
blue 385779
ri@@ 385240
a's 384656
drew 384546
Art 383988
meeting 383970
limited 383688
saying 383645
ab@@ 383421
goes 382557
somewhat 382248
foot 382144
caught 382053
Tom 381953
husband 381591
States, 380954
Black 380599
fight 380588
el 380287
ro@@ 380200
greatest 380037
bound 379979
21 379757
contains 379501
command 379487
difficult 379456
successful 379432
worth 379188
Football 378193
Museum 378066
success 378049
news 377750
et@@ 377747
fellow 377603
serve 377600
places 377433
ing@@ 377410
us@@ 377334
directly 377286
larger 376809
seat 376801
10@@ 376628
Joseph 376625
value 376458
police 376379
Jack 376284
al, 375971
produce 375965
names 375773
i, 375756
struck 375605
Section 375491
50 375253
li@@ 375190
plan 374704
evening 374342
declared 374260
election 374208
w@@ 373855
fair 373497
America 373432
3, 373358
4@@ 373354
2016 373324
White 373300
fully 372891
training 372865
Public 372518
intended 372135
simply 371989
1st 371963
lies 371960
awarded 371927
capital 371692
es; 371620
"P@@ 371326
7@@ 370890
becoming 370824
world. 370814
be@@ 370768
amount 370590
6@@ 370501
figure 370467
increased 370374
22 370131
ed 370062
(or 369357
night, 368756
Center 368667
object 368543
teams 368454
|@@ 368409
Championship 368238
episode 368146
broke 368117
rich 368066
Academy 367803
spread 367732
cases 367726
Duke 367173
e; 367121
ic@@ 367058
P. 367054
twenty 366293
houses 366262
T. 366217
Official 365964
troops 365946
becomes 365905
world, 365430
F. 365273
answer 365050
19 364434
，@@ 364433
B 364244
well, 364153
simple 363850
boys 363277
cold 363235
place, 363199
Washington 363186
variety 362734
Second 362404
railway 362336
horse 362314
permission 361596
previously 361439
Chief 361427
quickly 360952
eye 360626
week 360419
"A@@ 360416
learned 360241
report 359931
12@@ 359800
Group 359617
os 359368
Louis 359150
commercial 359055
G. 358754
Professor 358732
Our 358703
nine 358536
hardly 358525
broken 358500
island 358489
er's 358488
13@@ 358256
songs 358172
"We 357863
water, 357860
6. 357732
r@@ 357034
soul 357023
persons 356904
ha@@ 356896
movement 356774
league 356306
2@@ 356274
merely 356086
writer 356023
Northern 355944
prevent 355821
experience 355769
expected 355729
project 355495
train 355199
stay 355001
hit 354800
or, 354704
cover 354633
An@@ 354600
bear 354356
wood 354112
radio 354004
y" 353931
Another 353639
ended 352722
coach 352538
status 352212
later, 351949
.--@@ 351702
officer 351132
'd 350860
2005 350849
23 350801
an. 350284
efforts 350000
trying 349546
areas 348986
providing 348923
desire 348897
os@@ 348527
independent 348420
lives 348284
president 348266
western 348214
man@@ 347904
health 347840
direct 346816
remaining 346804
composed 346770
2004 346466
"Well, 346232
se@@ 346083
college 346061
increase 345879
officers 345854
California 345564
Major 345455
section 345357
happy 345187
write 344964
via 344855
owned 344751
online 344570
De@@ 344364
"T@@ 344115
runs 344019
Southern 343924
out. 343902
table 343852
wind 343747
ine 343630
chance 343472
des 343458
14@@ 343377
meant 343277
em@@ 343170
determined 343070
seeing 343014
Car@@ 342811
Queen 342425
meaning 342145
else 341833
there. 341818
country, 341768
performance 341671
master 341031
indeed 340847
letters 340663
op@@ 340418
Before 340200
der 339716
lady 339491
I've 339427
passing 339394
License 339318
players 339206
OR 338622
stop 338590
surface 338524
material 338475
actually 338438
he, 337798
remember 337564
share 337556
2000 337510
drawn 337340
mission 337280
truth 337233
separate 336540
Let 336403
way. 336020
winning 336013
principal 335968
al. 335897
domain 335892
portion 335726
practice 334951
agreed 334779
Los 334716
trade 334034
28 333755
base 333538
upper 333423
"B@@ 333370
Island 333208
lot 333200
26 333036
opportunity 332951
Le@@ 332853
ap@@ 332776
father, 332767
(S@@ 332518
proposed 332514
London, 332074
leaves 331887
il@@ 331589
method 331439
Australia 331354
all. 331320
Film 331231
z 331048
listed 331026
obtained 330874
failed 330840
strength 330676
sun 330658
referred 330350
earth 329332
s", 328511
Europe 328481
civil 328334
earlier 328172
walked 328026
countries 327992
away, 327879
rate 327815
learn 327740
Canada 327665
Even 327458
example 327365
obtain 327330
condition 327250
works. 326964
proved 326893
ak@@ 326801
direction 326627
im@@ 326099
regard 325994
duty 325896
results 325777
keeping 325586
27 325211
removed 324941
break 324868
o. 324805
om@@ 324487
helped 324405
one. 324391
scene 324348
example, 323893
proper 323700
sister 323645
defeated 323323
noted 323306
people. 323201
frequently 323123
it; 323048
schools 323030
5, 322849
Mark 322400
century, 322399
glad 322358
mentioned 322012
"M@@ 321896
side, 321757
suppose 321703
boat 321383
federal 321322
st@@ 321119
"C@@ 320730
studied 320661
majority 320479
mere 320163
easy 319998
growing 319705
recent 319697
s," 319645
Little 319333
retired 319166
2010, 318902
leader 318617
square 318591
holding 318475
7. 318452
owner 318349
C 317967
plays 317932
works, 317855
groups 317851
Battle 317458
--the 317424
supported 317117
but, 316735
peace 316647
ia 316522
TO 316349
lo@@ 316249
highly 316246
ships 315614
Re@@ 315393
Smith 315321
2017 315217
"He 314898
trees 314836
England, 314522
equal 314313
"If 314206
room, 314112
accepted 313976
thinking 313643
al-@@ 313563
be, 313533
ation. 313452
scored 313129
ation, 312820
soldiers 312710
Frank 312610
annual 312354
ice 312142
fresh 312097
enemy 312053
God, 311890
effort 311858
Republic 311040
UK 310917
approximately 310903
Your 310797
perfect 310779
significant 310589
changes 310411
y's 310391
division 310387
k, 310314
ers. 310221
begin 310206
Germany 310170
Road 310146
die 309848
eyes, 309461
selected 309376
moving 309281
Both 309235
Un@@ 309135
ana 309059
secret 308971
Soviet 308783
straight 308759
"My 308746
id@@ 308677
other, 308534
post 308111
Paris 308069
prepared 307804
succeeded 307651
contact 307622
n 307558
model 307529
occupied 307158
search 307157
observed 307090
centre 306735
girls 306727
ur@@ 306558
self-@@ 306389
stopped 306030
opinion 305970
no@@ 305880
2011, 305723
head, 305693
bank 305448
Such 304818
up. 304772
bed 304653
primary 304540
consists 304365
to: 304117
offer 304007
buildings 303982
novel 303884
Committee 303367
musical 303021
fact, 303014
key 302985
taught 302895
claim 302870
unto 302596
therefore, 302461
6, 302435
divided 302422
2012, 301966
artist 301935
concerning 301935
us" 301924
reading 301650
rise 301489
over@@ 301334
it." 301325
De 301323
join 301288
Saint 301262
"Yes, 301087
indeed, 300982
uses 300732
2nd 300640
"" 300629
ne@@ 300525
financial 300354
Information 300101
weeks 300035
suffered 299771
si@@ 299460
China 299416
note 299347
knows 299296
re-@@ 299223
center 299198
Life 299183
marriage 299046
mostly 298587
notice 298489
Thus 298275
hair 298262
medical 298236
silver 298134
data 297861
specific 297838
extended 297836
"D@@ 297705
historical 297578
away. 297555
plant 297528
spring 297374
continue 297111
Martin 297055
edition 296980
é@@ 296813
#@@ 296734
von 296669
standard 296612
--and 296414
ou@@ 296367
bit 296275
country. 296208
Har@@ 296053
down, 295810
science 295198
l 295112
mountain 295000
anyone 294945
eastern 294901
Following 294782
whatever 294752
respect 294694
posted 294645
however 294641
connected 294503
acquired 294371
Each 294353
Dutch 294163
others. 293916
2013, 293787
conditions 293746
regarded 293711
enter 293678
Jewish 293592
opposite 293551
tree 293402
managed 293398
Bill 293358
supposed 293116
8. 293093
turning 292926
29 292522
ina 292512
gained 292146
traditional 292042
employed 291660
engaged 291461
royal 291343
ul@@ 291320
settled 291292
la@@ 291236
won't 291218
lie 290905
bridge 290834
2003 290438
X@@ 290422
2014, 290407
Three 290401
dropped 290400
century. 290180
long, 289923
2009, 289888
thee 289870
twelve 289728
Board 289656
fixed 289594
death, 289196
youth 289147
Per@@ 289132
source 288900
tells 288794
ra@@ 288703
sign 288335
s". 288125
Fort 287979
happened 287932
Eastern 287854
home, 287733
S 287657
Congress 287614
Yet 287440
y; 287415
Governor 287384
loved 287365
suggested 287322
About 287173
completely 287113
energy 286886
7, 286701
sought 286592
II. 286577
approach 286555
IN 286512
house. 286398
Ch@@ 286258
Colonel 286160
serious 286100
(C@@ 285906
Man@@ 285905
beside 285654
x 285601
scarcely 285574
ways 285301
8, 284929
D 284568
wife, 284487
ation 284475
containing 284316
street 284086
15@@ 283907
place. 283803
"a 283672
mouth 283633
40 283382
wall 283342
inside 283205
claimed 283175
Con@@ 283049
Order 283016
article 282965
sweet 282945
2015, 282736
rule 282498
in' 282477
Like 282221
create 282034
Force 282000
double 281745
economic 281716
back, 281682
2008, 281618
YOU 281607
expression 281576
student 281354
step 281050
theory 280959
h 280937
hath 280879
land, 280839
launched 280566
Who 280447
es: 280390
afterwards 280197
issued 279906
contract 279870
bright 279867
families 279826
er" 279722
immediate 279617
month 278763
advanced 278742
feature 278688
hot 278596
sufficient 278412
Among 278347
powerful 278290
(in 278086
2002 277889
walk 277653
Latin 277610
Science 277608
comply 277528
income 277264
draw 277181
"F@@ 277110
Civil 276847
lack 276407
together, 276293
mass 276127
d 276123
ability 276008
campaign 275874
authority 275813
Alexander 275809
picture 275809
society 275763
daily 275677
Team 275516
Bishop 275451
y-@@ 275405
e) 275267
route 275104
Bay 275078
studio 274996
waiting 274913
um@@ 274706
creating 274592
applied 274450
market 274282
refused 274274
ter@@ 274217
sh@@ 274201
format 274027
1@@ 273967
himself. 273284
treatment 273249
age, 273127
men. 272871
well. 272761
co@@ 272484
serving 272299
Service 272105
goal 271968
Mr 271899
"H@@ 271892
protect 271890
smaller 271825
usual 271747
St@@ 271692
occurred 271685
arm 271596
agreement, 271544
sitting 271446
organization 271113
E 270964
aircraft 270920
issue 270840
2018 270834
│ 270825
characters 270816
impossible 270666
structure 270609
Summer 270575
Pacific 270322
[Footnote 270188
noble 270147
needed 270135
est 270073
expressed 270049
Arts 269960
Par@@ 269686
ne 269530
granted 269502
Di@@ 269482
up@@ 269476
ent@@ 269375
iron 269289
numbers 269088
Under 268926
to@@ 268908
county 268896
sudden 268869
ordinary 268856
"), 268663
France, 268492
e: 268460
policy 268411
death. 268377
printed 268334
2001 268275
Texas 268165
te 268020
Despite 267965
2016, 267900
Se@@ 267875
distributing 267875
Day 267776
Lee 267709
glass 267691
know, 267688
greatly 267649
buried 267615
ec@@ 267463
others, 267455
older 267078
"G@@ 267073
adopted 266967
Big 266945
Kingdom 266893
Young 266654
2007, 266540
16@@ 266513
unable 266462
Be@@ 266342
$@@ 266054
do, 265983
ley 265938
male 265770
sit 265624
le, 265622
El@@ 265578
It's 265541
Green 265472
victory 265325
mile 265243
+ 265087
"K@@ 265076
s--@@ 264979
9. 264771
ans 264733
Mal@@ 264505
ka 264407
Don 264270
war, 264169
that's 264077
per@@ 263992
starting 263982
distributed 263733
winter 263684
Ma@@ 263595
aid 263527
score 263519
mainly 263509
Law 263272
coast 263247
cross 263224
"and 263184
En@@ 262804
responsible 262703
York, 262696
ma@@ 262568
9, 262529
camp 262513
hi@@ 262496
fast 262403
slowly 262326
trouble 262306
network 262038
subsequently 261896
carrying 261860
genus 261519
Sh@@ 261442
31 261371
out@@ 261299
recognized 261290
fish 261087
Holy 261031
history. 260971
consider 260949
qu@@ 260911
Research 260886
Scottish 260868
du 260791
Mon@@ 260577
Secretary 260534
contain 260484
corner 260296
face, 260254
operations 260151
Navy 259885
Ver@@ 259833
operated 259712
freely 259560
afraid 259535
les 259425
refund 259409
ke 259316
Japan 259088
del 259044
children, 259027
sides 258936
Parliament 258728
,--@@ 258606
ts 258518
kill 258198
animal 258144
Director 258079
x@@ 257774
orders 257677
g 257337
water. 257337
Mo@@ 257300
walls 257258
T 257249
father's 257033
Joe 256766
name, 256434
mother, 256137
pair 256083
moral 255916
narrow 255913
days, 255757
); 255663
pleasure 255591
volunteers 255478
hand. 255153
Though 255105
Only 255081
City, 254844
plans 254595
spot 254554
ov@@ 254507
te@@ 254492
threw 254337
beneath 254064
bi@@ 253992
computer 253974
floor 253793
beat 253530
ant 253483
box 253312
Education 253064
fighting 252926
rules 252922
av@@ 252910
other. 252876
"L@@ 252749
Mor@@ 252626
phrase 252614
escape 252593
memory 252239
couple 252058
Virginia 251883
Book 251838
conducted 251670
organized 251616
supply 251612
Hill 251045
2017, 250905
o' 250880
compared 250636
words, 250463
drive 250447
difference 250408
weight 250392
bought 250243
speed 250175
da 250101
Master 249834
oil 249790
mine 249773
largely 249744
Middle 249656
speaking 249589
ing; 249587
M 249569
Why 249554
offers 249481
sub@@ 249442
commonly 249436
build 249331
critical 249236
receiving 249232
watch 249197
studies 249041
department 249007
attached 248839
morning, 248789
wished 248752
eBook 248582
Man 248547
units 248480
captain 248389
edge 248309
ton 248264
beauty 248261
more, 248251
accept 248066
ang@@ 247941
reference 247769
plain 247740
Mc@@ 247737
Historic 247626
fought 247617
prove 247530
secure 247524
Jim 247388
existence 247337
ni@@ 247206
soft 247205
Christ 246950
chosen 246762
decision 246679
lying 246555
yards 246499
yellow 246315
interesting 246116
clearly 246115
evil 246069
faith 246068
accompanied 246043
competition 245884
me@@ 245869
possibly 245806
horses 245754
Ber@@ 245681
said: 245623
Every 245421
derived 245391
pieces 245349
senior 245290
distribute 245180
politician 245159
revealed 245153
visited 244854
Bo@@ 244312
thirty 244293
0@@ 244289
sp@@ 244264
p 244258
sky 244147
half-@@ 244127
ir@@ 244109
a) 243959
is. 243908
Zealand 243666
"That 243582
Q@@ 243318
despite 243250
di 243110
vast 243095
Am@@ 242982
effects 242975
"In 242842
and@@ 242791
*** 242756
Democratic 242678
possession 242677
fifty 242653
vocals 242644
Special 242601
window 242460
management 242352
--a 242316
judge 242316
oc@@ 242267
se 242220
"R@@ 242123
spoken 241949
2006, 241915
10, 241548
stories 241533
Earl 241256
formerly 241095
him; 241086
ter 241082
parents 241022
family. 240985
na 240984
brown 240961
Arthur 240777
perfectly 240776
earned 240682
od@@ 240653
younger 240618
constant 240534
Or@@ 240482
finding 240295
quality 240193
Jesus 240091
occasion 240011
provides 239837
Sal@@ 239823
dry 239692
mind, 239641
singer 239570
"How 239568
prominent 239426
Van 239354
end@@ 239335
first, 239244
before, 239234
scientific 239089
minute 238736
era 238617
L 238496
Later 238490
thrown 238289
ill 238282
actor 238215
ly 238158
mixed 238105
spite 238092
Where 238079
connection 238079
,@@ 238053
Ireland 238035
fit 237872
wait 237710
mis@@ 237616
School, 237602
permitted 237602
reduced 237512
(and 237426
media 237414
apparently 236860
looks 236805
staff 236671
importance 236625
engine 236499
ta@@ 236495
broad 236370
'I 236271
firm 236251
concept 236080
ot@@ 236063
P 235910
_The 235868
right, 235863
constructed 235819
ay@@ 235789
Chicago 235411
family, 235360
Valley 235355
companies 235123
n. 235117
extent 235108
advantage 234974
ya 234964
England. 234950
exactly 234943
situation 234907
increasing 234900
host 234883
films 234873
stands 234863
showing 234770
Career. 234626
relations 234523
passage 234489
twice 234487
fifth 234401
Mac@@ 234387
Bal@@ 234317
home. 234193
medium 234036
reaching 233608
v. 233586
growth 233549
test 233480
e." 233310
are, 233235
 @@ 233231
(P@@ 233166
returning 233145
ball 232975
bottom 232969
60 232839
goals 232686
cities 232608
wonder 232594
o" 232585
driven 232258
require 232238
"E@@ 232169
distinguished 232152
ing" 231974
ie 231926
N. 231876
off, 231843
Emperor 231736
18, 231682
branch 231581
excellent 231539
heads 231451
actual 231343
(M@@ 231318
for, 231260
Elizabeth 231208
“I 230890
2.@@ 230836
ones 230706
figures 230677
contained 230658
city, 230536
case, 230297
Women's 229901
times, 229866
volume 229797
head. 229753
ig@@ 229744
literary 229729
room. 229684
Press, 229599
individuals 229587
lose 229534
machine 229443
Mount 229417
prior 229375
birds 229362
é 229359
woman, 229356
College, 229350
committed 229335
Francis 229132
seek 228795
Radio 228793
ings 228701
Brown 228604
elements 228531
Bob 228509
Just 228499
1999 228437
transferred 228395
destroyed 228358
.... 228288
r 228267
grow 228261
men's 228226
side. 228177
Ro@@ 228125
Harry 228117
b 227911
(as 227910
., 227820
ver@@ 227619
Col@@ 227610
conduct 227569
thoughts 227542
he's 227360
stars 227360
Will 227268
"It's 227137
ring 227102
20@@ 226769
10. 226754
e," 226691
Upon 226660
17@@ 226644
so. 226595
tour 226512
pointed 226493
quiet 226443
confirmed 226397
Cor@@ 226346
s), 226300
begins 226133
ic 226128
Awards 226098
industry 225954
el, 225927
ii. 225925
an's 225659
line, 225615
location 225597
permanent 225591
closely 225534
initially 225529
Th@@ 225432
Federal 225331
intellectual 225268
gun 225261
rank 225250
Festival 225161
grown 225117
guitar 225023
G 224590
ations 224501
over, 224477
avoid 224361
eyes. 224137
slightly 224125
3rd 223986
van 223982
town, 223881
V 223768
captured 223725
destroy 223663
en. 223557
recently 223479
15, 223428
positive 223341
ends 223332
powers 223201
web 223172
safe 223151
that. 223024
types 222861
Indians 222835
speech 222720
fallen 222642
touch 222629
possessed 222409
Africa 222391
systems 222288
manager 222270
terrible 222037
relationship 221805
night. 221759
methods 221561
advance 221424
city. 221378
acting 221347
things, 221245
assigned 221096
ed: 220822
address 220815
talking 220742
demand 220727
recording 220678
eat 220669
"I'm 220482
19th 220416
calling 220361
e", 220300
rising 220218
add 220208
he@@ 220155
more. 220020
Now, 219990
mark 219957
Scott 219800
records 219735
professor 219660
ere 219627
trust 219592
text 219555
But, 219549
ari@@ 219537
area. 219511
ber@@ 219453
"N@@ 219398
regional 219376
Office 219270
Santa 219253
star 219112
content 219059
danger 219037
Year 219036
"Project 218832
a", 218830
crew 218772
Her@@ 218696
footballer 218608
"This 218562
Prime 218459
heart, 218420
purchased 218321
album, 218301
Commission 218128
Well, 218095
combined 218050
competed 217900
gentleman 217787
operation 217739
Long 217712
friend, 217683
Ne@@ 217560
12, 217558
hill 217557
measure 217513
ideas 217486
door, 217427
1998 217364
amongst 217360
University, 217269
65 217235
minor 217051
Bank 216883
"). 216773
Love 216649
attempted 216619
needs 216511
"W@@ 216394
worthy 216393
Oh, 216344
capable 216252
animals 216199
file 216012
unit 215971
difficulty 215966
notable 215715
pressure 215702
Chi@@ 215584
K. 215576
warm 215429
2018, 215334
promoted 215179
que 215128
V. 215061
holds 214994
Assembly 214891
F 214713
price 214661
creation 214656
Co@@ 214555
lands 214555
III 214492
ed" 214365
d'@@ 214271
multiple 214257
X 214184
"; 214097
you." 214083
armed 213959
Philip 213948
steps 213943
park 213902
watched 213713
"No, 213673
complex 213623
surrounding 213225
acts 213208
women's 213207
entitled 213204
0 213198
crossed 213149
1-@@ 213142
11, 213057
repeated 213006
Railway 212907
Su@@ 212852
existing 212824
magazine 212769
situated 212737
THIS 212644
old, 212607
flight 212562
ate, 212315
ant@@ 212205
20th 212188
90 211929
calls 211861
sons 211842
grand 211822
poet 211821
see, 211819
pp. 211728
Foundation, 211612
matters 211571
dedicated 211387
£@@ 211385
widely 211367
ist 211243
face. 211222
"_@@ 211190
treated 211126
Boston 211125
FOR 211053
library 211021
pleasant 210972
pure 210731
bringing 210713
ed." 210702
admitted 210564
producer 210544
were, 210361
municipality 210328
ra 210285
ut@@ 210256
(with 210234
setting 210221
color 210177
interested 210170
?' 210164
understood 210153
2010. 210023
Mike 210011
finds 209996
200 209992
artists 209952
dance 209898
24, 209843
below. 209816
here. 209810
graduated 209758
huge 209678
Olympic 209599
Once 209556
do. 209514
ch 209343
1,@@ 209173
travel 209128
Bel@@ 209028
Jones 209003
name. 208940
Records 208851
etc. 208760
honour 208725
now. 208526
Walter 208520
moment, 208519
promised 208497
c 208384
*@@ 208351
union 208261
extremely 208007
capacity 208002
go@@ 207916
equally 207834
press 207788
security 207769
exclaimed 207664
Blue 207658
historic 207640
um, 207629
wouldn't 207589
honor 207572
Then, 207558
wonderful 207547
heat 207517
Library 207451
Paris, 207407
R 207371
More 207361
otherwise 207344
Because 207274
journey 207251
entrance 207232
Father 207229
ons 207131
inspired 207068
i" 207055
Republican 206947
losing 206866
Me@@ 206800
gradually 206737
(a 206717
flowers 206672
o-@@ 206665
quarter 206615
articles 206596
mental 206572
whilst 206520
ani 206462
18@@ 206293
parish 206252
gets 206242
ing-@@ 206129
path 206123
brief 206088
Li@@ 206008
s-@@ 205794
Social 205755
telling 205545
Daniel 205515
gain 205308
primarily 205302
shared 205100
by, 204921
questions 204892
inter@@ 204825
sports 204801
1.@@ 204699
Pro@@ 204543
domestic 204411
bo@@ 204374
Kar@@ 204363
newspaper 204340
"O@@ 204321
children. 204235
Supreme 204171
1996 204127
forest 204114
Town 204065
fire, 204031
surrounded 204009
WITH 203943
do@@ 203895
{@@ 203878
car@@ 203827
sleep 203812
rare 203797
curious 203745
port 203706
Route 203606
Polish 203502
2005, 203489
unknown 203486
parties 203466
gathered 203391
!' 203352
Health 203211
couldn't 203128
issues 203117
ago 203059
religion 203004
il 202785
Andrew 202779
par@@ 202749
settlement 202721
carefully 202652
Military 202620
partly 202599
Those 202582
16, 202509
land. 202410
award 202403
France. 202385
2011. 202376
(N@@ 202314
4th 202233
attacked 202190
su@@ 202175
progress 202145
book, 202104
14, 202062
arranged 202040
2009. 202012
Johnson 201823
registered 201717
choose 201672
20, 201646
obliged 201620
opposed 201544
credit 201463
basis 201456
laughed 201395
links 201391
): 201361
electric 201268
remarkable 201202
I'd 201137
image 201030
drawing 200920
forget 200859
circumstances 200841
Italy 200806
)" 200792
claims 200662
garden 200617
isn't 200600
back. 200557
crowd 200479
painted 200384
Bur@@ 200379
cultural 200357
shut 200131
ad 200113
II, 200094
ner 200051
ates 200019
putting 200001
knowing 199919
spiritual 199878
ar, 199607
Chris 199570
District, 199491
bar@@ 199451
Station 199396
<br> 199369
on's 199337
Conference 199306
tone 199207
Maria 199065
vol. 199002
province 198731
her@@ 198726
broadcast 198713
as. 198685
Senate 198642
notes 198631
es) 198592
minister 198585
nation 198565
serves 198494
2012. 198456
invited 198394
er-@@ 198388
fields 198381
teaching 198324
Cha@@ 198277
Championships 198257
"but 198252
check 198243
risk 198214
1997 198149
marry 198089
shape 197972
stock 197914
council 197896
planned 197881
replacement 197793
basketball 197759
thick 197676
Pennsylvania 197594
lips 197516
golden 197436
height 197359
guard 197309
ah 197254
shook 197216
Several 197119
silent 197111
s). 197099
sell 197095
stations 196974
defeat 196960
17, 196894
metal 196843
Mexico 196831
Bi@@ 196697
ma 196694
raise 196668
vote 196500
Steve 196336
ground, 196224
bird 196192
pre@@ 196134
before. 196108
administrative 196021
trial 195883
explained 195794
hall 195673
plants 195654
expect 195532
Justice 195508
vi@@ 195405
als 195387
Creek 195333
Series 195326
2008. 195228
school, 195133
con@@ 194978
sa@@ 194876
ite 194791
(B@@ 194773
store 194751
all@@ 194698
ep@@ 194664
protection 194571
13, 194569
"There 194456
distant 194412
rapidly 194303
distinct 194267
seized 194242
war. 194215
review 194208
assistance 194128
Madame 194064
2007. 194041
response 193990
gas 193947
es." 193918
hands, 193887
delivered 193885
RE@@ 193828
represent 193808
Angeles 193702
estimated 193578
wise 193574
s? 193557
dog 193479
wants 193453
peculiar 193423
Stephen 193374
flying 193358
Francisco 193341
featuring 193300
another, 193180
end, 193128
stream 193021
mo@@ 192944
?” 192937
you're 192837
leaders 192833
bus 192807
hung 192756
Britain 192752
extensive 192684
’ 192639
household 192583
wrong 192573
Sunday 192471
system. 192425
2013. 192407
birth 192350
alongside 192303
ated 192273
chair 192252
45 192245
Qu@@ 192185
regarding 192060
ta 191989
Cape 191922
La@@ 191900
am, 191893
Church, 191882
und 191849
á@@ 191792
ge@@ 191761
consisted 191721
causes 191706
Cross 191593
brother, 191538
relation 191527
remembered 191516
Ministry 191496
s! 191448
tournament 191334
El 191280
will, 191239
university 191236
age. 191189
’@@ 191166
mention 191148
agent 191088
Sam@@ 191064
practical 191035
Development 191019
interview 190897
Police 190851
joy 190828
child, 190716
sharp 190710
y: 190621
} 190553
Home 190537
bearing 190514
subsequent 190512
ard 190356
objects 190318
Over 190173
's, 190103
damage 189946
present, 189903
thousands 189803
inhabitants 189795
throw 189776
me." 189755
c. 189742
learning 189670
Le 189651
anxious 189600
bodies 189576
evidently 189533
median 189527
ai 189493
officially 189438
30, 189411
paying 189359
ating 189315
2-@@ 189265
arrival 189219
problem 189145
executive 188950
est@@ 188898
tracks 188806
form, 188773
Executive 188681
Jean 188651
matches 188651
(which 188644
sum 188587
movie 188505
2014. 188496
Personal 188383
th 188356
at, 188348
pleased 188198
pale 188165
promise 188125
Spain 187980
k. 187936
activities 187841
renamed 187820
thought, 187759
Florida 187758
lin@@ 187675
sir, 187521
falling 187516
assistant 187483
weather 187404
statement 187191
"that 187097
faced 187082
aged 187059
 – 186994
Gar@@ 186989
Medical 186974
fifteen 186953
perform 186935
initial 186899
justice 186871
team. 186860
mighty 186576
Street, 186557
Ab@@ 186530
under@@ 186480
mon@@ 186471
please 186410
tri@@ 186334
border 186270
', 186257
"Do 186253
shortly 186221
Sea 186128
Golden 186107
one's 185995
editions 185924
Sha@@ 185902
opposition 185896
wounded 185855
air, 185822
Mil@@ 185792
naturally 185744
ell 185705
pe@@ 185671
og@@ 185648
quick 185620
Washington, 185565
Christmas 185536
culture 185479
rural 185451
Line 185440
Web 185427
Williams 185367
Hong 185295
editor 185286
law, 185239
express 185221
buy 185121
holy 185085
Com@@ 185037
principle 184949
collected 184948
attempts 184945
Games 184850
Gu@@ 184804
sacred 184724
Du@@ 184703
ang 184659
operating 184601
ly@@ 184582
ler 184528
conversation 184515
friendly 184490
America, 184481
power, 184386
FC 184313
30@@ 184297
resulted 184173
familiar 184031
sk@@ 183912
mar@@ 183903
Lieutenant 183827
Rome 183797
aware 183578
them; 183533
storm 183511
not. 183438
celebrated 183431
Count 183398
down. 183205
discover 183107
21, 183086
channel 183016
Having 182980
function 182961
Notable 182957
devoted 182922
oldest 182915
card 182862
freedom 182835
days. 182811
wear 182808
estate 182784
:@@ 182737
1995 182612
Sch@@ 182609
maximum 182558
false 182539
1994 182469
Wales 182466
affected 182464
town. 182412
d. 182388
walking 182383
N 182353
Empire 182342
19, 182312
hundreds 182297
[Sidenote: 182288
slight 182225
1992 182184
problems 182141
m. 182117
--I 182111
useful 182094
determine 182068
drove 182025
pages 181997
severe 181996
watching 181973
contemporary 181964
BBC 181930
K 181885
valley 181840
Vol. 181707
assumed 181667
2015. 181650
Swedish 181612
ob@@ 181602
continues 181583
description 181563
towns 181528
says, 181492
body, 181443
Four 181428
lake 181312
newly 181294
activity 181237
nearby 181166
classes 181110
eth 181110
on" 180960
guns 180958
last, 180953
allowing 180910
id 180827
yourself 180763
views 180757
Pol@@ 180741
interests 180731
PROJECT 180728
love, 180608
u, 180583
job 180546
25, 180518
3-@@ 180444
gi@@ 180422
mi@@ 180394
application 180381
motion 180243
doctor 180232
yard 180232
pulled 180225
es' 180039
hearing 179956
"'@@ 179922
+@@ 179839
Centre 179836
willing 179834
grave 179776
ev@@ 179741
Russia 179635
passes 179610
!” 179517
medal 179489
22, 179478
participated 179451
attend 179381
2001, 179248
Mer@@ 179189
Atlantic 179157
picked 179130
ati@@ 179066
drop 179037
Corps 179020
o's 179000
temple 178969
silence 178895
)@@ 178864
maintained 178770
there's 178738
Between 178594
Biography. 178433
"All 178427
thin 178383
task 178348
copy, 178331
choice 178322
proceeded 178266
resulting 178179
London. 178152
Pope 178098
un 178076
finish 178069
ke@@ 178034
forty 177882
law. 177877
dangerous 177786
informed 177757
wooden 177694
catch 177688
origin 177684
remove 177645
Carolina 177570
Also 177485
wa@@ 177424
educational 177404
No@@ 177339
form. 177289
dress 177153
programs 176824
az@@ 176821
Register 176800
Foreign 176749
costs 176741
strike 176702
strongly 176603
Further 176589
Community 176576
(D@@ 176552
apply 176539
Sar@@ 176449
singing 176224
ting 176209
earliest 176160
der@@ 176104
exchange 175990
academic 175966
11. 175945
Was 175933
y." 175921
Port 175869
be. 175863
pi@@ 175848
develop 175710
bore 175696
ren@@ 175683
extreme 175679
friends, 175636
safety 175608
secondary 175534
tall 175522
saved 175520
done, 175501
mer@@ 175465
vessel 175443
wasn't 175409
prison 175290
fairly 175271
feet, 175258
founder 175246
23, 175240
light, 175234
formula_@@ 175134
2004, 175108
wore 175063
Ad@@ 175045
citizens 174930
As@@ 174918
y," 174889
governor 174867
ly, 174859
reports 174800
commanded 174772
product 174618
system, 174608
charged 174600
Perhaps 174539
candidate 174505
literature 174471
products 174471
d, 174443
a; 174300
on-@@ 174285
n, 174283
Theatre 174106
28, 174053
Good 174049
doesn't 174049
bass 173944
equipment 173937
drama 173760
noticed 173742
ate. 173621
principles 173585
so@@ 173544
afternoon 173473
cry 173446
ale 173404
ur 173376
streets 173352
formation 173333
mounted 173271
smile 173222
details 173219
hospital 173201
perhaps, 173080
Samuel 173043
Open 173035
skin 173030
women, 172946
le. 172858
tears 172827
sending 172822
Mexican 172772
den 172741
converted 172628
wing 172618
Super 172594
Track 172572
e". 172521
the@@ 172448
rode 172312
bill 172309
Or 172295
begun 172213
Coast 172210
occasionally 172165
had, 172151
ian 172146
University. 172123
duties 171993
allows 171970
eg@@ 171947
v 171947
flat 171942
belief 171935
association 171913
field, 171909
king, 171794
ans, 171651
alone, 171645
overall 171634
dozen 171582
2000, 171534
papers 171511
Thus, 171481
Asian 171468
user 171369
2006. 171350
industrial 171264
turns 171263
(disambiguation) 171219
voice, 171216
Tri@@ 171198
slow 171181
fleet 171033
superior 171017
forming 171001
well-@@ 170899
y) 170898
--" 170844
Top 170733
War. 170699
Albert 170631
castle 170534
ach@@ 170493
bu@@ 170442
Er@@ 170404
com@@ 170396
leads 170387
ens 170377
27, 170330
ous 170318
itself, 170249
ride 170126
Ben 170076
Ohio 170064
ali@@ 170054
sets 170050
nature, 169944
500 169877
waters 169859
maintain 169839
2016. 169833
administration 169765
struggle 169764
Through 169727
4-@@ 169654
Business 169648
ranked 169619
Time 169568
committee 169461
line. 169395
mountains 169355
follows 169172
12. 169166
CD 169161
tied 169112
able, 169085
heavily 169027
26, 169005
gu@@ 169005
Be 169003
25@@ 168940
ata 168926
affairs 168825
protected 168758
Dis@@ 168725
territory 168687
together. 168563
history, 168536
teacher 168498
understanding 168435
feelings 168399
ahead 168359
co-@@ 168301
America. 168253
ine, 168216
da@@ 168187
identified 168184
series, 168158
instance, 168156
Doctor 168117
part, 168060
Frederick 167951
period, 167951
an" 167929
sea, 167819
Mel@@ 167733
crime 167705
scattered 167701
farm 167663
sees 167639
Turkish 167501
5th 167500
1991 167487
Wal@@ 167463
ud@@ 167388
separated 167314
ending 167270
representing 167147
th, 167118
(b. 167081
1993 167066
tic@@ 167023
Can@@ 166956
you?" 166875
Israel 166873
dinner 166843
internal 166828
Nor 166807
actress 166789
whenever 166781
requirements 166767
explain 166764
ey 166711
pain 166527
l'@@ 166459
Sp@@ 166438
winner 166419
go, 166413
Rock 166387
bar 166385
suffering 166383
effective 166341
House, 166275
valuable 166142
burning 166134
divine 166122
Cal@@ 166043
India. 166031
For@@ 166028
Hol@@ 165974
appearances 165935
Oxford 165914
facts 165826
desired 165823
e--@@ 165768
proof 165722
murder 165719
door. 165667
bl@@ 165659
talked 165633
Sam 165581
Are 165512
ladies 165505
Gutenberg" 165488
in-@@ 165479
shore 165474
abandoned 165460
pro@@ 165454
focus 165443
Europe, 165277
(T@@ 165106
indicate 165093
good, 165073
game, 165026
0.@@ 164973
accordance 164971
acted 164960
are@@ 164751
establishment 164741
producing 164649
proud 164614
War@@ 164569
sexual 164531
po@@ 164522
championship 164429
trained 164415
unique 164364
authorities 164292
for@@ 164273
end. 164232
typically 164220
a: 164194
fired 164187
worn 164102
rear 164099
---- 164068
potential 164031
defined 164029
river, 163984
establish 163981
Si@@ 163956
ling 163714
e! 163682
once, 163619
it?" 163584
driving 163408
nominated 163361
demanded 163335
ceased 163258
ville 163256
sing 163194
concluded 163174
Ram@@ 163068
loose 163066
consisting 163064
absence 162988
breaking 162954
"Don't 162935
hat 162911
normal 162893
you'll 162887
boy, 162866
hidden 162838
(R@@ 162819
constantly 162802
worse 162747
service. 162694
min@@ 162684
al" 162659
ism 162611
ages 162606
signs 162589
ell@@ 162562
re 162534
someone 162512
ten@@ 162498
2) 162419
guest 162358
(A@@ 162281
anti-@@ 162267
split 162239
approved 162225
Min@@ 162224
message 162218
War, 162207
ak 162162
off. 162134
brothers 162093
killing 162057
Scotland 162051
IN@@ 162044
ago, 162004
"Not 161982
mind. 161960
3.@@ 161940
Columbia 161924
Tony 161876
titled 161869
1990 161864
rapid 161794
subjects 161791
game. 161738
also, 161718
wine 161641
solo 161605
rendered 161555
inner 161539
colour 161467
designated 161360
school. 161354
appearing 161325
sentence 161244
Gold 161242
touched 161210
hand@@ 161187
this. 161183
relief 161145
promotion 161090
addressed 161036
Mas@@ 160995
ph@@ 160993
rain 160933
Korean 160883
starring 160869
digital 160841
chose 160685
Pal@@ 160676
U 160673
cell 160649
35 160615
Victoria 160595
weak 160575
employees 160556
experienced 160555
(, 160518
dressed 160462
occur 160442
。@@ 160376
Field 160361
au 160349
l. 160304
fashion 160247
A, 160217
sixth 160171
"Then 160105
enjoyed 160069
fly 160038
arrested 160024
burst 159983
seasons 159905
priest 159878
windows 159868
drink 159803
extraordinary 159778
1) 159692
ation@@ 159688
besides 159670
California, 159663
DE@@ 159661
surprised 159618
wholly 159521
money, 159519
ge 159394
introduction 159340
es", 159339
rooms 159141
sc@@ 159137
roof 159131
performances 159110
29, 159107
church, 159031
right. 159004
steel 158998
ani@@ 158973
Rev. 158947
W 158892
occurs 158879
headed 158877
falls 158823
eBooks 158767
fill 158659
achieved 158650
lifted 158596
fruit 158586
confidence 158516
absolutely 158500
ourselves 158406
hosted 158380
word, 158351
ini 158267
bent 158249
contributed 158081
state, 158076
ino 158043
Anne 158035
residents 157956
Ko@@ 157907
applicable 157907
Born 157890
ow@@ 157874
AL@@ 157809
stayed 157798
glance 157670
payments 157656
girl, 157621
2017. 157601
banks 157454
expanded 157393
King's 157384
tower 157341
belonging 157310
Lo@@ 157226
dare 157212
Jews 157207
branches 157198
measures 157147
wood, 157120
ik@@ 157037
reasons 157029
Dick 157013
2003, 156940
Val@@ 156927
Don't 156907
disease 156705
joint 156686
painting 156577
Sports 156518
solid 156431
Junior 156421
density 156400
ing: 156359
scenes 156343
Had 156339
Princess 156261
Germany, 156190
Premier 156183
it," 156180
--that 156173
entering 156121
war@@ 156003
Del@@ 155973
obtaining 155933
er; 155908
ano 155881
compliance 155826
own, 155823
benefit 155788
midst 155763
chi@@ 155758
educated 155689
entity 155671
Member 155650
Margaret 155588
Po@@ 155510
favour 155488
intention 155485
instant 155480
reign 155470
positions 155462
prepare 155445
representative 155356
ist@@ 155352
Lu@@ 155331
Airport 155278
ko 155274
Brian 155222
technology 155214
"La 155184
Pi@@ 155144
faces 155069
ain't 155059
rough 155034
Mountain 154992
Jackson 154959
And, 154931
Michigan 154899
q@@ 154770
addition, 154758
vessels 154758
Mat@@ 154754
company, 154714
percent 154709
berg 154667
references 154641
tie 154640
character, 154632
Star 154618
mother's 154605
Hal@@ 154566
sick 154553
me; 154552
necessarily 154549
interior 154534
land@@ 154472
conference 154462
gate 154431
relatively 154426
signal 154405
suit 154394
ham 154370
ys 154357
housing 154328
themselves, 154314
times. 154314
Wilson 154268
sources 154268
replace 154219
pushed 154162
display 154031
York. 154023
election, 154014
asking 153942
request 153894
altogether 153853
foundation 153813
God's 153786
"They 153742
hoped 153667
spend 153666
frequent 153657
res@@ 153656
Y 153647
intelligence 153573
e_ 153541
(L@@ 153503
requires 153487
actions 153447
Simon 153433
Roger 153413
Human 153409
Ros@@ 153402
Press 153330
materials 153322
arts 153291
fi@@ 153259
truly 153252
sorry 153187
escaped 153162
ara 153143
busy 153091
daughter, 153091
Anthony 153031
consequence 152984
generation 152963
2005. 152924
outer 152924
attacks 152844
violent 152831
entry 152820
over. 152727
deeply 152697
1988 152695
Shi@@ 152605
Regiment 152596
Jr. 152560
mid-@@ 152526
ins 152518
ley, 152469
(now 152452
ous, 152412
He@@ 152409
ations, 152358
goods 152351
visible 152273
writers 152212
to. 152209
_; 152201
Family 152190
pressed 152160
sad 152159
hotel 152123
Lewis 152115
influenced 152104
workers 152082
can@@ 152071
5-@@ 152067
anywhere 151979
Imperial 151957
Part 151687
Al 151666
government, 151663
surprise 151656
covers 151598
Ak@@ 151573
Memorial 151572
Me 151497
enjoy 151486
H 151447
uk@@ 151439
handed 151398
Mag@@ 151373
heart. 151356
belonged 151335
table, 151328
truth, 151129
exercise 151052
favor 151043
Sk@@ 151026
essential 150999
People 150994
analysis 150938
impression 150901
explanation 150847
thing, 150843
refers 150813
code 150812
when, 150751
tor@@ 150629
el. 150584
Third 150573
flow 150452
cup 150439
platform 150438
successfully 150420
inches 150368
ir 150332
brain 150330
trademark 150291
(The 150257
Prize 150220
own. 150181
worst 150180
commander 150164
24@@ 150106
Jo@@ 150103
gentle 150032
labor 150026
ella 150018
": 150005
honest 150002
tu@@ 149926
Adam 149897
performing 149828
nations 149777
necessity 149732
br@@ 149730
1989 149662
soil 149649
ha 149634
include: 149581
32 149547
clean 149477
villages 149403
har@@ 149389
23@@ 149362
fire. 149361
Power 149355
think, 149349
stepped 149343
ou 149339
liked 149336
f 149260
waited 149212
ings, 149202
translated 149188
Ri@@ 149124
ground. 149117
surely 149037
true, 149003
aside 148985
relative 148980
naval 148956
onto 148946
resolved 148927
earth, 148856
ai@@ 148852
Kal@@ 148779
contributions 148749
an-@@ 148693
it? 148679
legs 148658
Ham@@ 148635
preserve 148614
promoting 148541
government. 148532
cars 148351
Tour 148337
point, 148322
describes 148316
traffic 148312
bed, 148220
communication 148205
Castle 148186
we@@ 148141
Hu@@ 148084
Australia. 148010
ation; 148008
Class 148001
Park, 147994
Hospital 147950
6-@@ 147938
enough, 147913
temperature 147898
.com 147865
ay 147826
covering 147796
au@@ 147791
News 147759
myself, 147746
Modern 147731
Free 147673
saying, 147637
hills 147631
Sydney 147618
Head 147576
(F@@ 147511
(see 147510
ey@@ 147504
Political 147475
series. 147248
pa@@ 147224
Jane 147194
s_ 147155
blow 147129
wealth 147067
"She 147004
ah@@ 146963
-t@@ 146958
music, 146873
arms, 146725
publication 146696
scoring 146621
causing 146486
brave 146467
ent, 146424
discovery 146371
Sa@@ 146272
striking 146218
exist 146200
et, 146153
nice 146141
soldier 146133
technical 146132
ard@@ 146118
approached 146104
hole 146097
crossing 146072
comedy 146069
no, 146056
audience 146042
Have 145989
S, 145988
Go@@ 145833
ong 145810
theme 145795
River, 145741
derivative 145711
preserved 145701
Nor@@ 145696
Norwegian 145690
levels 145607
teach 145587
ultimately 145555
Ser@@ 145545
regions 145378
ent 145359
supporting 145317
grant 145311
secured 145275
formal 145268
pre-@@ 145218
tender 145195
Mu@@ 145190
Europe. 145183
come, 145117
í@@ 145068
external 145056
Bu@@ 145005
AR@@ 144972
taste 144969
thank 144890
is" 144881
Taylor 144878
threatened 144878
accused 144867
Ag@@ 144844
Uncle 144815
grass 144796
Infantry 144785
Country 144778
degrees 144671
ine@@ 144669
transport 144595
"That's 144567
short, 144556
Dar@@ 144552
(also 144541
residence 144502
ON 144442
ci@@ 144373
prisoners 144371
chain 144357
hands. 144303
Page 144293
transfer 144203
mode 144196
reality 144179
ford 144151
sufficiently 144149
ja 144148
Cap@@ 144144
pick 144140
Game 144117
sch@@ 144105
Highway 144104
Historical 144101
able. 144062
linked 144001
classical 143992
capture 143980
aw@@ 143968
Yes, 143950
rec@@ 143950
film, 143933
failure 143925
unusual 143914
z, 143907
agreement. 143882
concert 143877
III. 143710
Main 143687
area, 143598
Americans 143536
purchase 143507
Asia 143488
exists 143478
possible, 143415
Ba@@ 143402
ish 143380
limitation 143354
Sol@@ 143318
er) 143201
headquarters 143195
"V@@ 143190
Nations 143179
ies 143169
6th 143141
ov 143106
Germany. 143082
Georgia 143057
baseball 142937
trees, 142927
yet, 142905
piano 142897
practically 142878
a". 142864
os, 142855
combination 142828
farther 142819
Te@@ 142803
forgotten 142802
seeking 142737
Portuguese 142723
owns 142676
ill@@ 142658
ty 142649
Br@@ 142634
ki 142607
iz@@ 142524
represents 142519
Bas@@ 142494
son. 142494
careful 142484
Olympics 142472
af@@ 142416
Dan 142402
dollars 142386
hopes 142385
Senior 142379
servant 142364
m, 142189
restored 142155
state. 142083
O. 142028
]@@ 141971
Medal 141944
appeal 141923
ter, 141915
commissioned 141904
software 141856
quantity 141841
"Why 141788
poetry 141696
seated 141690
exposed 141678
Mississippi 141663
thoroughly 141643
chiefly 141628
Baron 141593
iv@@ 141570
Ge@@ 141547
Judge 141537
chapter 141535
hired 141519
conflict 141443
ally 141425
empty 141413
apparent 141407
Tor@@ 141389
criminal 141377
districts 141340
Naval 141302
urban 141302
coat 141226
ok@@ 141218
block 141198
controlled 141159
offering 141110
characteristic 141093
ton@@ 141016
(G@@ 141006
Dave 141005
fate 140990
images 140988
ts, 140916
rail 140912
champion 140896
scale 140818
t" 140793
snow 140783
Ger@@ 140744
'. 140740
modified 140679
boats 140618
brilliant 140616
dream 140486
recognition 140426
come. 140376
happiness 140361
work@@ 140359
Juan 140358
element 140340
belong 140339
2002, 140324
Billy 140318
US@@ 140310
faithful 140284
ks 140243
officials 140214
ker 140152
eleven 140062
CO@@ 139994
Rose 139918
Land 139901
Awards. 139895
road, 139875
Bon@@ 139869
neck 139769
projects 139768
itself. 139764
evident 139698
art, 139672
wave 139651
80 139483
frame 139473
examples 139437
theatre 139418
India, 139364
(K@@ 139300
27@@ 139240
y", 139230
13. 139206
Bridge 139148
Places 139106
alternative 139095
two, 139077
satisfied 139062
service, 139057
courage 139042
"When 139041
exact 139035
ane 139017
2018. 138970
period. 138958
made, 138946
patient 138933
improved 138912
sword 138839
Light 138712
row 138701
t-@@ 138676
May@@ 138640
ed--@@ 138586
march 138580
ae 138571
kingdom 138563
convinced 138548
Bor@@ 138490
aired 138479
of@@ 138454
head@@ 138447
power. 138373
à 138328
thinks 138327
31, 138324
http://www.@@ 138279
angry 138277
tradition 138274
Avenue 138268
League. 138265
hearts 138191
City. 138190
Ho@@ 138185
vision 138110
Illinois 138074
absolute 138070
know. 138018
attracted 138001
es," 137925
noise 137916
smiled 137885
"No 137853
suffer 137823
evening, 137821
tr@@ 137787
(for 137775
Wil@@ 137774
rushed 137744
universal 137718
1987 137716
Mad@@ 137713
es". 137705
1984 137671
stones 137662
trains 137636
"J@@ 137628
Gal@@ 137612
sale 137596
glory 137595
18th 137582
29@@ 137487
Mi@@ 137416
ton, 137389
7th 137373
describe 137247
fortune 137244
uniform 137238
ruled 137224
ho@@ 137188
Company, 137091
too. 137087
tail 136927
son@@ 136884
books, 136875
Philadelphia 136873
h, 136820
Alan 136816
Water 136816
rocks 136789
compelled 136769
business, 136759
um" 136759
pride 136736
So@@ 136730
improve 136711
asked. 136699
Men's 136694
ship, 136690
bitter 136654
Canada. 136634
IS@@ 136577
re, 136549
guide 136520
adapted 136479
Ben@@ 136410
AN@@ 136363
added, 136363
Do@@ 136357
marks 136332
Ti@@ 136308
AS@@ 136246
kinds 136186
(H@@ 136052
Internet 136047
o'clock 136031
es--@@ 136028
retained 136028
Sri 135986
circle 135966
crown 135963
advice 135922
Aunt 135897
men@@ 135863
indicated 135844
26@@ 135802
extra 135800
ations. 135790
museum 135789
Temple 135758
"I'll 135706
shadow 135703
fled 135636
ser@@ 135573
Tar@@ 135570
education. 135560
developing 135543
2004. 135374
splendid 135343
festival 135336
Douglas 135275
later. 135272
judgment 135252
incident 135222
qualified 135199
pictures 135157
Women 135154
1986 135104
selling 135057
kin 134991
back@@ 134989
engineer 134963
expedition 134958
reputation 134913
feet. 134910
guess 134897
Gordon 134886
round, 134858
ru@@ 134818
habit 134674
Howard 134661
conclusion 134596
Saint-@@ 134591
fancy 134522
folk 134504
assist 134469
depends 134444
clubs 134428
bread 134427
print 134424
Davis 134406
Did 134385
promote 134372
gay 134288
zi@@ 134281
Men 134235
super@@ 134229
ita 134199
fond 134196
reader 134195
Patrick 134180
Tr@@ 134176
paragraphs 134147
Native 134114
proportion 134100
leadership 134086
l, 134078
voted 133978
clothes 133965
swept 133963
Fox 133912
ANY 133859
elections 133839
Marine 133791
you," 133726
map 133676
doors 133661
seats 133636
islands 133614
breath 133537
typical 133471
LIMITED 133460
another. 133446
e? 133422
solution 133421
remarked 133396
ated, 133378
300 133369
40@@ 133353
inch 133338
Massachusetts 133328
Media 133320
Red@@ 133267
chairman 133260
whereas 133209
flew 133205
loud 133117
Jersey 133106
50@@ 133097
tired 133082
anti@@ 133055
Pe@@ 133012
grace 132949
passion 132929
bronze 132926
reduce 132895
Austrian 132866
admit 132848
dying 132844
grounds 132835
yn@@ 132814
damaged 132785
sole 132779
count 132741
Forest 132646
composer 132560
basic 132494
sounds 132481
Arab 132480
finishing 132465
titles 132413
Swiss 132367
episodes 132333
ant, 132328
landed 132251
28@@ 132185
Ra@@ 132170
tis 132089
Use 132045
chemical 132041
Province, 132007
2,@@ 131996
resources 131980
Ru@@ 131978
“The 131961
ity, 131924
manner, 131918
background 131835
Technology 131834
suitable 131808
pounds 131777
offices 131728
sin 131685
erected 131633
resistance 131614
22@@ 131580
scheme 131544
poem 131522
profile 131503
hu@@ 131501
Eric 131472
a_, 131467
oni@@ 131460
God@@ 131434
grey 131434
God. 131387
painter 131385
facilities 131363
Anna 131359
ears 131343
Far@@ 131294
climate 131284
Five 131261
Ex@@ 131254
translation 131235
versions 131215
Berlin 131206
"To 131201
ish@@ 131193
lovely 131164
ub@@ 131132
regiment 131118
Y. 131051
exception 130967
opportunities 130910
ore 130908
did, 130905
parallel 130854
temporary 130815
Tur@@ 130807
1980 130787
Last 130780
To@@ 130739
story, 130738
um. 130705
comfort 130701
custom 130680
locations 130671
70 130631
sel@@ 130611
destruction 130588
thee, 130526
ga@@ 130523
reading. 130419
fingers 130396
net 130393
guilty 130351
nearest 130318
changing 130307
trip 130237
cells 130176
Ha@@ 130175
lord 130114
founding 130077
Ni@@ 130069
Earth 130057
14. 130018
ty@@ 129988
ot 129964
Province 129945
possibility 129932
plenty 129922
Kong 129898
depth 129873
concerned 129846
ast@@ 129838
(d. 129814
philosophy 129801
Ke@@ 129768
Tal@@ 129686
fitted 129650
agricultural 129630
reasonable 129586
riding 129553
ard, 129528
Foundation's 129523
mal@@ 129520
Final 129493
heaven 129455
complying 129440
grade 129418
Nature 129412
Up 129370
herself, 129360
briefly 129346
Any 129277
air@@ 129256
"New 129216
ed) 129209
Regional 129189
Crown 129185
label 129170
singles 129154
ath@@ 129118
him." 129098
files 129010
Due 129004
least, 128954
joining 128915
worship 128907
Dor@@ 128890
prince 128826
use. 128815
1985 128803
palace 128731
Kansas 128723
sailed 128721
Liberal 128713
party, 128712
Canada, 128688
father. 128669
alone. 128637
field. 128636
trademark. 128616
Inter@@ 128571
feed 128549
Corporation 128537
waste 128500
specified 128492
tropical 128490
uncle 128400
precious 128363
models 128319
cha@@ 128313
Night 128272
Gr@@ 128269
bal@@ 128267
existed 128231
7-@@ 128184
ari 128143
mat@@ 128119
Hel@@ 128114
expense 128111
du@@ 128109
raising 128060
Sun 128046
Death 128006
San@@ 127993
Point 127944
'The 127925
GUTENBERG 127921
wings 127909
ff@@ 127877
tin 127875
Channel 127864
Natural 127861
Journal 127820
incorporated 127782
brings 127777
office, 127773
36 127771
Norman 127764
team, 127756
mysterious 127740
cor@@ 127684
handsome 127670
ek@@ 127667
darkness 127648
prize 127586
regularly 127579
communities 127575
violence 127562
gh@@ 127553
restrictions 127520
steam 127518
racing 127504
Without 127497
gray 127468
"to 127333
position, 127282
Is@@ 127236
performing, 127232
burned 127206
husband, 127202
Thou 127194
vain 127170
conscious 127152
properly 127075
Out 127043
sake 126930
Egyptian 126864
Nothing 126864
leg 126849
Antonio 126844
Black@@ 126822
ing." 126814
"you 126808
"Why, 126806
California. 126803
movements 126798
CH@@ 126760
Islands 126753
partner 126733
flag 126711
Management 126706
matter, 126630
today 126627
calculated 126614
artistic 126557
bands 126531
injury 126516
Des@@ 126475
contrast 126471
"Is 126467
immense 126419
smoke 126414
Italy, 126384
8-@@ 126372
Cambridge 126292
Upper 126251
sales 126217
supplied 126173
rarely 126084
&c. 126075
happen 125963
owing 125943
ons, 125929
comic 125881
delicate 125876
documentary 125872
minds 125783
exhibition 125771
consideration 125735
or. 125727
dates 125723
ch, 125700
churches 125650
en's 125642
en" 125628
seldom 125604
trademark, 125599
ze 125592
liberty 125590
Alfred 125536
ala 125526
census 125505
passenger 125498
perceived 125447
listened 125437
Australia, 125426
Cast. 125419
Danish 125416
Hor@@ 125407
Mission 125380
Dun@@ 125334
Security 125331
3) 125328
Island, 125323
Lincoln 125285
arm@@ 125216
moments 125203
Hot 125195
sang 125110
on; 125086
Winter 125024
bishop 125011
ly. 125005
], 124978
uc@@ 124969
adding 124917
she, 124882
dated 124874
sex 124852
borne 124824
apart 124819
35@@ 124772
Chapter 124720
engineering 124672
moon 124659
TI@@ 124643
Song 124635
y--@@ 124634
presently 124591
cutting 124569
Char@@ 124542
music. 124501
fail 124479
1.E.1 124421
1.F.3, 124419
adjacent 124391
:-- 124353
railroad 124347
No, 124342
a_ 124333
seventh 124323
well-known 124267
English, 124233
centuries 124200
hal@@ 124163
4.@@ 124154
doctrine 124060
hurried 124013
400 124002
listen 123991
resolution 123961
institutions 123948
New@@ 123931
voice. 123897
1.E.9. 123854
belongs 123803
"I@@ 123791
two-@@ 123782
profit 123759
(died 123726
1983 123705
world's 123678
roads 123672
me," 123617
combat 123588
33 123583
ip@@ 123579
shop 123567
LE@@ 123536
wearing 123394
responsibility 123340
resigned 123337
Ali 123277
creature 123250
Pan@@ 123229
accounts 123192
Engineering 123182
Hugh 123178
don@@ 123100
Sub@@ 123049
ceremony 122958
households 122952
census, 122929
Vi@@ 122920
eager 122905
selection 122891
opera 122882
votes 122881
recovered 122863
Hall, 122801
commenced 122788
denied 122779
FM 122744
provision 122742
'em 122733
ated. 122717
arose 122713
drug 122694
End 122669
air. 122651
language, 122646
Cam@@ 122640
USA 122606
Federation 122595
commission 122524
themselves. 122518
arrangement 122493
Can 122474
focused 122454
A-@@ 122449
s_, 122393
cur@@ 122390
attitude 122361
expansion 122340
Bible 122331
ada 122309
School. 122290
afford 122233
slave 122209
driver 122191
Jimmy 122176
highway 122170
woods 122163
Ash@@ 122143
On@@ 122137
independence 122091
Im@@ 122089
ties 122075
rugby 122043
"So 122032
impact 122024
(E@@ 122006
People's 121952
sites 121945
negative 121941
Max 121918
Studies 121918
injured 121914
aim 121886
hockey 121883
st 121876
.= 121870
e), 121857
ity. 121836
1982 121820
awards 121815
ā@@ 121761
historian 121696
15. 121680
(I@@ 121677
ri 121674
functions 121669
Senator 121657
Local 121633
Land@@ 121619
Rural 121512
ists 121493
assured 121488
11@@ 121477
gift 121470
body. 121460
global 121436
municipal 121416
----" 121407
departure 121404
blind 121401
facing 121391
8th 121381
mor@@ 121318
nobody 121311
things. 121309
dead, 121242
Why, 121225
Fig. 121187
station, 121186
non 121184
still, 121180
weapons 121179
Marie 121153
Mayor 121117
servants 121100
returns 121062
argued 121053
Sel@@ 121046
order, 121022
May, 121019
ki@@ 120977
defend 120970
Prior 120931
ic, 120903
building, 120893
small, 120886
ste@@ 120885
hurt 120882
equivalent 120861
Men@@ 120859
consecutive 120857
merged 120816
nuclear 120814
edited 120685
BY 120627
ski 120622
sha@@ 120604
sal@@ 120597
sprang 120591
facility 120575
lasted 120551
pop 120551
salt 120534
ingly 120481
done. 120386
lights 120376
marine 120330
Smith, 120319
ans. 120246
wet 120198
System 120123
acid 120063
tion@@ 120062
John, 120035
reserve 119926
King, 119886
nearer 119856
witness 119819
;" 119815
Pa@@ 119794
(; 119780
morning. 119739
pray 119738
pilot 119660
imagine 119635
her; 119562
Area 119553
2003. 119543
position. 119519
copied 119457
business. 119441
Ac@@ 119377
s?" 119377
follows: 119299
remainder 119269
laugh 119262
1972 119254
Township 119202
discussion 119198
readily 119150
launch 119144
company. 119115
NCAA 119109
languages 119082
sooner 119071
brand 119065
Sarah 119039
Go 118988
Christopher 118985
ance 118985
(1) 118965
ut 118921
2000. 118920
1979 118904
Al-@@ 118891
correct 118885
landing 118883
coal 118858
architect 118848
Mrs 118845
Sand@@ 118843
Rome, 118803
sea. 118803
ex@@ 118791
licensed 118747
companion 118724
ted 118673
za 118624
Lord, 118616
Mother 118601
.[@@ 118593
O'@@ 118561
AC@@ 118554
Carl 118480
er: 118479
Soon 118431
plate 118411
José 118392
Professional 118362
ini@@ 118342
Tim 118321
Mur@@ 118310
replied, 118307
result, 118304
Mis@@ 118292
white, 118280
spirits 118232
carriage 118177
Ki@@ 118088
1] 118064
Gregory 118058
Sun@@ 118058
with, 118048
bid 118035
ra, 118029
shooting 117971
Indeed, 117878
accustomed 117870
red, 117859
Pat@@ 117851
ba@@ 117841
left, 117782
Still 117774
Grant 117726
equipment. 117701
region. 117688
Bol@@ 117686
Within 117669
answered, 117658
IV 117656
defense 117654
sport 117651
chamber 117649
shell 117628
Allen 117610
ation" 117564
helping 117548
hence 117523
34 117514
60@@ 117512
Geography. 117510
pal@@ 117479
him@@ 117434
Labour 117422
plot 117419
argument 117382
inclined 117346
these, 117338
interrupted 117323
treat 117317
vehicle 117297
Fred 117268
fin@@ 117236
1976 117210
"Y@@ 117203
le-@@ 117186
1999, 117160
in's 117006
affair 116997
cases, 116996
bold 116981
Post 116974
Baseball 116959
1:@@ 116918
compilation 116908
ve@@ 116901
enemies 116899
Cas@@ 116851
tries 116798
possess 116776
defence 116741
thanks 116737
imposed 116632
venture 116630
string 116612
utterly 116539
hunting 116482
ve 116480
enabled 116478
drums 116447
rolled 116426
displayed 116387
welcome 116371
composition 116367
extension 116366
4) 116361
don’t 116346
Hamilton 116308
Pen@@ 116228
Background. 116218
length, 116172
fer@@ 116133
excited 116100
17th 116091
difficulties 116082
quietly 116033
general, 115990
skill 115979
Che@@ 115975
campus 115947
bare 115935
Round 115920
Ford 115917
tree, 115911
Dean 115877
's. 115736
NFL 115736
instrument 115735
All@@ 115636
hide 115590
AM@@ 115572
go. 115565
Lawrence 115547
beating 115542
accomplished 115478
manage 115436
RO@@ 115433
distinction 115414
phase 115397
ch. 115393
River. 115356
ers@@ 115299
teeth 115229
fuel 115226
5) 115206
anc@@ 115196
sa 115192
funds 115166
praised 115164
fees 115157
was. 115142
passengers 115132
That's 115131
Ju@@ 115115
Bruce 115097
'S 115071
Toronto 115070
tea 114999
render 114990
Islamic 114969
LI@@ 114951
cousin 114949
flower 114927
1981 114918
haven't 114834
asked, 114798
we'll 114794
ash@@ 114773
planning 114771
accident 114769
instance 114757
pl@@ 114747
writes 114743
ous. 114703
36@@ 114684
Fre@@ 114663
Never 114654
stretched 114609
Don@@ 114590
16. 114548
"For 114543
Welsh 114536
Deputy 114528
Ann 114510
mayor 114479
prevented 114464
presidential 114458
en-@@ 114406
"", 114405
starts 114390
ry 114374
Website 114354
sail 114317
Lower 114316
provincial 114300
i-@@ 114262
Volume 114226
Kevin 114215
speaks 114194
enormous 114190
metres 114166
38 114158
ator 114103
united 114090
elder 114062
hour, 114050
Germans 114042
adult 114034
Ray 114032
Ter@@ 114004
"Let 114000
Kh@@ 113991
praise 113923
34@@ 113905
rejected 113901
Television 113898
ans@@ 113891
investigation 113885
75 113858
Come 113855
army, 113820
urged 113790
mother. 113777
meat 113774
realized 113763
cool 113759
organizations 113756
about, 113753
listing. 113584
hanging 113583
fix 113541
rivers 113536
Puerto 113514
ica 113510
Israeli 113507
in: 113483
attributed 113482
cruel 113419
seed 113409
e?" 113397
receipt 113394
tre@@ 113365
Spain, 113338
voices 113280
Johnny 113244
missed 113133
16th 113121
1968 113121
election. 113105
lest 113074
enable 113026
Take 112995
core 112977
1945 112975
Hockey 112965
Youth 112964
invasion 112948
ker@@ 112932
t's 112921
1971 112906
eri@@ 112895
Pre@@ 112885
properties 112825
virtue 112723
9th 112714
slaves 112712
We@@ 112700
sympathy 112693
ry@@ 112679
s/@@ 112655
cattle 112600
roles 112552
a), 112495
"(@@ 112487
games. 112480
...@@ 112455
45@@ 112452
gen@@ 112450
-like 112439
delight 112419
high, 112408
sand 112394
grows 112393
children's 112373
proceed 112288
EN@@ 112261
Muslim 112246
Squadron 112212
furnished 112173
calm 112150
ness 112147
Victor 112130
marched 112068
Brazilian 112065
trace 112037
ideal 112030
9-@@ 111994
wins 111981
plane 111973
2001. 111971
Pierre 111970
license 111964
gar@@ 111954
Helen 111892
Star@@ 111857
ó@@ 111848
charges 111841
1974 111839
ena 111828
Czech 111824
decide 111821
displaying 111788
friendship 111773
Wood@@ 111770
als, 111728
glorious 111725
2002. 111702
presents 111663
lawyer 111662
labour 111654
bears 111653
race, 111641
Donald 111568
differences 111567
fe@@ 111488
whence 111464
West, 111444
--but 111436
secretary 111358
you've 111284
case. 111255
operate 111250
round. 111243
ann@@ 111223
ung 111220
intense 111213
stating 111206
seen, 111201
my@@ 111168
water@@ 111167
1978 111157
suggest 111156
instantly 111138
hol@@ 111113
colonial 111110
office. 111108
UN@@ 111103
horse, 111099
smooth 111094
stick 111070
preferred 111047
career, 111040
treaty 111039
1/@@ 111021
post@@ 111012
Gre@@ 110999
-based 110997
Tre@@ 110991
Officer 110985
tale 110976
us; 110970
executed 110940
appointment 110929
rest, 110912
stranger 110909
wound 110898
long. 110858
Jan 110847
Live 110842
indicating 110786
poverty 110784
Network 110758
milk 110746
gentlemen 110742
sister, 110742
to-day 110722
hast 110692
statements 110682
population. 110628
awful 110603
mer 110553
[_@@ 110523
visiting 110477
Next 110451
rival 110398
sol@@ 110397
Ed@@ 110395
Inc. 110394
journalist 110387
little, 110337
37@@ 110258
cl@@ 110249
Alice 110247
x, 110220
Kil@@ 110207
plus 110197
Manchester 110182
whispered 110168
encouraged 110087
possible. 110087
deck 110081
ary 110053
red@@ 109995
settle 109970
Except 109941
tribes 109907
homes 109874
Online 109870
oo@@ 109852
limit 109799
maintaining 109795
yes, 109788
pity 109781
Chairman 109763
assisted 109748
Han@@ 109723
person, 109718
y". 109709
low, 109706
corresponding 109657
38@@ 109654
Miller 109645
reply 109619
kindly 109608
use, 109599
ens@@ 109597
feared 109587
"An@@ 109584
cease 109552
th. 109527
j 109515
races 109494
faculty 109487
flesh 109482
(W@@ 109477
1: 109458
bur@@ 109457
closer 109448
faint 109447
occupation 109430
females 109421
albums 109405
Saturday 109359
ers' 109358
ich@@ 109358
fort 109357
ST@@ 109317
fatal 109302
Ly@@ 109288
10th 109233
thrust 109227
closing 109203
bel@@ 109198
remote 109189
Ten 109150
bow 109145
ol 109144
waves 109127
wishes 109083
1975 109075
link 109074
soul, 109065
Sometimes 109057
Missouri 109026
sacrifice 108978
play@@ 108976
hate 108974
approaching 108964
ed," 108915
"One 108856
baby 108847
Colorado 108834
fierce 108825
Gra@@ 108804
SE@@ 108802
Minnesota 108800
Cre@@ 108773
thereby 108749
Lam@@ 108745
scheduled 108745
Constitution 108734
MO@@ 108705
eternal 108678
arise 108674
Matt 108650
yl@@ 108634
Co. 108632
Which 108632
horror 108588
throwing 108561
colored 108557
houses, 108544
Poland 108496
studying 108479
dear, 108377
Pet@@ 108334
1977 108333
My@@ 108293
ef@@ 108273
money. 108270
roll 108268
stone, 108250
ons. 108236
†@@ 108222
light. 108210
pursued 108190
Pakistan 108142
Fire 108140
gr@@ 108125
Matthew 108106
1970 108096
you? 108092
"In@@ 108072
meets 108020
post-@@ 108002
Plot. 107977
etc., 107963
recognised 107963
12th 107950
view, 107891
installed 107829
1998, 107785
Kan@@ 107780
al) 107779
she's 107763
Mus@@ 107690
2] 107673
Bre@@ 107652
unlike 107651
band's 107615
ba 107580
!--@@ 107557
biggest 107513
education, 107508
character. 107489
column 107448
Very 107445
politics 107443
ris@@ 107401
Reception. 107370
ham@@ 107354
screen 107288
station. 107284
Cur@@ 107253
hero 107248
prominently 107234
ent. 107233
ation: 107214
y! 107166
West@@ 107139
Silver 107122
Services 107115
den@@ 107114
prisoner 107102
suggests 107081
alternate 107079
k" 107078
Clark 107035
ER@@ 107028
col@@ 107012
favourite 107002
Communist 106961
1–@@ 106958
dogs 106955
eating 106946
trail 106901
Kim 106874
Peace 106860
defect 106834
much, 106785
success. 106766
C, 106757
acquainted 106750
solemn 106739
large, 106726
NOT 106695
hours, 106649
lady, 106643
Pap@@ 106640
ys@@ 106633
Bab@@ 106627
level. 106616
considering 106607
hy@@ 106589
backing 106570
ings. 106546
junior 106524
sky, 106523
so-called 106482
Education. 106476
hair, 106462
recommended 106455
walks 106444
burn 106442
Metropolitan 106401
keen 106398
artillery 106393
Africa, 106376
pull 106341
bas@@ 106326
Harvard 106307
tic 106303
involving 106288
ta, 106280
once. 106271
non@@ 106267
eldest 106236
eggs 106232
kin@@ 106221
window, 106217
fat 106190
am. 106184
Legislative 106087
Building 106024
Heritage 106000
va 105940
cloud 105936
ity 105912
table. 105911
Egypt 105875
NO 105870
god 105864
placing 105862
Commonwealth 105845
months, 105841
billion 105838
amid 105834
Kam@@ 105821
have, 105799
tribe 105795
river. 105794
ear 105791
environmental 105750
permit 105733
des@@ 105716
D, 105704
preceding 105702
observe 105673
At@@ 105643
American, 105633
chart 105629
Benjamin 105607
Additional 105589
building. 105568
three-@@ 105568
Times" 105561
neighborhood 105549
fore@@ 105533
`@@ 105530
older. 105514
Mol@@ 105510
48 105504
wi@@ 105500
compete 105496
Rugby 105478
Season 105475
Mul@@ 105446
Rio 105423
mechanical 105402
1973 105397
Tu@@ 105311
Ralph 105271
question, 105251
identity 105241
(from 105229
"Al@@ 105228
flows 105189
Meanwhile, 105177
architecture 105168
animated 105154
everybody 105126
forward, 105108
no. 105080
sharing 105065
Andy 105041
ce 105013
00@@ 105011
accessible 104948
production, 104939
wife. 104926
Commander 104925
37 104897
Nick 104868
roughly 104844
"Of 104804
specifically 104788
ji 104777
Space 104748
retirement 104743
resumed 104738
( 104722
off@@ 104711
aj@@ 104610
Jeff 104546
cap@@ 104545
not@@ 104536
ing) 104495
]. 104489
led, 104445
child. 104430
patients 104428
C-@@ 104412
tal@@ 104393
produces 104354
LA@@ 104339
dust 104339
5.@@ 104312
Hotel 104304
subject, 104285
village, 104271
community. 104262
stronger 104209
romantic 104195
Em@@ 104193
Med@@ 104176
Independent 104169
departed 104153
June, 104136
Bat@@ 104123
ters 104109
Khan 104087
im 104082
funding 104060
missing 104052
Bell 104036
satisfaction 104014
moment. 103954
loan 103951
lyrics 103948
"As 103927
wheel 103924
tiny 103913
42 103906
games, 103895
b. 103891
utter 103887
owners 103882
Na@@ 103769
criticism 103760
at. 103711
Persian 103650
generations 103635
Beach 103629
doubt, 103620
graduate 103620
purposes 103617
"Z@@ 103603
prayer 103565
sun@@ 103562
insisted 103547
Ku@@ 103526
factory 103515
CA@@ 103507
blessed 103504
gods 103449
fiction 103375
Nicholas 103355
tion. 103353
confined 103328
alive 103320
shoot 103318
Roy 103310
"On 103307
aspect 103307
China. 103295
u. 103289
Franklin 103279
ors 103268
brick 103251
designs 103224
ura 103223
e_, 103200
17. 103195
reason, 103189
exempt 103164
sections 103155
ass@@ 103142
ants 103123
ye@@ 103119
æ@@ 103099
respectively. 103097
stores 103091
programming 103088
one@@ 103048
Alex 103044
ran@@ 103031
singular 103011
authors 103007
unfortunate 102992
song, 102974
formats 102969
friends. 102940
fans 102938
"Who 102933
tion, 102931
weekly 102903
dull 102897
massive 102871
Jerry 102865
ken 102860
47@@ 102841
economy 102832
MA@@ 102822
above, 102814
peak 102794
examined 102786
paper, 102780
Gulf 102779
employment 102777
China, 102771
6) 102764
racial 102742
nose 102734
Ka@@ 102726
words. 102713
rush 102702
THAT 102700
lowest 102672
Jan@@ 102665
res 102664
15th 102657
fishing 102633
ar. 102620
ING 102619
past, 102618
Fer@@ 102597
AT 102587
guitar, 102579
letter, 102564
Cl@@ 102552
State, 102552
descended 102546
winds 102527
anger 102526
Vol@@ 102520
prime 102452
bell 102449
ban@@ 102418
wa 102396
read, 102386
Full 102385
Az@@ 102365
Gil@@ 102353
travelled 102348
1969 102325
appropriate 102323
week, 102320
musician 102316
ville, 102307
Africa. 102260
She@@ 102257
asks 102255
processing 102232
cried, 102222
kings 102218
enc@@ 102205
natives 102201
giant 102196
leg@@ 102186
by@@ 102140
Design 102138
an) 102129
form@@ 102124
device 102120
DVD 102117
concern 102111
ology 102103
group, 102087
7) 102072
ise 102053
probable 102052
women. 102051
TE@@ 102021
Rad@@ 102011
13th 102005
Salt 102002
beaten 101989
deemed 101979
institution 101977
Brigade 101923
documents 101920
Ireland, 101901
SP@@ 101858
reaction 101858
nervous 101836
ata" 101830
Global 101826
listening 101808
motor 101800
ence 101776
lieu 101773
millions 101759
Ukrainian 101757
good. 101755
survived 101743
fa@@ 101738
glanced 101708
The@@ 101672
exhibited 101650
suspected 101647
11th 101625
Stanley 101611
cards 101588
defective 101543
Pur@@ 101536
queen 101536
之@@ 101536
ranks 101530
al; 101519
sub-@@ 101518
Mari@@ 101510
organ 101508
ment 101500
woman's 101500
offensive 101493
Sciences 101491
ola 101474
atmosphere 101467
Long@@ 101459
Tam@@ 101442
medium, 101438
innocent 101401
them@@ 101399
top@@ 101384
iii. 101380
July, 101377
kind, 101357
Archbishop 101347
ess@@ 101323
s!" 101318
Camp 101269
alleged 101269
classic 101267
ally, 101260
Indiana 101255
ago. 101232
comfortable 101229
Carlos 101224
T, 101221
(including 101171
August, 101163
Ta@@ 101160
ell, 101125
w 101102
ME@@ 101082
wisdom 101080
balance 101057
play, 101036
tongue 101028
preparing 101017
beg 101002
examination 101000
supplies 100995
Thy 100885
ber 100884
ula 100805
defensive 100803
ensure 100783
ly; 100758
credited 100739
declined 100728
suspended 100696
(), 100675
likewise 100655
magnificent 100634
1967 100611
son's 100609
operates 100598
Hungarian 100596
woman. 100584
Bri@@ 100575
ism, 100555
species, 100529
Place 100512
1997, 100507
However 100480
Ottoman 100475
Pri@@ 100461
vice 100449
members. 100448
ed? 100443
disposed 100426
consent 100378
ble@@ 100370
44 100364
throne 100346
occasional 100333
t; 100331
pen@@ 100325
nature. 100316
less, 100312
è@@ 100308
portrait 100297
Charlie 100293
contest 100287
structures 100250
Jonathan 100206
Spirit 100196
Ur@@ 100175
ts. 100158
Por@@ 100139
Him 100123
Russell 100116
lift 100114
church. 100108
ke, 100108
Common 100066
Works 100046
warning 100043
ous@@ 100024
County. 100012
Assistant 99983
events, 99982
Moreover, 99963
root 99951
wall, 99948
induced 99921
breast 99908
Mos@@ 99891
{~GREEK 99884
discussed 99857
1964 99822
8) 99815
factor 99776
"it 99775
change. 99773
1996, 99755
detailed 99743
Sab@@ 99739
gross 99710
Green@@ 99699
nothing. 99691
55 99662
Dam@@ 99661
Gi@@ 99635
als. 99621
mu@@ 99595
refuse 99590
bor@@ 99588
continuous 99579
ric@@ 99579
shining 99571
Ca@@ 99521
Tim@@ 99516
owed 99500
Gen@@ 99497
Stadium 99482
la, 99481
ven@@ 99435
guests 99427
journal 99421
39 99417
mining 99398
target 99397
notion 99392
(O@@ 99391
(who 99384
Player 99329
extend 99310
present. 99294
substantial 99273
Hay@@ 99241
ia, 99214
liberal 99213
Gor@@ 99197
sen@@ 99192
Super@@ 99162
respective 99155
genius 99153
Korea 99128
love. 99093
kissed 99090
shoulder 99086
I-@@ 99069
--to 99066
ul 99059
assembled 99034
behalf 99034
ine. 99030
Affairs 99021
limits 99011
point. 99005
came, 98989
lat@@ 98988
attending 98987
dead. 98983
?@@ 98963
notably 98950
spare 98946
Diego 98929
favorite 98912
feels 98905
"Mr. 98890
Belgian 98875
bed. 98860
Much 98859
micro@@ 98825
preparation 98817
Six 98798
dramatic 98780
dreadful 98774
Band 98752
weary 98747
Cup. 98705
Ban@@ 98700
val@@ 98699
cap 98672
Bl@@ 98669
J 98664
tim@@ 98658
Story 98631
shaped 98628
survive 98620
where, 98617
T-@@ 98594
39@@ 98586
clouds 98586
youngest 98581
1999. 98560
tions 98559
Economic 98530
latest 98511
._, 98498
rid 98471
mann 98470
desert 98462
airport 98434
mad 98414
families. 98389
Sim@@ 98381
any@@ 98348
14th 98327
loves 98309
countries. 98306
continuing 98255
punishment 98239
3,@@ 98221
Bay@@ 98181
book@@ 98169
em 98164
fl@@ 98143
recognize 98139
nothing, 98130
Operation 98121
cal@@ 98106
teachers 98096
qualities 98082
made. 98047
Luc@@ 98044
Dal@@ 98043
AN 98032
constitution 98028
46@@ 98008
cloth 98001
charming 97993
submitted 97939
provisions 97936
cre@@ 97933
Barbara 97921
Grace 97915
loc@@ 97910
stages 97909
experiences 97899
p, 97894
ps 97851
pol@@ 97818
le" 97774
king's 97769
ma, 97758
our@@ 97753
Dev@@ 97741
courses 97723
wood@@ 97696
are: 97690
Trade 97680
York: 97677
k-@@ 97640
agency 97634
roots 97634
Ryan 97625
force, 97623
bra@@ 97599
reflected 97572
extending 97567
one-@@ 97555
partially 97549
und@@ 97548
ä@@ 97538
copying 97534
participate 97531
action, 97521
formally 97513
excitement 97492
tend 97444
moth 97430
Morgan 97412
pursue 97323
Bibliography. 97314
demands 97307
Jason 97280
Ontario 97278
met@@ 97263
bre@@ 97255
race. 97252
150 97243
all-@@ 97216
ment@@ 97216
rescue 97211
equipped 97206
events. 97191
expenses, 97184
ner@@ 97181
statue 97160
2" 97146
ori@@ 97117
instruments 97103
SI@@ 97093
utmost 97093
Church. 97082
consciousness 97070
48@@ 97055
Digital 97045
lighted 97022
"Now 97016
sank 97003
show, 96966
si 96957
Ian 96916
squad 96914
Fin@@ 96896
pattern 96896
Bra@@ 96893
finger 96889
assembly 96837
Anderson 96833
shelter 96803
French, 96791
cavalry 96759
after, 96745
Gary 96712
ö@@ 96637
Dan@@ 96626
interpreted 96599
fellows 96589
Herbert 96583
Admiral 96570
49@@ 96550
road. 96512
March, 96477
Times 96447
matter. 96417
(2) 96410
ther@@ 96408
ek 96383
courts 96333
ind@@ 96310
2: 96303
gold, 96297
relating 96253
representation 96251
food, 96247
vehicles 96230
programme 96216
humble 96185
visitors 96161
e!" 96157
leaf 96148
ham, 96132
wondered 96112
herself. 96083
Being 96070
Hart 96058
eye, 96056
rolling 96048
seconds 96047
slipped 96039
Jacob 96016
Karl 96004
AD@@ 95988
master, 95961
party. 95947
tendency 95939
"Your 95924
infantry 95892
mel@@ 95855
yield 95809
imperial 95782
Forces 95777
requested 95757
deliver 95748
seriously 95708
street, 95693
41 95687
"Where 95668
ac 95665
observation 95634
jo@@ 95629
AT@@ 95620
pour 95534
ah, 95531
while, 95526
action. 95516
poems 95514
Oliver 95506
poured 95483
Iron 95463
crowded 95446
say. 95442
mobile 95437
widest 95432
email 95415
,’ 95413
contrary 95400
gone, 95376
Stone 95370
court, 95360
merchant 95337
Cat@@ 95328
cited 95325
gl@@ 95322
18. 95317
candidates 95313
ist, 95307
gathering 95265
drinking 95232
premiered 95226
survey 95224
horses, 95216
AP@@ 95208
Pop@@ 95203
publishing 95186
200@@ 95182
society, 95182
ship. 95180
pp@@ 95120
Vice 95117
Phil 95087
lately 95060
as" 94991
thing. 94988
knocked 94971
1966 94968
affect 94966
elevation 94966
readable 94961
carries 94948
Protestant 94927
3] 94922
sea-@@ 94917
Road, 94886
of. 94882
s.@@ 94878
Ross 94872
aspects 94834
ong@@ 94832
Description. 94826
Den@@ 94815
art@@ 94799
sin@@ 94775
Spring 94774
writer, 94767
lock 94763
responded 94732
pronounced 94697
Seven 94689
tur@@ 94682
mid@@ 94679
Books 94643
les, 94636
vo@@ 94581
old. 94561
hitherto 94549
loving 94548
book. 94547
ei@@ 94546
semi-@@ 94539
sugar 94532
Kentucky 94531
š@@ 94490
_) 94484
September, 94476
bones 94475
fed 94474
ana, 94473
19@@ 94471
ster@@ 94468
comparison 94418
Until 94402
visual 94385
only, 94370
disappeared 94365
kh@@ 94326
hang 94320
IV. 94314
dependent 94266
Oregon 94256
bay 94210
Dec@@ 94192
jazz 94181
ines 94176
mixture 94173
known, 94167
film. 94166
Lar@@ 94165
Elementary 94142
fourteen 94108
100@@ 94104
generous 94077
ites 94070
steady 94070
els 94020
9) 94010
yer 93997
convert 93980
Sur@@ 93958
Rom@@ 93955
ide@@ 93922
ethnic 93908
priests 93894
laying 93873
support. 93831
pointing 93820
challenge 93797
mine, 93778
ew@@ 93774
E, 93771
ity@@ 93765
magic 93765
load 93750
breakfast 93731
inc@@ 93730
70@@ 93703
divisions 93698
46 93695
Palace 93682
Fr@@ 93643
everyone 93602
interest. 93601
ene 93597
finest 93592
1995, 93576
57@@ 93571
1960 93557
months. 93545
development. 93541
October, 93478
ate@@ 93475
cause. 93474
Kur@@ 93449
let@@ 93443
mystery 93426
Dur@@ 93425
"Billboard" 93413
though, 93408
Gallery 93381
"Yes," 93380
Melbourne 93379
April, 93371
cleared 93368
language. 93337
RI@@ 93330
Rights 93320
mill 93316
Moscow 93315
mutual 93312
80@@ 93307
He's 93303
Produced 93290
cold, 93259
star@@ 93257
excuse 93248
session 93212
used. 93195
Graham 93185
ease 93179
1965 93149
impressed 93142
int@@ 93134
0) 93132
viewed 93131
affection 93128
eng@@ 93118
solicit 93115
dating 93112
verse 93108
"I've 93093
sung 93083
firing 93079
Region 93054
ue 93043
arrest 93022
environment 93013
cricket 93003
boundary 92976
Nevertheless, 92966
ach 92911
dealing 92849
values 92838
engines 92824
ES 92815
Tak@@ 92803
Netherlands 92762
chapel 92743
â@@ 92738
bro@@ 92737
lists 92704
paintings 92689
ear@@ 92681
cas@@ 92669
visits 92661
boat, 92645
Hill, 92643
64 92626
varied 92608
partnership 92601
essentially 92583
over-@@ 92574
found, 92571
pipe 92569
hum@@ 92564
ug@@ 92560
Tennessee 92517
village. 92485
influential 92479
residential 92471
Would 92446
troubled 92414
water-@@ 92408
success, 92396
Bernard 92382
na@@ 92365
Confederate 92361
Cultural 92348
gam@@ 92313
gather 92294
condemned 92262
uttered 92256
hom@@ 92248
substance 92245
DI@@ 92231
Prix 92231
eighth 92231
achieve 92221
Again 92175
Adams 92169
sun, 92167
arms. 92164
forgot 92141
portions 92131
victims 92125
Met@@ 92114
Gro@@ 92111
Reserve 92111
gently 92103
volumes 92103
proposal 92094
sheet 92093
Training 92041
desperate 92020
Trust 92008
Street. 91999
flung 91986
arm, 91979
document 91977
travelling 91973
sir," 91937
species. 91902
1998. 91877
doubtless 91847
representatives 91845
obvious 91838
player. 91831
47 91830
Sil@@ 91795
open, 91792
Moore 91777
manner. 91769
array 91737
craft 91696
high-@@ 91679
measured 91675
ton. 91670
ore@@ 91669
Paris. 91654
artificial 91635
ure@@ 91605
reaches 91599
license, 91546
safely 91518
aria 91514
ick 91491
Later, 91483
gazed 91480
20. 91473
read@@ 91450
"Come 91443
arrive 91426
fac@@ 91389
quoted 91359
6.@@ 91336
thought. 91330
Age 91310
standards 91302
Ap@@ 91286
shouted 91286
Census 91285
understand, 91263
Kor@@ 91262
ks, 91262
believes 91254
Convention 91243
dark, 91234
critics 91216
les@@ 91212
Representatives 91201
group. 91197
starred 91170
Administration 91157
Over@@ 91155
reviews 91137
uri@@ 91137
filed 91125
Sy@@ 91095
ama 91064
definite 91053
Square 91041
reform 90984
Kat@@ 90937
Conservative 90935
fundamental 90881
Var@@ 90877
northwest 90859
medicine 90838
se. 90819
[Illustration] 90817
eighteen 90812
execution 90812
je 90803
protein 90792
debuted 90769
art. 90766
question. 90744
keeps 90724
course. 90710
exclusively 90709
Guard 90694
northeast 90691
56@@ 90673
Village 90661
ili@@ 90639
hi 90605
hill, 90602
ocean 90599
harm 90598
Fe@@ 90567
torn 90541
attempting 90523
category 90515
dancing 90501
52 90487
accepting 90477
somewhere 90476
ill-@@ 90459
been, 90445
43 90424
volunteer 90407
investment 90406
Fi@@ 90405
Dem@@ 90404
concerns 90397
fault 90383
aimed 90366
Fl@@ 90356
Christians 90345
medieval 90320
ha, 90310
Son@@ 90279
confusion 90223
Terms 90208
Christ, 90197
Real 90182
illustrated 90124
defeating 90114
&@@ 90107
ward 90095
delighted 90093
Harold 90084
str@@ 90075
LO@@ 90064
o) 90064
Ay@@ 90057
error 90040
Pl@@ 90017
Arizona 90003
pen 90000
dared 89993
Ker@@ 89990
commune 89984
sixty 89977
in" 89963
contrary, 89952
Sw@@ 89945
vocal 89937
unhappy 89928
purpose, 89916
hor@@ 89914
Fame 89913
EBOOK 89891
Wood 89877
1994, 89868
order. 89853
Pr@@ 89852
shed 89845
Ireland. 89840
acquaintance 89798
ina, 89773
hours. 89770
services. 89766
sm@@ 89724
Nelson 89718
e). 89716
55@@ 89703
assume 89694
rates 89690
album. 89687
moves 89667
trading 89650
y? 89645
spending 89637
Defense 89636
legislation 89629
Sen@@ 89628
Japan, 89621
z. 89599
Basketball 89598
handle 89591
primitive 89588
them." 89577
north, 89564
enters 89560
Park. 89548
NE@@ 89528
miserable 89525
ensis" 89485
ness, 89484
cat@@ 89444
scholars 89432
che@@ 89415
savage 89407
you; 89389
kitchen 89379
sixteen 89373
Profile 89324
Energy 89317
Township, 89313
voyage 89263
ca@@ 89249
Napoleon 89232
Tom@@ 89208
religion, 89188
Boy 89150
Therefore, 89135
lines, 89119
ers" 89092
sequence 89088
1944 89086
critic 89082
me! 89075
moderate 89063
There's 89022
00 89007
Monsieur 88995
ative 88991
por@@ 88987
Hans 88970
emerged 88932
continually 88926
rac@@ 88922
inquired 88902
B, 88900
supreme 88892
terror 88862
ery 88858
Virginia, 88850
fame 88795
squadron 88767
recalled 88758
Champions 88741
char@@ 88734
wealthy 88708
Poor 88700
planted 88677
--he 88675
IC@@ 88675
st, 88642
did. 88638
arrangements 88637
traveled 88635
Robin 88622
receives 88621
conceived 88617
Pro 88615
Revolution 88615
Vanilla 88600
colony 88597
Besides 88585
Ty@@ 88577
penalty 88552
draft 88543
OR@@ 88522
Nar@@ 88520
occasions 88504
Italy. 88501
wedding 88501
(16@@ 88481
FA 88448
blood, 88440
ter. 88433
classified 88429
profits 88422
odd 88415
S-@@ 88410
culture. 88400
ka, 88394
Harris 88364
countries, 88362
points, 88358
down@@ 88357
Bou@@ 88343
region, 88341
whatsoever. 88336
earth. 88329
constitutional 88305
readers 88276
regards 88256
bon@@ 88254
wire 88248
Garden 88236
man; 88206
payment 88192
distinguish 88172
185@@ 88159
enti@@ 88157
dignity 88149
imagination 88144
protest 88143
7.@@ 88114
angle 88112
Murray 88108
story. 88107
f. 88087
legally 88085
you'd 88085
Primary 88066
popularity 88049
daughters 88023
deny 88011
Battalion 88009
victim 87987
eBooks, 87966
C) 87963
Donations 87954
ger@@ 87950
like, 87946
win@@ 87934
ignorant 87926
B-@@ 87925
fil@@ 87923
symbol 87880
Bro@@ 87862
"St@@ 87855
Da@@ 87853
Mun@@ 87847
Sweden 87827
WARRANTIES 87798
Show 87760
youth, 87738
Kol@@ 87735
tribute 87687
Wisconsin 87678
testimony 87678
Susan 87673
opinions 87620
concrete 87618
BO@@ 87600
plainly 87599
Orthodox 87592
Barry 87573
me?" 87554
ram@@ 87542
er", 87541
anybody 87539
Catherine 87509
infinite 87502
BE@@ 87500
holder 87462
Pin@@ 87456
Personnel. 87448
silk 87436
vs. 87434
ti 87405
floor, 87399
"in 87383
consequently 87376
law@@ 87376
collaboration 87360
badly 87359
dr@@ 87307
peace, 87263
BC 87256
cotton 87243
Please 87196
acknowledged 87183
es_ 87174
dec@@ 87166
Mill@@ 87119
help, 87113
DO@@ 87102
absorbed 87091
corn 87036
Former 87028
lin 87021
realize 87016
painful 87015
believe, 87012
smiling 86994
emperor 86957
Ga@@ 86949
surviving 86936
Shortly 86917
pocket 86914
1970s 86882
mistake 86863
purpose. 86858
Around 86814
D-@@ 86805
on: 86804
retain 86789
--for 86783
hosts 86779
style, 86768
battle, 86765
ously 86764
deeper 86723
must, 86700
Li 86678
myself. 86662
Son 86644
Lang@@ 86620
(18@@ 86588
master's 86574
Video 86573
used, 86572
zone 86570
coloured 86566
ary, 86562
souls 86561
wicked 86544
Sav@@ 86543
places, 86534
Royalty 86504
tion" 86472
reward 86467
succession 86461
Railroad 86456
ex-@@ 86454
sure, 86433
society. 86417
quarters 86415
Poland. 86407
Society, 86372
anniversary 86348
--it 86343
sy@@ 86342
ee 86305
parliamentary 86305
depending 86294
Tro@@ 86292
processes 86221
sw@@ 86184
steep 86168
personnel 86152
Ren@@ 86131
slightest 86107
prospect 86072
fo@@ 86063
confused 86059
MP 86052
firmly 86046
King@@ 86037
minutes, 86036
Tamil 86034
re. 86031
sen 86015
restore 86006
1992, 86004
1997. 86004
PO@@ 85993
1980s 85990
Maryland 85987
Walker 85959
city's 85956
shoulders 85885
é, 85885
Hy@@ 85884
puts 85872
hadn't 85870
Ci@@ 85858
week. 85858
Olympics. 85854
pur@@ 85853
Mexico, 85849
thi@@ 85849
sleeping 85847
Knight 85832
instances 85825
s—@@ 85800
s’ 85797
users 85788
Lan@@ 85776
es), 85776
ins, 85765
Brazil 85763
ON@@ 85749
died, 85746
manufacturing 85729
Heaven 85725
characteristics 85719
adi@@ 85718
anxiety 85684
Bureau 85644
Louisiana 85628
"--@@ 85624
Wi@@ 85622
tw@@ 85617
charitable 85616
li 85600
1962 85594
BREACH 85552
Virgin 85548
friend. 85535
district, 85509
kiss 85501
commanding 85471
Dr 85468
Treaty 85452
gates 85442
ade 85434
1996. 85432
rest. 85429
remarks 85415
ship@@ 85414
DAMAGES 85405
examine 85403
1963 85389
summit 85366
lieutenant 85363
partial 85354
Also, 85331
1948 85313
Ry@@ 85307
shock 85297
indicates 85293
Bad@@ 85286
Bag@@ 85276
1993, 85259
han 85242
~@@ 85233
style. 85207
architectural 85185
4] 85152
ash 85147
ce@@ 85132
Larry 85115
5:@@ 85111
spirit, 85099
License. 85076
discuss 85064
xi@@ 85058
Morris 85042
second, 85017
EP 85016
dismissed 85008
items 85002
beloved 84993
ora 84992
Victorian 84985
19. 84980
circumstances, 84959
Bul@@ 84957
disclaimer 84957
58@@ 84935
consist 84926
ely 84920
withdrew 84908
fan 84906
delightful 84897
TO@@ 84896
Queensland 84882
saving 84878
prefer 84876
der, 84867
amateur 84863
Greece 84856
sil@@ 84845
"". 84821
decline 84820
delay 84800
timber 84791
wh@@ 84782
ea 84775
Program 84773
distance, 84746
"Con@@ 84741
Down 84735
exceedingly 84728
word. 84717
ES@@ 84715
forgive 84715
elect 84672
FULL 84668
it! 84662
shade 84656
establishing 84651
er." 84642
four-@@ 84642
overcome 84636
profound 84623
Kelly 84622
dispute 84620
lover 84615
slept 84596
Tell 84594
earn 84583
vol@@ 84573
publicly 84568
RA@@ 84560
depend 84536
re-use 84489
connecting 84472
coffee 84471
instructions 84447
Cro@@ 84442
intelligent 84392
"Plain 84386
bone 84386
,[@@ 84353
creatures 84339
strong, 84317
males. 84292
CI@@ 84264
ette 84262
1942 84261
sing@@ 84259
Ancient 84205
long@@ 84203
Iran. 84188
copying, 84187
Records. 84185
TH@@ 84182
beach 84182
strict 84180
Fine 84167
sense, 84167
locked 84156
tennis 84150
resident 84149
foolish 84144
ridge 84134
Hebrew 84128
eli@@ 84095
weapon 84080
tion 84071
southwest 84067
tro@@ 84063
tion; 84040
1960s 84028
ech@@ 84003
identification 84000
the, 83999
(V@@ 83989
(J@@ 83985
retreat 83961
ance, 83948
acres 83939
tide 83921
definition 83918
bag 83911
Japan. 83910
hall, 83904
continued, 83880
mercy 83873
Tommy 83844
AB@@ 83839
physician 83837
asi@@ 83818
rating 83815
sheep 83813
Here, 83811
ung@@ 83808
ney 83798
doth 83792
Vietnam 83768
Spain. 83744
ors, 83739
implied 83728
creative 83719
Edinburgh 83711
identical 83710
sorrow 83696
!@@ 83695
4,@@ 83651
isolated 83651
Test 83637
Museum, 83618
Lin@@ 83596
Bet@@ 83580
Detroit 83533
murdered 83525
writings 83524
below, 83505
bury 83492
will. 83443
he'd 83442
shares 83439
dy@@ 83430
research. 83427
displaying, 83422
strictly 83422
mix 83415
associate 83410
describing 83408
by. 83397
south, 83386
persuaded 83377
childhood 83375
state's 83368
ed! 83305
would, 83304
vital 83303
U. 83302
refund. 83297
Whether 83291
begged 83278
rises 83271
specimens 83269
schools, 83262
ky 83260
Unlike 83237
exclusive 83212
90@@ 83202
threat 83198
Ol@@ 83187
Ruth 83182
Out@@ 83180
rifle 83174
surname 83164
chair, 83158
5–@@ 83145
LICENSE 83143
Singh 83130
thence 83130
21st 83127
Marshall 83114
contents 83110
SO@@ 83103
borough 83097
Nova 83095
Austria 83094
Along 83068
Nazi 83067
frightened 83066
neighbouring 83066
monument 83063
AGREE 83059
backed 83040
wherever 83023
stadium 83011
Gam@@ 83010
Tower 83009
51 83005
"for 82993
comparatively 82980
fictional 82980
,-- 82974
1990, 82973
x. 82958
effort, 82957
1.E.7 82950
1.E.8 82947
contribution 82944
Je@@ 82937
dem@@ 82918
coastal 82893
meetings 82849
ford, 82795
knife 82791
defended 82782
Charlotte 82775
rested 82767
you@@ 82766
minimum 82765
advised 82757
intimate 82746
laughing 82738
ASCII" 82729
Kennedy 82725
criticized 82723
gun@@ 82716
č@@ 82711
newspapers 82697
experiments 82693
sustained 82693
Tra@@ 82692
White, 82680
Way 82663
two. 82660
blame 82655
actors 82653
184@@ 82650
ably 82606
es? 82589
significantly 82580
(17@@ 82575
Tournament 82574
How@@ 82566
tin@@ 82566
leaning 82554
Thompson 82551
sorts 82544
stared 82526
Air@@ 82500
CEO 82490
characterized 82486
54 82474
conception 82470
stern 82459
hostile 82457
membership 82450
district. 82448
SS 82437
southeast 82426
supports 82418
Good@@ 82409
earnest 82407
increasingly 82403
peaked 82398
island, 82396
board, 82394
suggestion 82390
ruling 82389
1.E.1. 82381
1.E.8. 82381
Greater 82375
Las 82365
event. 82362
1943 82357
Ward 82349
ally. 82337
genuine 82328
ure 82328
Thi@@ 82292
November, 82291
agents 82283
._] 82241
deputy 82210
rock, 82206
cabin 82201
select 82193
landscape 82180
suspicion 82169
Queen's 82149
Whit@@ 82127
organic 82116
Review 82090
ll@@ 82072
replacing 82065
Christianity 82031
Dol@@ 82026
touching 81992
habits 81944
detail 81935
approval 81928
ant. 81922
concealed 81914
jumped 81908
rope 81904
Sound 81898
officer, 81872
long-@@ 81867
Lev@@ 81865
Luis 81856
inferior 81831
Warren 81829
1956 81824
decorated 81822
arriving 81810
band, 81779
ism. 81773
fun 81770
Small 81757
"Good 81735
ana" 81733
a). 81723
cared 81671
lonely 81662
devil 81651
charity 81640
forests 81633
"Ch@@ 81614
maintenance 81614
schools. 81606
carved 81602
Bobby 81580
admiration 81579
signing 81551
improvement 81538
fish, 81536
ets 81524
io 81524
thirteen 81524
Oklahoma 81498
crowned 81493
copper 81461
declare 81460
Short 81455
1991, 81453
funeral 81445
.’ 81437
blocks 81421
ington 81416
dragged 81395
low-@@ 81395
cent 81390
enemy, 81367
succeed 81366
first. 81355
self 81344
ts@@ 81342
Keith 81336
on) 81333
considerably 81325
(if 81322
Rec@@ 81319
Besides, 81307
bol@@ 81280
cancer 81269
ni 81269
defending 81262
faith, 81260
widow 81252
crisis 81220
ler, 81217
Late 81213
narrative 81209
purely 81193
mouth, 81175
elevated 81160
there@@ 81160
everywhere 81158
cu@@ 81144
debate 81140
minutes. 81129
king. 81124
rushing 81123
tons 81106
portrayed 81102
process. 81096
Russia, 81084
musicians 81081
conviction 81064
siege 81061
industry. 81047
49 81030
--in 81026
ers; 81024
easier 81008
million. 80994
applications 80992
ful 80985
ü@@ 80981
electoral 80974
Jordan 80969
3–@@ 80963
Ocean 80962
strip 80958
staff. 80913
Stewart 80905
Service. 80878
factors 80871
aka 80852
opinion, 80852
Ven@@ 80824
Company. 80816
purple 80814
invented 80802
Bell@@ 80795
189@@ 80788
aboard 80788
poor, 80784
"Le 80783
lit 80783
es). 80770
Os@@ 80746
wider 80736
shore, 80703
he. 80695
de. 80694
successor 80652
completion 80592
th' 80589
confess 80587
cer@@ 80586
186@@ 80547
entertainment 80511
Schools 80497
periods 80462
relieved 80442
strain 80435
Cathedral 80425
day's 80423
ill, 80416
subject. 80399
56 80395
Quebec 80395
ur, 80376
ase 80365
F-@@ 80336
om 80333
assault 80288
autumn 80287
apartment 80276
"Are 80266
mil@@ 80263
alliance 80257
month, 80254
Houston 80234
judges 80232
corrupt 80228
Campbell 80223
fund 80204
underground 80177
answer. 80176
repeat 80171
ê@@ 80163
0, 80162
tar@@ 80144
Wayne 80128
stable 80100
it--@@ 80095
tions, 80081
rated 80073
Life. 80068
nam@@ 80052
renewed 80041
Au@@ 80037
rat@@ 80037
ley. 80031
recall 79973
ruins 79953
counted 79951
reception 79951
same, 79949
1995. 79927
Opera 79927
debt 79920
a." 79918
sec@@ 79913
size, 79913
derive 79912
Number 79881
fool 79875
stolen 79854
instruction 79853
bed@@ 79852
chi 79831
talent 79830
Technical 79811
steadily 79799
Back 79794
est, 79785
1961 79777
laws. 79770
provinces 79739
co 79733
cr@@ 79721
et. 79712
township 79700
stage, 79681
loaded 79678
Right 79641
Additionally, 79640
Press. 79632
eaten 79617
A) 79614
employee 79604
7–@@ 79597
marble 79597
b, 79587
science, 79576
--The 79541
leaned 79505
Joan 79499
emergency 79487
restoration 79483
Demographics. 79480
ez@@ 79464
sentenced 79459
burden 79439
M.@@ 79431
1,000 79422
precisely 79422
way@@ 79417
band@@ 79398
Maurice 79379
ence, 79379
we're 79370
tools 79360
see. 79349
enough. 79347
legislative 79343
Der@@ 79329
Gol@@ 79320
sunk 79311
clock 79296
Trinity 79291
Guy 79258
parent 79225
rule, 79220
t) 79215
Cleveland 79212
cross-@@ 79210
Cardinal 79203
junction 79193
appearance, 79188
liquid 79176
companions 79163
bowed 79153
interest, 79141
bridge, 79139
ks. 79112
claiming 79105
health, 79101
results. 79098
X. 79080
Laura 79058
É@@ 79056
ones, 79043
ne, 79030
regret 79022
mad@@ 78988
maid 78942
Robinson 78925
introduce 78901
fellow, 78899
Scotland, 78894
Nov@@ 78892
id, 78881
grief 78843
ling, 78834
level, 78832
solar 78818
Mir@@ 78817
rest@@ 78802
59@@ 78798
bottle 78798
pri@@ 78790
beauty, 78778
Private 78772
ing," 78756
sur@@ 78742
fu@@ 78725
hid 78723
said; 78711
Ph@@ 78700
"Ar@@ 78685
ed-@@ 78681
A.@@ 78679
holes 78678
ster 78676
meal 78668
disk 78659
flood 78659
conventional 78639
event, 78620
budget 78609
es_, 78602
a," 78594
q 78588
ank@@ 78571
camp, 78564
Win@@ 78555
assure 78553
dominated 78552
Terry 78539
refuge 78513
Chicago, 78508
lu@@ 78504
8.@@ 78499
electrical 78491
MI@@ 78488
ry, 78484
specially 78480
abroad 78474
Far 78461
paint 78441
shake 78432
Finally, 78431
League, 78418
Rock@@ 78390
ga 78383
stroke 78380
apt 78363
var@@ 78356
don 78345
ly-@@ 78339
pin@@ 78305
sisters 78299
Tan@@ 78293
Up@@ 78291
;@@ 78273
D'@@ 78271
sounded 78267
Kate 78254
inherited 78243
winners 78241
HO@@ 78233
188@@ 78229
Look 78224
December, 78212
9–@@ 78210
_S@@ 78208
ton's 78207
tions. 78205
accompany 78190
swimming 78178
members, 78173
1958 78167
warned 78162
Kent 78161
1952 78158
removal 78151
ity; 78127
ny 78121
they're 78116
Iowa 78112
College. 78106
versus 78091
bit@@ 78082
jump 78073
1946 78067
columns 78039
guitarist 78031
Stuart 78025
ways, 78024
life@@ 78021
ownership 78004
Finnish 77969
memorial 77967
ali 77959
Christ@@ 77944
experimental 77936
Command 77933
sailing 77932
[[@@ 77921
ret@@ 77916
Staff 77912
hel@@ 77909
ros@@ 77905
west, 77904
shi@@ 77899
return, 77897
time; 77894
marriage, 77889
remark 77889
areas. 77888
Neither 77879
Kin@@ 77878
bil@@ 77877
wherein 77857
5] 77851
enn@@ 77849
Kings 77848
Liverpool 77834
storage 77829
nights 77824
Were 77807
Bir@@ 77792
hits 77788
1959 77776
school@@ 77755
idae 77725
se, 77716
Lane 77710
ever, 77710
Sc@@ 77706
books. 77706
So, 77685
ti, 77668
pan@@ 77666
kindness 77665
engage 77664
identify 77647
black, 77602
7] 77598
officers, 77595
floor. 77593
gaze 77565
knowledge, 77558
corporation 77540
Av@@ 77533
tive 77533
Bowl 77523
cat 77523
gang 77523
Entertainment 77504
ff 77501
Singapore 77492
Wild 77488
effectively 77488
1940 77483
Raj@@ 77475
organisation 77475
young, 77464
severely 77450
passed, 77425
observations 77424
Bow@@ 77403
ars 77402
students. 77390
reflect 77386
person@@ 77379
interpretation 77366
involves 77345
pool 77337
mes@@ 77336
Mary, 77326
mistress 77325
floating 77324
Pedro 77294
convention 77272
dreams 77263
heart@@ 77241
washed 77238
champions 77235
borders 77232
(1 77229
***** 77198
Fil@@ 77197
Orange 77194
couples 77186
ical 77169
triumph 77158
ever. 77144
Carter 77142
ing--@@ 77128
pursuit 77089
frequency 77080
Daily 77079
hour. 77069
advancing 77057
run@@ 77051
unexpected 77045
不@@ 77038
ness. 77021
edition. 76999
helps 76986
title. 76969
hard@@ 76961
ninth 76952
le's 76949
mortal 76939
ç@@ 76939
1500 76926
class, 76924
ini, 76922
ide 76915
play. 76890
lan@@ 76886
believing 76877
ruin 76869
2/@@ 76852
clothing 76846
climbed 76838
clever 76833
additions 76829
'tis 76828
personality 76824
filmed 76823
masters 76823
stretch 76822
ashamed 76820
collect 76802
residing 76801
varying 76801
codes 76792
4–@@ 76769
direction, 76768
exhibit 76756
afternoon, 76755
1994. 76740
k's 76730
show. 76725
expert 76721
reveals 76721
cable 76720
removed. 76718
truth. 76711
Norway 76708
S.@@ 76693
movement, 76683
UEFA 76677
occupy 76676
armies 76668
country's 76664
last. 76661
other@@ 76660
Guide 76642
Majesty 76642
pink 76604
altered 76599
--_@@ 76593
Love" 76589
hollow 76587
1957 76581
flowing 76576
wal@@ 76576
carbon 76575
ron@@ 76547
Z 76546
resting 76540
Commissioner 76535
?--@@ 76532
1941 76519
cycle 76512
paused 76512
2–@@ 76502
design, 76502
pound 76501
on." 76494
pitch 76468
tes 76457
scholar 76456
ic. 76451
flowers, 76447
Nag@@ 76438
ised 76431
shalt 76428
day@@ 76406
adaptation 76398
distinctly 76397
testing 76396
Dublin 76376
whole, 76343
"Did 76342
grain 76322
trembling 76319
author, 76294
21. 76287
ero 76251
rent 76247
53 76240
Fair@@ 76235
Vincent 76231
cargo 76229
Selected 76217
All-@@ 76212
1000 76186
revenue 76186
Instead 76184
Championship. 76180
wake 76164
Capital 76159
Critical 76136
evolution 76125
Gilbert 76113
property, 76099
sight, 76080
satisfy 76072
Athletic 76057
layer 76051
qualifying 76050
push 76042
But@@ 76038
problem. 76026
1950 76023
points. 76021
Industrial 76000
attained 75998
instrumental 75995
Reg@@ 75987
NBA 75981
Dance 75969
SA@@ 75962
Gri@@ 75942
ad, 75932
Transport 75927
Ken@@ 75923
Wright 75903
att@@ 75892
Chamber 75878
animals, 75876
190@@ 75875
girl. 75860
speak, 75859
burnt 75847
foot@@ 75845
Luke 75842
Philippines 75801
sensitive 75796
battery 75794
Week 75775
Heart 75766
ay, 75755
substitute 75718
Defence 75716
Site 75716
alike 75671
longest 75670
1939 75666
boy. 75654
Boys 75647
ona 75645
Boston, 75641
Singles 75639
annually 75635
20% 75619
Representative 75605
Es@@ 75599
wind, 75596
locality 75594
significance 75586
Divine 75569
died. 75563
Hence 75555
ice, 75555
6] 75535
ses 75530
TS 75521
dealt 75512
Jam@@ 75504
Council, 75500
Faculty 75500
theater 75495
Turkey 75483
seen. 75475
os. 75473
then. 75465
(15@@ 75457
pole 75448
bri@@ 75443
can, 75432
Diocese 75394
han@@ 75390
del@@ 75388
ani, 75383
Current 75367
fear, 75354
Wales, 75350
us." 75335
Philippine 75332
transition 75318
Socialist 75289
yn 75287
cop@@ 75260
á 75257
har 75234
circuit 75230
gallery 75229
sector 75221
Baltimore 75169
"if 75165
Construction 75159
much. 75142
losses 75141
eu@@ 75140
owner, 75139
Center, 75111
DC 75100
Fourth 75095
charm 75086
or" 75082
experiment 75081
for. 75071
shame 75070
Production 75036
58 75032
Pel@@ 75025
participation 75023
govern 75001
oz@@ 74995
fire@@ 74985
0. 74983
attack. 74983
los 74977
effect. 74975
Abraham 74974
bade 74971
33@@ 74963
routes 74961
ro 74928
Pu@@ 74917
tt@@ 74914
ble, 74896
180@@ 74894
males 74878
what's 74865
club, 74854
wrapped 74853
Labor 74839
Ken 74829
VI 74824
army. 74820
Baptist 74813
originated 74811
Nearly 74799
ds 74799
controversy 74796
1989, 74760
consequences 74753
encourage 74752
Bos@@ 74741
1992. 74738
somebody 74738
walls, 74735
traces 74725
ard. 74707
advantages 74700
tha 74697
lad@@ 74663
1947 74657
Years 74653
Kon@@ 74644
hope, 74644
peaceful 74635
conservative 74634
happens 74626
Champion 74621
ban 74618
ships, 74617
single, 74616
p. @@ 74614
pr@@ 74604
adventure 74591
Municipal 74578
de, 74578
° 74576
zz@@ 74570
burg 74532
flash 74531
Top@@ 74525
strength, 74519
multi-@@ 74489
occasion, 74482
Jun@@ 74473
shaking 74467
nest 74457
boys, 74454
site. 74450
sits 74449
ask@@ 74399
Hollywood 74382
rate, 74376
0-@@ 74372
pat@@ 74360
-b@@ 74348
abuse 74334
Florence 74333
berg, 74320
future. 74318
soldiers, 74306
downtown 74291
fires 74286
encountered 74271
fearful 74263
company's 74246
pack 74232
first-class 74228
Sources. 74226
aya 74214
""@@ 74198
Ul@@ 74191
Serbian 74189
mag@@ 74188
twenty-five 74175
f, 74166
Jefferson 74163
answered. 74131
ner, 74104
trees. 74103
ics 74099
rude 74092
opens 74084
called, 74069
6:@@ 74065
demonstrated 74062
"An 74061
agreeable 74061
summoned 74039
Hum@@ 74037
Article 74021
Pas@@ 74019
wretched 73997
Hand@@ 73993
Cricket 73989
Ed 73976
masses 73973
ked 73964
Cr@@ 73960
Throughout 73948
king@@ 73948
hat@@ 73938
spell 73929
pupils 73918
competing 73915
garden, 73914
program. 73889
settlers 73863
elle 73858
3: 73849
Food 73825
Internal 73825
44@@ 73824
recover 73818
501(c)(3) 73812
referring 73808
wood. 73808
Shall 73795
600 73781
efforts, 73780
slip 73772
ze@@ 73772
inspiration 73771
Leo 73765
ji@@ 73763
el's 73757
turn, 73751
elaborate 73747
reserved 73742
deadly 73727
Alliance 73719
struggling 73705
estimate 73702
Trans@@ 73691
gaining 73671
repair 73655
Fri@@ 73635
"is 73606
Work 73598
representations 73597
manufactured 73590
poet, 73581
Mountains 73575
"O 73574
120 73552
followers 73549
ax@@ 73546
reduction 73528
ey, 73527
owe 73526
Foundation. 73520
1955 73510
Council. 73508
surrender 73507
Ky@@ 73485
Montreal 73462
solitary 73436
Mediterranean 73431
letters, 73431
foot, 73425
vary 73422
Contemporary 73398
computers 73398
1993. 73392
Sher@@ 73391
ite, 73382
da, 73379
ne. 73377
organised 73364
E.@@ 73352
dawn 73344
Sor@@ 73339
better, 73334
Members 73328
tel@@ 73301
left. 73296
jury 73279
space, 73279
es! 73273
Side 73268
concentration 73264
Hindu 73253
benefits 73247
187@@ 73242
colors 73242
dam 73240
Fellow 73220
y?" 73217
ists, 73215
bat@@ 73201
normally 73192
("The 73185
could, 73165
same. 73155
widespread 73139
Allied 73137
57 73128
silence. 73110
devices 73095
ain@@ 73088
Gold@@ 73084
Windows 73075
wanting 73073
Club, 73049
breaks 73044
bin 73021
corporate 73012
ment. 73000
sponsored 72992
loyal 72988
lines. 72986
1; 72942
Type 72938
stuck 72931
Bay, 72925
accurate 72918
ón 72902
races. 72894
fer 72891
Sou@@ 72876
Ir@@ 72860
dim 72860
engagement 72859
extends 72853
great, 72851
Jerusalem 72838
Hen@@ 72826
countenance 72824
lofty 72803
Jones, 72792
Broadway 72786
Cle@@ 72779
movement. 72777
spots 72763
lam@@ 72762
._--@@ 72754
me? 72746
66 72739
request, 72738
Language 72717
"Un@@ 72709
FIFA 72702
Jay 72700
mail 72668
Texas, 72657
ators 72657
st. 72650
DNA 72649
practices 72644
slavery 72636
Mak@@ 72625
determination 72615
IT@@ 72612
Discography. 72606
Iran 72603
bless 72603
worldwide 72563
exclaimed, 72561
Brown, 72555
powered 72547
lad 72539
stat@@ 72526
Notes 72525
horrible 72521
179@@ 72517
Urban 72514
about. 72506
Ok@@ 72503
Hil@@ 72497
lined 72494
sir. 72494
es-@@ 72485
Cer@@ 72477
sl@@ 72475
250 72466
hastened 72463
silence, 72457
illegal 72440
direction. 72411
that," 72404
ond@@ 72396
wind@@ 72384
1918 72379
(9@@ 72377
care, 72373
stri@@ 72361
smile. 72360
London: 72339
ston 72325
funded 72320
answer, 72318
Dennis 72303
drops 72299
Mexico. 72284
pp. @@ 72283
melancholy 72278
experience, 72273
raw 72271
Ernest 72268
This, 72255
citizen 72241
reg@@ 72234
ministers 72228
.'" 72218
neighboring 72217
"U@@ 72207
ath 72199
diplomatic 72198
Ny@@ 72181
Gl@@ 72162
yan 72122
ab 72109
else. 72106
fur 72106
Ev@@ 72090
novels 72090
"Have 72086
Culture 72080
Will@@ 72068
January, 72066
gazing 72057
ratio 72041
D.@@ 72033
to-morrow 72019
aunt 72013
te, 72003
notwithstanding 71989
solely 71984
tremendous 71976
--not 71974
Gothic 71971
submit 71970
gardens 71963
guided 71954
8] 71941
conscience 71939
successive 71927
dar@@ 71920
literally 71878
Hop@@ 71875
gone. 71866
"-@@ 71855
1990. 71847
quit 71846
"Just 71834
phone 71829
that?" 71826
NO@@ 71821
ing's 71793
ish, 71790
techniques 71767
ado 71764
shone 71758
=, 71752
kind. 71726
1). 71722
vertical 71721
employ 71692
aux 71679
may, 71677
healthy 71670
Kir@@ 71667
Wrestling 71664
fre@@ 71654
vocals, 71636
tion: 71627
1), 71624
force. 71611
Lucy 71606
Hom@@ 71604
influences 71588
numbered 71586
Jacques 71579
ment, 71564
You" 71557
earning 71542
h. 71533
audio 71527
ality 71526
Alabama 71523
rap@@ 71523
team's 71522
affiliated 71514
John's 71508
hated 71502
CE@@ 71484
or's 71473
passages 71451
IF 71442
Wy@@ 71438
Brothers 71434
constituency 71408
tube 71401
she@@ 71400
mountains, 71391
circular 71388
5,@@ 71386
descent 71384
plates 71382
grand@@ 71361
"At 71359
II@@ 71335
reveal 71328
C.@@ 71297
conversion 71291
(?), 71289
world@@ 71285
USS 71275
Miami 71270
dies 71267
cultivated 71249
State. 71247
board. 71221
climb 71211
expensive 71202
behavior 71190
ko@@ 71167
submarine 71146
die, 71145
Pil@@ 71143
counsel 71125
"By 71097
rules, 71097
February, 71092
1954 71087
customs 71085
ling@@ 71069
supper 71069
It@@ 71068
1949 71060
poly@@ 71049
grateful 71044
Britain, 71023
Romanian 71020
AM 71013
Cu@@ 70994
collections 70991
age@@ 70984
percentage 70966
qui@@ 70960
Raymond 70927
gener@@ 70926
in; 70914
say@@ 70894
Il@@ 70880
2:@@ 70869
66@@ 70858
grandfather 70849
governed 70845
BE 70842
(such 70840
Standard 70840
dense 70840
nevertheless 70828
g. 70827
Dark 70809
Hard@@ 70802
ink@@ 70799
Greg 70796
parts, 70792
transportation 70787
symptoms 70764
Ivan 70762
dam@@ 70739
folded 70727
searching 70717
Electric 70711
Flight 70699
Therefore 70697
being, 70690
Indians, 70658
lessons 70653
low@@ 70649
1991. 70645
cave 70639
smallest 70611
indigenous 70608
Commons 70603
manuscript 70569
specimen 70568
8–@@ 70561
59 70559
stage. 70547
sovereign 70544
Isaac 70543
Betty 70535
que@@ 70531
technique 70523
Arnold 70518
och@@ 70516
consistent 70513
somehow 70512
Mid@@ 70501
streams 70485
data, 70472
gra@@ 70467
hoping 70466
s's 70448
198@@ 70447
(6@@ 70413
shift 70411
Universal 70407
1953 70391
Co., 70385
attention. 70373
title, 70255
o", 70252
fel@@ 70250
Y, 70240
amp@@ 70229
Arkansas 70220
efficient 70205
72 70203
insurance 70201
attacking 70169
dominant 70150
fastened 70147
http://@@ 70147
openly 70144
skills 70138
dropping 70135
number, 70132
eb@@ 70129
cy@@ 70097
mus@@ 70096
Bus@@ 70093
ors. 70088
uni@@ 70081
neighbourhood 70065
tier 70064
9] 70057
sleep, 70046
pressing 70044
restricted 70041
dinner, 70009
6–@@ 70005
wondering 70002
ela 69987
Orchestra 69983
led. 69975
charter 69959
10,000 69942
resist 69932
nurse 69923
Austin 69906
North@@ 69898
destined 69892
competitive 69887
Richmond 69880
ō 69867
sons, 69866
Authority 69862
DE 69860
u" 69842
tank 69840
known. 69835
t: 69802
Moses 69796
× 69787
ova 69767
Connecticut 69755
set, 69753
Warner 69750
telephone 69745
Sultan 69739
us", 69739
stationed 69735
Water@@ 69732
wrought 69707
Gun@@ 69701
Pon@@ 69697
suspect 69693
knees 69682
breeding 69665
vague 69659
totally 69656
services, 69646
dried 69644
today. 69642
Original 69626
stem 69619
dy 69608
Report 69604
hon@@ 69603
Model 69602
se" 69598
and/or 69597
camera 69576
Ball@@ 69563
birds, 69560
Agency 69559
convenient 69555
人@@ 69544
2). 69543
donated 69537
better. 69536
explains 69528
Various 69498
"What's 69490
slender 69478
differ 69477
plac@@ 69470
fragments 69462
diameter 69445
front, 69442
_--@@ 69425
civilian 69420
failing 69410
ese 69405
There, 69404
return. 69401
lar@@ 69389
collection. 69373
Ste@@ 69367
preparations 69345
found. 69334
wide, 69321
confirmation 69310
Studio 69294
Les 69286
EL@@ 69285
witnessed 69263
Vel@@ 69254
pace 69251
edi@@ 69237
gifts 69224
with. 69220
abundant 69215
generated 69203
increases 69191
harmless 69188
clo@@ 69187
Ari@@ 69183
Honours. 69180
struggled 69176
trans@@ 69173
view. 69158
seeds 69152
development, 69145
P-@@ 69144
mi 69142
g, 69141
Louise 69131
Cy@@ 69118
arm. 69112
clear, 69111
hard, 69111
merry 69110
crosses 69099
inn@@ 69092
1920 69085
cher@@ 69083
inhabited 69083
English. 69062
y!" 69058
1951 69054
Cup, 69046
night@@ 69046
lips, 69043
hunt 69035
M-@@ 69026
Julia 69015
cries 69015
miss 69011
.com/@@ 69008
prices 69008
Manuel 69006
1936 69004
Give 69003
.--The 69001
mines 68989
garrison 68988
horn 68975
hastily 68972
comprehensive 68969
Party. 68965
life; 68964
Mary's 68921
conquered 68903
Armenian 68899
(5@@ 68866
P, 68865
AL 68862
ation) 68861
Rob 68854
gal@@ 68852
east, 68851
illa 68847
undoubtedly 68846
restaurant 68845
ches 68842
swift 68831
ray 68823
III, 68818
personally 68806
Hudson 68802
Mand@@ 68795
attractive 68795
Fol@@ 68789
know@@ 68789
Pittsburgh 68780
(later 68773
part. 68760
invitation 68757
Vienna 68750
_] 68748
humans 68747
legend 68740
devotion 68737
ft. 68732
administered 68721
corps 68718
cabinet 68712
convicted 68694
set@@ 68682
gallant 68681
effect, 68677
gentleman, 68668
questioned 68664
vel@@ 68653
far@@ 68650
'd, 68642
Clo@@ 68639
sar@@ 68627
designer 68625
martial 68623
naked 68623
Cast@@ 68606
183@@ 68601
Lab@@ 68600
shadows 68588
window. 68584
y), 68584
buildings, 68583
1987, 68565
Island. 68564
soccer 68554
communications 68552
Court, 68533
folks 68528
ides 68524
Tel@@ 68515
lots 68513
22. 68511
universities 68511
Orleans 68505
9.@@ 68501
199@@ 68500
Control 68486
acquire 68472
Hills 68460
rocky 68456
Bak@@ 68450
Iranian 68450
probability 68444
Lou@@ 68439
exclusion 68436
ns 68427
farmers 68426
Gray 68424
makeup 68418
flame 68412
sentiment 68409
1988, 68406
Sat@@ 68394
competition. 68393
useless 68393
furniture 68387
filling 68386
afterwards, 68375
一@@ 68369
Girl 68365
fears 68346
record. 68330
luck 68298
Craig 68273
ern@@ 68273
Fu@@ 68271
"Now, 68264
ABC 68255
tight 68252
Fair 68243
colours 68241
speech, 68238
nomination 68236
crash 68233
,) 68230
circumstance 68225
preliminary 68225
2), 68217
nation, 68206
ignorance 68195
forcing 68180
Symphony 68170
deserted 68164
tenth 68164
ens, 68158
crimes 68144
revolution 68140
District. 68139
3/@@ 68133
empire 68124
Sin@@ 68116
va@@ 68112
Baker 68109
yr@@ 68098
"You're 68082
Ten@@ 68078
O, 68076
patent 68076
abide 68075
ates, 68075
Hope 68072
house@@ 68069
intent 68068
parliament 68061
SM@@ 68053
ta" 68051
ful@@ 68032
Pennsylvania, 68023
clay 68022
imagined 68008
Angeles, 68004
AG@@ 67999
stole 67992
brass 67991
(8@@ 67976
Release 67942
scarce 67937
rice 67930
Lloyd 67914
Friday 67904
er," 67899
absent 67897
jurisdiction 67887
"Mar@@ 67867
cook 67866
are. 67858
printing 67857
graduating 67856
Me" 67852
ov, 67852
Hi@@ 67838
void 67834
true. 67833
decides 67777
perceive 67776
Google 67758
bank, 67749
ox@@ 67747
anchor 67741
separation 67726
Association, 67722
battle. 67717
Club. 67693
favorable 67693
liability 67692
lost. 67688
Canal 67687
Medicine 67679
enthusiasm 67679
lion 67658
10-@@ 67657
appears, 67638
ruined 67638
depths 67637
kar@@ 67631
2019 67616
Russia. 67615
mate 67608
suited 67603
voting 67589
Lim@@ 67583
was@@ 67582
2; 67572
ich 67556
Rick 67549
disturbed 67549
lamp 67546
res, 67541
cash 67539
duty, 67538
farmer 67537
classification 67534
Gmina 67533
concentrated 67529
prohibition 67527
revolutionary 67517
Grade 67513
Suddenly 67506
Should 67500
planet 67494
Parker 67474
final. 67472
ties, 67471
Angel@@ 67470
IS 67468
it: 67463
85 67456
Group, 67456
Leonard 67454
B.@@ 67448
namely, 67438
Mam@@ 67436
Sta@@ 67429
wall. 67405
sti@@ 67396
(2006) 67395
ist. 67386
Cook 67376
market. 67374
--as 67368
Carolina, 67362
particular, 67353
ka@@ 67341
Q 67339
(c. 67336
Buddhist 67300
counter@@ 67300
ess 67286
talks 67285
space. 67279
per, 67277
sensible 67274
House. 67266
cent@@ 67260
says: 67258
canal 67254
Dorothy 67247
,000. 67246
X-@@ 67245
Argentine 67239
adopt 67239
swung 67221
Disney 67208
gre@@ 67197
reply. 67197
margin 67180
ée 67180
Horse 67166
kes 67153
Bil@@ 67142
heard, 67142
Ron 67135
Century 67131
dread 67123
elementary 67121
Get 67112
Fall 67099
requiring 67074
sentence, 67074
pass@@ 67071
fur@@ 67066
afterward 67064
arguments 67056
act@@ 67049
dish 67043
ence. 67042
curiosity 67040
Originally 67019
clerk 67013
Steven 67002
discharge 66996
traditions 66987
._) 66963
Eddie 66958
Near 66949
stopping 66938
inform 66937
rays 66919
ultimate 66917
light@@ 66905
ow 66897
completing 66888
beings 66873
ruler 66870
isi@@ 66866
output 66860
25. 66845
Hispanic 66844
feast 66838
Wel@@ 66837
(2007) 66831
amounts 66829
evening. 66826
satellite 66826
alism 66804
Nancy 66798
Environmental 66789
cher 66789
his, 66784
1990s 66776
Jon 66770
donation 66767
Jar@@ 66766
impulse 66759
68@@ 66749
Mont@@ 66746
Bun@@ 66744
Egypt, 66727
dog@@ 66726
contribute 66724
:--@@ 66722
unconscious 66720
aut@@ 66716
Secondary 66700
Against 66687
maiden 66687
community, 66686
release, 66668
Cour@@ 66658
missionary 66657
club. 66641
Congress, 66636
Children 66633
queer 66633
Association. 66624
him: 66623
PE@@ 66612
Isle 66604
sends 66591
CD@@ 66565
traveling 66563
Records, 66562
integrated 66555
traded 66530
wars 66529
neck, 66514
800 66508
Bachelor 66506
"Ah, 66498
§ 66489
to-day, 66475
shorter 66474
black@@ 66459
outbreak 66459
None 66452
Organization 66451
judicial 66451
Nat@@ 66436
Action 66427
ang, 66427
pine 66424
activities. 66410
Union, 66402
bark 66398
contested 66392
tis@@ 66392
1917 66390
23. 66389
belt 66377
businesses 66376
eminent 66369
_: 66366
diverse 66366
Harrison 66364
ary. 66359
indirectly 66352
Sierra 66345
else, 66340
"Love 66339
connect 66333
modest 66330
tomb 66329
troops, 66324
Wat@@ 66311
ler@@ 66309
appearance. 66308
."[@@ 66305
Bed@@ 66301
ther 66293
"Very 66281
oper@@ 66276
1986, 66262
era, 66221
tit@@ 66202
Front 66200
staring 66197
orchestra 66195
Arabic 66190
cent. 66190
Express 66174
Day@@ 66167
wandering 66161
• 66159
ranging 66155
to-@@ 66151
coverage 66139
Nu@@ 66112
log 66110
encounter 66100
descendants 66093
tests 66093
Student 66087
past. 66065
battles 66058
sound, 66048
ying 66043
Monday 66041
Van@@ 66026
rang 65999
god@@ 65997
cure 65987
endemic 65982
Rome. 65980
VI@@ 65974
from. 65968
Wall@@ 65966
FI@@ 65951
boards 65951
til@@ 65950
ess, 65944
equ@@ 65942
arch@@ 65937
mild 65931
trade, 65931
lively 65924
delayed 65921
heir 65921
Romans 65913
ters, 65913
Mitchell 65904
heaven, 65894
ecclesiastical 65882
franchise 65879
rooms, 65878
court. 65874
eta 65861
Racing 65853
tables 65849
ranking 65835
Division, 65821
ú@@ 65821
throat 65817
husband's 65814
year@@ 65807
astonished 65800
act, 65795
literature, 65788
match, 65784
ao 65782
Gen. 65769
UN 65764
reducing 65756
publications 65755
posts 65748
(New 65738
George, 65719
Ice 65718
Yu@@ 65717
1989. 65710
exposure 65696
ger 65683
Shar@@ 65664
sight. 65646
advertising 65635
Child 65627
emphasis 65625
island. 65623
show@@ 65609
sides, 65608
controversial 65604
nephew 65594
sey 65585
stress 65579
correspondence 65561
script 65559
bert 65558
shallow 65550
62 65533
industry, 65531
with@@ 65520
cost, 65510
Kingdom. 65508
camp. 65507
(a) 65501
crept 65500
secretly 65500
initiated 65496
guns, 65467
gg@@ 65461
eh@@ 65455
le; 65452
Make 65450
disposition 65449
"No," 65446
eni@@ 65440
r. 65438
Cos@@ 65421
likes 65420
scene, 65415
Countess 65410
player, 65400
compound 65395
mentions 65393
fewer 65364
i.e. 65358
aci@@ 65352
policies 65336
fruits 65334
thr@@ 65333
Could 65309
el-@@ 65309
component 65302
Unless 65301
idle 65301
liv@@ 65286
necessary, 65278
Collection 65262
Price 65254
Atlanta 65252
Gran@@ 65238
Soccer 65234
public. 65215
ones. 65206
ways. 65197
Law@@ 65196
Hill@@ 65189
prayers 65188
Evans 65177
Art, 65166
Furthermore, 65161
inger 65152
n-@@ 65145
population, 65137
mingled 65136
strongest 65135
varieties 65134
tall, 65127
oak 65119
excess 65094
RAF 65093
Neil 65089
thing@@ 65078
theories 65076
conquest 65056
distinctive 65041
acoustic 65039
transformed 65038
unity 65030
24. 65029
ante 65029
bet 65024
rel@@ 65005
bow@@ 65003
cheerful 64995
(2005) 64993
Pete 64993
afforded 64989
ation." 64985
artist, 64976
Still, 64974
repeatedly 64973
row@@ 64968
soul. 64961
managing 64953
free, 64952
eliminated 64950
resort 64935
1938 64930
Wa@@ 64926
bo 64923
inquiry 64918
mine. 64909
suicide 64904
strategic 64895
y_ 64893
ī@@ 64887
Market 64886
rebuilt 64882
177@@ 64878
fr@@ 64878
calculate 64869
letting 64860
reverse 64857
wheels 64841
fighter 64839
welfare 64834
verses 64830
1919 64829
Dav@@ 64826
fortunate 64825
Thor@@ 64785
monastery 64783
mar 64779
Bristol 64777
"There's 64774
os" 64771
ign@@ 64768
al's 64746
P) 64737
une 64737
F.@@ 64736
emotional 64719
strategy 64715
]] 64708
Dallas 64706
discipline 64702
weakness 64684
Ted 64680
ance. 64673
bars 64663
commented 64659
intersection 64659
unincorporated 64655
texts 64654
privilege 64653
ensuring 64652
Lov@@ 64647
reminded 64645
reflection 64638
(formerly 64634
meters 64633
attract 64624
(3) 64619
Study 64608
Pic@@ 64600
preceded 64590
Girls 64574
PG 64571
Artillery 64563
Muhammad 64554
deep, 64554
er’s 64549
commit 64548
toured 64546
----@@ 64531
startled 64531
1985, 64529
battalion 64516
les. 64500
Branch 64493
leather 64480
involvement 64479
wash 64477
abandon 64474
S) 64472
friend@@ 64470
Works. 64463
Union. 64451
sia 64451
along, 64447
ito 64436
wives 64432
far, 64430
dor@@ 64428
lap 64426
("S@@ 64425
latter, 64409
incidents 64406
directions 64405
63 64403
Cop@@ 64395
an: 64391
smile, 64385
You@@ 64370
novel, 64369
magnetic 64360
Revenue 64357
Rol@@ 64357
single-@@ 64353
Ali@@ 64343
deaths 64291
allied 64283
fields, 64277
stir 64272
Scotland. 64268
counties 64263
1" 64262
era. 64252
races, 64245
persons, 64240
"we 64235
right@@ 64235
enclosed 64221
ents 64206
je@@ 64204
cut@@ 64203
rage 64202
Johnson, 64193
barely 64186
biography 64181
honorary 64162
harmony 64153
tear 64146
dynasty 64145
gate, 64126
accordingly 64116
Computer 64114
ator@@ 64100
Dy@@ 64071
MA 64071
"Ma@@ 64059
double-@@ 64058
proprietary 64053
gender 64050
Minor 64027
Cel@@ 64021
Cla@@ 64014
good@@ 64013
nic@@ 64010
Wh@@ 63999
faster 63989
Rob@@ 63964
peace. 63953
arch 63943
ire 63938
proceedings 63938
ō@@ 63938
lets 63929
motive 63911
Aaron 63908
transmission 63906
AS 63905
Pat 63901
enemy. 63898
Mark@@ 63895
São 63892
outward 63890
Sec@@ 63881
Dr@@ 63867
Gabriel 63867
Bla@@ 63862
obey 63862
lightly 63858
(2008) 63846
Rem@@ 63845
person. 63840
class. 63838
pa 63833
iv. 63831
—the 63814
Abbey 63810
pit 63806
M, 63797
replied. 63796
ole 63788
Post@@ 63781
option 63741
temper 63737
feeding 63721
bond 63718
E-@@ 63709
governments 63687
accepted, 63664
Costa 63661
casting 63654
dwell 63652
Fleet 63645
traced 63636
negotiations 63635
aki 63626
publisher 63617
Jr., 63606
brigade 63601
bomb 63590
D) 63583
i's 63565
coast, 63555
MP@@ 63549
Sir@@ 63549
ously, 63536
Wor@@ 63530
speaker 63527
Nam@@ 63524
manners 63520
ement 63511
Florida, 63498
sam@@ 63493
R.@@ 63487
that." 63485
Higher 63482
 km 63482
Lav@@ 63473
altar 63472
"Th@@ 63466
performance. 63466
(4@@ 63458
Virginia. 63448
moreover, 63434
drafted 63428
daughter. 63424
bad@@ 63418
s.” 63415
A.D. 63411
67@@ 63409
Portugal 63393
64, 63392
pet@@ 63392
midnight 63364
housed 63362
Sergeant 63361
mas@@ 63348
disc 63347
proclaimed 63344
decades 63341
Production. 63340
summer, 63332
Holland 63327
rounded 63323
vis@@ 63319
process, 63314
%, 63312
Lat@@ 63311
rows 63301
Harvey 63297
eagerly 63293
mid 63288
attendance 63267
(of 63266
seize 63266
production. 63260
furnish 63253
Freedom 63252
car, 63252
manufacture 63250
178@@ 63235
oath 63230
Jazz 63229
Mah@@ 63192
cause, 63190
dress, 63187
Otto 63179
_P@@ 63178
fever 63170
settlements 63165
bus@@ 63159
thine 63146
commerce 63144
Ellen 63134
Marcus 63134
Nav@@ 63122
Seattle 63118
pur 63115
Turner 63111
cam@@ 63108
reports, 63107
MS 63088
miles, 63085
ir, 63077
D.C. 63072
pe 63068
ats 63066
conditions. 63066
terminal 63066
Revolutionary 63061
Unit 63054
green, 63050
“You 63047
F.C. 63011
trials 63007
ological 63006
peoples 63002
us_ 63000
heroic 62996
3), 62987
best, 62956
Parish 62954
operational 62945
(b) 62928
panel 62895
termed 62892
ris 62891
itt@@ 62848
th-@@ 62848
depicted 62846
1914 62837
Camp@@ 62831
stairs 62821
d-@@ 62815
respecting 62801
mixing 62750
phi@@ 62728
ben@@ 62718
missions 62715
leaves, 62706
'the 62684
Gallery, 62683
respectable 62678
an; 62674
CON@@ 62672
her." 62653
MAR@@ 62648
colonies 62647
(2009) 62643
cottage 62635
Wol@@ 62618
Secret 62613
Grey 62608
constitute 62601
ley's 62584
staying 62567
ants, 62562
marketing 62557
e’s 62555
Band@@ 62554
'You 62544
TA@@ 62540
judged 62529
tra@@ 62529
beam 62521
girl's 62520
scores 62520
3). 62515
1988. 62507
call@@ 62505
Methodist 62501
Ohio, 62493
Pot@@ 62492
proceeds 62486
mud 62483
ble 62464
knight 62462
EC@@ 62454
imprisoned 62453
Cooper 62451
qui 62449
census. 62445
slope 62441
Ah, 62426
5/@@ 62423
systems. 62418
Birmingham 62397
Q. 62387
Army. 62362
95 62357
Gospel 62355
AD 62354
1930 62347
Cow@@ 62346
box, 62341
swamp 62333
shots 62332
ER 62327
Fo@@ 62323
Vo@@ 62323
lost, 62320
1950s 62318
pioneer 62315
beds 62310
has, 62306
Fifth 62305
Mes@@ 62298
Lost 62294
here." 62285
il, 62284
angel 62277
locations. 62276
South@@ 62273
minority 62257
Lor@@ 62253
Ferdinand 62239
states, 62234
EP@@ 62232
,000 62220
conditions, 62214
reportedly 62210
drank 62203
risen 62202
such, 62202
lesson 62192
maybe 62188
declaration 62187
parted 62182
heritage 62172
tone, 62166
Utah 62162
Denmark 62158
Annual 62149
shoes 62147
tales 62145
soundtrack 62144
sky. 62142
swear 62133
61 62123
VI. 62122
Others 62118
ours 62116
renowned 62113
word@@ 62111
students, 62102
transcription 62099
tic, 62096
release. 62095
tool 62093
Publishing 62079
al: 62079
song. 62068
spreading 62053
possession. 62052
date, 62049
variation 62042
ventured 62034
now@@ 62032
poets 62029
lips. 62019
rit@@ 62019
197@@ 62017
shells 62012
Army, 62010
plan@@ 62005
delivery 61994
stein 61992
Edmund 61991
day; 61988
ô@@ 61988
explanation. 61986
thus, 61984
Base 61983
forces. 61983
Poly@@ 61980
Pres@@ 61965
vic@@ 61965
condition, 61958
1937 61957
mm 61947
Bush 61946
wine, 61943
food. 61942
draws 61925
Col. 61922
P.@@ 61901
ample 61877
,--and 61861
195@@ 61858
Attorney 61855
DJ 61835
tree. 61829
_." 61826
objective 61822
slowly, 61819
1945, 61815
elli 61807
K-@@ 61802
ing", 61793
istic 61793
sketch 61785
extensively 61780
Ambassador 61776
binding 61776
promptly 61775
cried. 61764
ca 61762
vigorous 61755
he'll 61739
Danny 61733
laws, 61733
dic@@ 61730
ack@@ 61729
hatred 61727
din@@ 61723
Res@@ 61719
vicinity 61710
CA 61695
twin 61689
forest, 61682
habitat 61676
sample 61673
ins@@ 61672
ordained 61670
groups, 61667
profession 61667
automatic 61664
biological 61644
it!" 61644
outstanding 61639
NHL 61619
ram 61618
r, 61615
removing 61615
south. 61615
stored 61610
.. 61609
30. 61608
part@@ 61598
club's 61595
--you 61593
ages, 61592
humanity 61592
Government, 61585
ering 61551
photographs 61524
Athletics 61517
red. 61516
Moon 61508
information. 61506
authorized 61490
Thomas, 61480
steal 61458
(2004) 61449
Iraq 61447
attack, 61443
contributing 61443
stuff 61432
Kenneth 61431
bestowed 61409
ez 61405
1984, 61400
politician, 61387
chances 61380
Franc@@ 61368
"Par@@ 61339
shield 61317
temporarily 61309
Race 61306
operations. 61301
dissolved 61290
app@@ 61287
match. 61286
bulk 61284
multitude 61284
rose, 61282
Hon@@ 61275
mol@@ 61270
ring@@ 61250
www.gutenberg.org 61246
Distributed 61245
travels 61242
strikes 61230
evolved 61226
knew, 61211
Brother 61168
clothes, 61159
Johann 61142
Hall@@ 61140
Ang@@ 61137
regulating 61135
rounds 61134
Kel@@ 61128
”. 61118
broadcasting 61113
eligible 61113
54@@ 61106
Flying 61106
Metro 61106
compiled 61105
ous; 61103
acquisition 61085
Bar 61071
ship's 61067
regulations 61064
handling 61059
pos@@ 61058
tiv@@ 61057
pairs 61055
retail 61047
&c., 61042
8vo. 61042
channels 61024
Kas@@ 61020
1.F.3. 61018
females. 61011
ick@@ 61007
East, 60996
design. 60988
"k@@ 60985
1980, 60978
enterprise 60973
hills, 60970
pardon 60967
decade 60964
Division. 60959
alarm 60958
nodded 60955
Belgium 60949
daring 60946
Scientific 60940
directors 60939
Sir, 60936
e/@@ 60933
port@@ 60930
suburb 60921
components 60916
requirements. 60913
flies 60900
gene 60891
Honor 60888
tobacco 60874
SH@@ 60873
44, 60870
pres@@ 60863
Fal@@ 60852
revenge 60845
Wall 60841
royalty 60838
bul@@ 60836
│@@ 60836
segment 60825
intend 60824
Dou@@ 60822
Students 60822
convince 60811
pains 60809
radical 60809
me!" 60797
aims 60796
threatening 60795
Hunter 60776
us_, 60765
Award, 60762
67 60761
street. 60753
five-@@ 60722
stream, 60720
Joint 60719
high@@ 60711
awa@@ 60710
instinct 60703
theory, 60684
experience. 60683
sleep. 60683
glass, 60681
figure, 60678
wrote, 60671
'll 60670
Rod@@ 60670
justice, 60669
Tol@@ 60659
places. 60654
ms 60635
1928 60628
well@@ 60626
winter, 60626
supporters 60618
Wales. 60607
date. 60606
beautiful, 60605
yourself, 60601
Aviation 60598
eye. 60595
softly 60592
chest 60590
ted, 60582
68 60576
Syrian 60567
Rhode 60562
Has 60556
Tokyo 60547
ass 60544
deprived 60542
other's 60534
time." 60534
fall, 60533
graceful 60531
charges. 60527
77 60515
4). 60508
Ann@@ 60477
addressing 60466
pile 60464
beheld 60463
radi@@ 60448
ity" 60434
Roberts 60426
killed. 60420
,--the 60415
merit 60413
passionate 60406
relocated 60405
followed, 60402
writing, 60401
inaugural 60394
Party, 60379
Voivodeship, 60377
oh, 60374
Yale 60368
rag@@ 60357
home@@ 60353
(2010) 60346
ken@@ 60342
pitched 60337
seal 60337
lasting 60336
Pan 60329
ai, 60320
Copyright 60294
progressive 60289
"he 60277
mechanism 60256
(12@@ 60255
Communications 60231
marriage. 60220
rad@@ 60210
length. 60196
Continental 60194
Glasgow 60181
Texas. 60173
parents, 60171
why, 60171
Allan 60169
month. 60158
girls, 60147
..." 60140
Gur@@ 60132
.--_@@ 60130
Rogers 60112
now." 60107
Bulgarian 60106
Society. 60105
James, 60102
Byzantine 60097
Op@@ 60092
Magazine 60090
Celtic 60088
periodic 60087
deployed 60078
m) 60073
al." 60070
honored 60067
kk@@ 60064
%) 60044
speaking, 60034
Sak@@ 60032
Str@@ 60021
78 60020
s._ 60018
1980s, 60017
captain, 60001
Songs 59994
ile 59982
pin 59974
194@@ 59971
hop@@ 59971
u-@@ 59971
de" 59963
69 59959
destroying 59957
forward. 59939
6,@@ 59929
_A@@ 59919
(13@@ 59916
plain, 59910
actor, 59905
visitor 59901
presenting 59900
Note 59893
Rat@@ 59892
groups. 59881
trunk 59868
Shakespeare 59866
deeds 59866
Friedrich 59857
Switzerland 59854
pulling 59850
propose 59843
included. 59830
vari@@ 59827
tom@@ 59800
appealed 59794
shops 59783
1935 59774
fight, 59761
Road. 59759
add@@ 59756
drum 59748
medals 59747
businessman 59741
persuade 59730
Financial 59714
3; 59708
gratitude 59705
Cold 59701
Dame 59701
au, 59682
Duchess 59681
yielded 59676
film's 59671
ere@@ 59660
Giovanni 59659
_). 59657
)", 59650
multi@@ 59650
itz@@ 59649
shores 59646
(e.g. 59638
na, 59628
command, 59624
ered 59624
petition 59612
Woman 59600
N.@@ 59596
revised 59594
tip 59591
IT 59589
Systems 59579
treasure 59577
Rus@@ 59572
instructed 59564
US. 59563
(10@@ 59558
one; 59552
12-@@ 59529
householder 59518
resemblance 59505
electricity 59498
71 59497
cuts 59492
if, 59487
Cambridge, 59476
collecting 59475
guards 59475
admirable 59469
Philadelphia, 59453
SS@@ 59451
Wallace 59440
recordings 59430
tributary 59424
1900 59413
mount 59413
inscription 59412
fitting 59395
inn 59395
%. 59388
Cab@@ 59388
able; 59380
list. 59380
households, 59351
Collins 59349
whereby 59349
Conservation 59343
Data 59342
clinical 59329
blood. 59324
leagues 59324
blew 59319
ida 59313
PA@@ 59305
attorney 59301
Ze@@ 59298
"Re@@ 59296
stout 59284
smoking 59280
69@@ 59271
1986. 59259
(2011) 59243
orange 59242
æ 59235
193@@ 59233
Oh! 59227
exercised 59225
Chapel 59215
Theater 59211
killed, 59208
hip 59206
·@@ 59203
1% 59202
property. 59200
Lem@@ 59188
songs, 59174
sign@@ 59166
philosophical 59162
er". 59160
authority, 59148
Outstanding 59130
Ton@@ 59124
theatrical 59123
approaches 59120
Provincial 59119
situation, 59105
Parliamentary 59104
1912 59102
elsewhere 59101
ers: 59101
onic 59101
76 59099
then@@ 59089
woods, 59083
recipient 59080
5% 59074
"En@@ 59068
on," 59068
ning 59066
context 59052
Mass@@ 59045
10.@@ 59044
Whatever 59044
lo 59043
Act, 59042
GE@@ 59036
1982, 59030
ever@@ 59020
democratic 59019
announcement 59016
universe 58986
graphic 58985
t." 58979
1924 58972
Abu 58968
4: 58964
exquisite 58963
admission 58934
Motor 58932
liable 58928
ère 58920
alist 58919
egg 58919
(2003) 58918
own@@ 58918
Ronald 58917
wrong, 58915
brook 58907
1983, 58904
induce 58903
4), 58899
easy. 58892
album's 58888
generations. 58874
bench 58870
rebel 58864
tunnel 58854
dollar 58850
subsidiary 58850
nineteenth 58845
Movement 58842
Julian 58841
demolished 58839
1933 58837
150@@ 58832
opened, 58830
proceeding 58830
pot@@ 58826
ati 58819
dirty 58817
Colonial 58814
By@@ 58796
improvements 58796
Colin 58790
ano, 58789
196@@ 58787
Oscar 58787
qualify 58787
Has@@ 58779
Tab@@ 58778
director, 58778
undertaken 58778
promising 58777
Berlin, 58772
Non-@@ 58742
imp@@ 58740
cheeks 58731
stirred 58730
Borough 58720
satisfactory 58718
endure 58715
entertained 58701
ae@@ 58700
1929 58695
.), 58686
Wang 58682
lake, 58681
favourable 58678
smell 58673
powder 58655
focuses 58653
philosopher 58653
laughter 58641
power@@ 58640
lesser 58629
public, 58609
Play@@ 58605
that@@ 58605
Marquis 58601
fellow-@@ 58598
L'@@ 58596
ju@@ 58591
clad 58590
surface, 58585
Policy 58568
ghost 58563
Empire. 58562
van@@ 58559
errors 58558
machines 58558
spaces 58550
Ray@@ 58538
red-@@ 58529
able@@ 58528
means, 58526
Farm 58521
1987. 58510
lighting 58496
Owen 58493
customers 58487
plan, 58482
Rou@@ 58464
quantities 58445
literature. 58441
seat, 58429
seeks 58423
asserted 58421
74 58418
201@@ 58416
anim@@ 58416
idae. 58410
accompanying 58407
exhausted 58405
fathers 58405
Paul, 58377
bee 58370
year's 58369
Falls 58368
Henri 58351
flashed 58326
heavenly 58324
intervals 58320
hiding 58317
as: 58316
Caroline 58314
mac@@ 58311
crying 58308
Saints 58305
tones 58301
constituted 58297
Saudi 58282
him? 58269
Based 58263
borrowed 58255
ED@@ 58249
Something 58241
we've 58229
1910 58213
Hon. 58209
procession 58200
cathedral 58195
75@@ 58193
oni 58192
dashed 58184
Solomon 58173
Festival, 58169
handled 58168
99@@ 58165
bounded 58163
"El 58132
territories 58114
ket@@ 58106
expecting 58100
acknowledge 58099
Masters 58092
veteran 58072
Dead 58069
freight 58069
lig@@ 58068
99 58055
Williams, 58054
way; 58053
AF@@ 58052
1985. 58050
ma. 58049
prey 58031
Protection 58030
Bad 58024
Studios 58018
tent 58014
78@@ 58005
Lind@@ 58000
surface. 58000
conceal 57992
lov@@ 57983
lands, 57974
que, 57913
band. 57912
log@@ 57909
a’s 57898
murmured 57889
practice, 57879
abstract 57875
weeks, 57871
FROM 57870
Oxford, 57860
Westminster 57859
media. 57854
Prussian 57852
mood 57850
Sig@@ 57849
pot 57839
ella" 57835
husband. 57830
1990s, 57828
adjoining 57827
Cemetery 57822
More@@ 57818
ny@@ 57818
holiday 57817
touring 57816
campaign, 57811
Limited 57806
us' 57798
7:@@ 57782
de-@@ 57774
program, 57771
eth@@ 57768
adds 57759
care@@ 57750
77@@ 57743
(3@@ 57742
performed, 57741
operator 57738
Justin 57729
sinking 57723
locally 57722
mod@@ 57710
PH@@ 57701
gloomy 57701
hurry 57700
Emily 57694
Kr@@ 57692
You're 57691
uncertain 57689
ve, 57687
"Di@@ 57668
Episode 57668
Indi@@ 57665
olog@@ 57665
GO@@ 57662
ted. 57635
1922 57629
bes@@ 57600
project. 57597
Head@@ 57578
full-time 57576
CBS 57572
had@@ 57564
dale 57557
returned, 57553
breathing 57548
above. 57544
Greeks 57541
scene. 57539
ministry 57534
withdraw 57530
ver 57527
forces, 57520
Trophy 57510
expand 57506
intermediate 57503
irregular 57498
tia 57496
conductor 57492
aided 57491
Clinton 57489
markets 57486
G.@@ 57483
nation. 57477
IL@@ 57461
1934 57444
ett@@ 57442
Leslie 57439
existence, 57436
romance 57431
PA 57426
trusted 57420
colonel 57414
cel@@ 57412
teams. 57412
shopping 57410
hear@@ 57407
undertake 57401
traditionally 57399
Latino 57397
Dra@@ 57392
fashion, 57390
Buffalo 57389
President, 57387
eBook, 57387
ties. 57384
stone. 57377
impressive 57369
began, 57356
192@@ 57351
existence. 57349
stiff 57341
"Pro@@ 57339
account, 57329
luxury 57326
acc@@ 57323
succeeding 57319
shifted 57317
bloody 57312
"[@@ 57310
pleasure, 57309
all; 57302
harsh 57299
produc@@ 57291
climbing 57281
injuries 57278
securing 57278
boxes 57276
ush@@ 57276
Performance 57273
lifting 57271
duke 57261
gap 57249
fic@@ 57247
ent; 57244
terminus 57240
contempt 57230
’d 57230
Grand@@ 57215
Say@@ 57214
scope 57206
picturesque 57200
Challenge 57195
merchants 57195
2,000 57191
capital, 57190
middle-aged 57184
27. 57174
Som@@ 57163
went, 57163
infant 57162
Today 57160
Anti-@@ 57157
1979, 57146
"Go 57145
drummer 57143
26. 57134
outdoor 57116
monthly 57109
(197@@ 57107
cloth, 57105
phenomena 57091
mean, 57086
"Right 57083
blessing 57068
stro@@ 57052
mouth. 57045
L, 57044
justified 57034
Mod@@ 57033
fairy 57033
Cou@@ 57028
Everything 57014
Key 57013
amidst 57011
study, 57009
actively 57003
Wilhelm 57002
see@@ 56996
US, 56983
blown 56978
brother. 56971
Bog@@ 56968
turn@@ 56964
conjunction 56961
rings 56952
connects 56950
'Tis 56949
dwelling 56933
limbs 56931
Music. 56918
sand@@ 56918
lim@@ 56896
shore. 56896
illness 56891
pu@@ 56891
yet. 56886
len@@ 56884
Half 56866
VII 56865
certified 56860
oun@@ 56857
valued 56842
1932 56838
victory. 56832
(2 56829
ker, 56822
steamer 56821
change, 56819
upset 56817
three, 56808
retire 56807
73 56806
patience 56796
invention 56780
credits 56774
princes 56770
taxes. 56770
campaign. 56767
situation. 56764
Sean 56760
Cabinet 56757
Box 56750
Maine 56744
ids 56737
ad. 56735
ron 56721
paper. 56709
pretended 56706
Emma 56701
ami 56688
anything, 56683
Presently 56679
Julius 56677
Volunteers 56674
Sky@@ 56673
you!" 56673
n" 56668
opposing 56663
Ltd. 56662
Mou@@ 56661
I’m 56654
Yorkshire 56653
memories 56651
án 56648
Books, 56636
tor 56636
ashes 56630
ord@@ 56621
wandered 56615
ink 56613
emotion 56611
tested 56603
attention, 56599
culture, 56599
ain 56596
vin@@ 56594
doctor, 56589
productions 56584
twenty-four 56584
Edwin 56579
ports 56575
recovery 56562
TR@@ 56545
Almost 56544
ves 56539
d" 56536
"Take 56515
1972, 56505
Gerald 56503
publish 56501
compare 56492
promises 56492
specialized 56478
enlisted 56472
FIG. 56468
ius 56465
swiftly 56465
Peter@@ 56460
tore 56460
and-@@ 56456
structure, 56455
MS@@ 56451
ri, 56451
hyper@@ 56450
late, 56436
ambassador 56430
affairs, 56413
springs 56412
OTHER 56408
trick 56402
s,--@@ 56401
usage 56395
Perry 56380
ugly 56380
opponents 56376
Ja@@ 56374
boundaries 56362
7), 56357
hair@@ 56355
formula 56354
"American 56352
(2012) 56352
greeted 56351
ho 56349
Romanized 56341
taxes 56340
Port@@ 56337
jealous 56337
Anti@@ 56332
—and 56328
Lak@@ 56327
leaped 56325
wishing 56323
.; 56319
Government. 56312
nat@@ 56310
quiet, 56309
Formula 56306
Ran@@ 56295
Bod@@ 56291
possesses 56288
Intelligence 56276
rod 56272
sed 56268
collective 56265
look, 56261
Caribbean 56260
stops 56259
anda 56256
lord, 56256
psychological 56256
new@@ 56253
Broadcasting 56251
Ve@@ 56251
less. 56235
Sport 56233
pap@@ 56232
4/@@ 56227
Sem@@ 56221
a.@@ 56209
Sing@@ 56198
future, 56196
arrange 56191
distance. 56190
HMS 56176
1984. 56168
cities, 56166
boiling 56155
hat, 56153
oli@@ 56151
characters. 56140
control. 56137
cul@@ 56130
expressing 56120
linear 56114
Academic 56104
Islands, 56102
UNDER 56092
1970s, 56084
spot, 56084
producers 56083
is: 56066
tan@@ 56053
run, 56051
Mill 56048
ma" 56044
ier 56041
LP 56018
bowl 56012
dog, 56008
conveyed 56007
pain, 56002
88 55995
Shah 55995
nation@@ 55991
"s 55989
."--@@ 55986
Buenos 55986
admired 55980
ra. 55978
wrestling 55976
prompted 55967
frozen 55966
d's 55957
areas, 55954
6), 55953
weeks. 55950
sy 55946
temples 55944
Hur@@ 55943
Stage 55938
scientists 55931
yesterday 55928
bosom 55926
streets, 55926
you! 55924
Kun@@ 55923
ters. 55919
els, 55918
themes 55916
aries 55910
G-@@ 55909
names, 55907
centers 55906
Fa@@ 55902
agencies 55894
die. 55889
genetic 55889
list@@ 55883
Venice 55882
ian@@ 55882
UT 55877
perpetual 55875
ack 55873
Massachusetts, 55865
sensation 55855
room@@ 55851
synonymous 55851
incumbent 55846
ments 55833
unc@@ 55832
96 55829
uncle, 55829
on", 55825
Spencer 55824
ock 55822
、@@ 55805
ls 55804
Gul@@ 55793
neglected 55791
divide 55786
Fur@@ 55782
ing". 55780
oy@@ 55773
PS@@ 55772
resignation 55770
rebellion 55761
fluid 55754
deliberately 55752
Kingdom, 55751
che 55747
Argentina 55746
ania 55744
Rail 55743
53@@ 55739
disaster 55732
sworn 55731
(to 55730
pers 55715
edges 55708
usual, 55706
Franz 55702
ym@@ 55692
Miguel 55684
fol@@ 55682
governing 55666
bits 55665
hr@@ 55656
Code 55653
Operations 55646
1915 55642
osa 55639
resemble 55638
marching 55632
(19@@ 55627
errors, 55623
chiefs 55619
Op. 55617
plains 55607
accommodate 55606
cheap 55605
comprises 55604
Asia, 55596
know," 55574
”, 55574
county, 55563
noon 55563
Musical 55558
una 55540
convey 55536
only. 55535
ure, 55533
ears, 55531
Vil@@ 55525
Rachel 55511
packed 55506
adequate 55496
1921 55493
surprise, 55491
communicate 55487
connections 55485
1974, 55483
Mac 55482
re" 55479
Pul@@ 55478
crushed 55477
betrayed 55468
zi 55462
relieve 55459
enrolled 55457
lane 55457
balls 55451
witnesses 55446
doubtful 55440
stones, 55440
spring, 55437
East@@ 55431
sculpture 55428
"Our 55426
variations 55422
legitimate 55403
reply, 55390
adventures 55382
4; 55370
Paul@@ 55365
issues. 55357
advocate 55356
me--@@ 55354
acute 55332
decisions 55332
circulation 55331
Mason 55330
ating, 55329
Edwards 55327
forth, 55326
invariably 55297
corruption 55287
horizontal 55285
Beyond 55284
camp@@ 55280
HAVE 55270
welcomed 55267
1980. 55266
"Les 55265
seemingly 55265
Art@@ 55262
brothers, 55262
transported 55260
ž@@ 55257
World" 55256
1981, 55255
fold 55245
Microsoft 55243
UR@@ 55234
avoided 55229
Butler 55226
1916 55217
ents, 55213
dia 55207
Total 55204
有@@ 55195
mother@@ 55193
Cav@@ 55192
Liberty 55192
en; 55190
1944, 55186
Marc 55180
topics 55177
chorus 55175
alis@@ 55165
glimpse 55165
coaching 55162
leader, 55160
tourist 55156
1975, 55155
(7@@ 55154
net@@ 55152
desirable 55149
warriors 55133
involve 55131
Ris@@ 55128
d; 55128
respects 55117
reporter 55113
1931 55112
Spaniards 55079
valley, 55060
11.@@ 55058
1970, 55052
ard's 55048
Sid@@ 55047
deals 55043
kind@@ 55038
activist 55036
complicated 55032
forbidden 55028
achi@@ 55026
ome 55022
subjected 55018
Sky 55011
ong, 55004
Golf 55002
sweep 54985
unsuccessful 54985
quarrel 54976
varies 54965
father@@ 54962
"an 54956
wor@@ 54947
elegant 54946
grass, 54941
declaring 54937
manufacturer 54934
un, 54928
Edgar 54924
Commercial 54923
ū@@ 54922
voiced 54921
troubles 54916
retiring 54899
respected 54897
Dom@@ 54894
(). 54878
door@@ 54870
oma 54868
ambition 54859
oral 54859
Armed 54858
bel 54850
track, 54848
"Thank 54833
conservation 54830
conspicuous 54829
reception. 54828
coarse 54827
Jay@@ 54821
servant, 54815
dri@@ 54808
practised 54797
sailors 54797
ge, 54794
84 54793
extinct 54790
120@@ 54789
pleasing 54789
car. 54788
Kom@@ 54787
eat@@ 54787
observing 54783
undertook 54783
EBook 54772
ed?" 54767
permission. 54767
German@@ 54762
sor@@ 54762
Din@@ 54760
NA@@ 54751
a--@@ 54750
intensity 54747
precise 54743
step@@ 54738
LA 54735
dal@@ 54722
excessive 54721
los@@ 54716
Wing 54706
o'er 54696
U-@@ 54687
(14@@ 54684
compact 54674
Tw@@ 54673
65@@ 54672
misery 54669
rights, 54666
Today, 54662
populations 54661
Hampshire 54659
e.@@ 54653
sake, 54651
1968, 54650
wages 54645
lowered 54638
contracted 54631
condition. 54620
challenged 54613
reporting 54609
er), 54608
intercourse 54608
ins. 54601
west. 54590
1983. 54587
(2002) 54586
Popular 54583
tournament. 54582
V, 54581
fine, 54564
bills 54559
vivid 54558
Sag@@ 54556
answers 54552
systems, 54543
Hat@@ 54541
"Here 54530
pul@@ 54524
"Oh! 54514
editions, 54512
crop 54506
religion. 54498
conducting 54494
(196@@ 54492
hungry 54490
muttered 54486
project, 54486
height, 54484
ro, 54484
duo 54480
patrol 54465
Vill@@ 54463
Lake, 54456
YouTube 54454
Principal 54448
lakes 54447
regardless 54447
magnitude 54446
wife's 54441
knee 54438
invested 54432
feeble 54429
complained 54424
heading 54388
machinery 54387
plants, 54381
withdrawn 54374
Gir@@ 54373
bird, 54361
ology, 54361
esi@@ 54354
PI@@ 54349
earthly 54347
Testament 54341
Kap@@ 54335
ies, 54335
catching 54333
mathematical 54328
1945. 54315
28. 54314
1927 54313
Ah@@ 54305
"Best 54304
lik@@ 54299
episode, 54291
Ji@@ 54273
argue 54270
Had@@ 54266
danger, 54260
Children's 54256
heated 54255
abundance 54253
heap 54251
mind@@ 54229
ial 54225
towers 54223
Bud@@ 54222
8), 54216
celebrate 54215
choir 54207
record, 54203
Malaysia 54199
Cad@@ 54195
pitcher 54185
a") 54179
ator, 54174
statistics 54174
ae" 54146
Stat@@ 54145
ear, 54139
gratefully 54138
ding 54132
Rap@@ 54126
"From 54120
behold 54119
1978, 54114
break@@ 54105
sides. 54098
ya, 54085
interval 54080
school's 54069
1925 54063
fetch 54063
NEW 54037
ting, 54033
Theodore 54025
1976, 54024
Š@@ 54021
ments. 54013
ty, 54009
pious 54006
men; 54005
lives. 53993
"Ne@@ 53990
Sad@@ 53985
road@@ 53984
guidance 53982
subscribe 53980
beer 53970
beast 53965
disease, 53955
observed, 53948
esh@@ 53930
Tha@@ 53925
ale, 53920
desires 53909
shoulder, 53905
Croatian 53904
backs 53901
resembling 53897
idea, 53894
sharply 53894
bell@@ 53888
Prof. 53879
Empire, 53878
Adelaide 53863
hang@@ 53858
Rep@@ 53856
again." 53854
y’s 53850
Jack, 53846
plunged 53838
yours 53835
pro-@@ 53834
wit 53834
grasp 53831
ence@@ 53828
Amy 53825
fees, 53824
obviously 53820
degree, 53798
regulation 53796
Classic 53781
1908 53778
Israel, 53770
they, 53768
"Qu@@ 53765
(c) 53762
saw, 53760
Norfolk 53757
Claude 53753
Oriental 53743
virtually 53742
born, 53736
dro@@ 53735
5), 53730
provisions. 53729
sav@@ 53727
proves 53722
stars, 53721
pushing 53718
JOHN 53698
1923 53688
82 53688
slopes 53688
ano@@ 53683
shipping 53675
der. 53673
ticket 53669
Chal@@ 53664
snow@@ 53664
mistaken 53662
3% 53659
politician. 53637
1982. 53630
88@@ 53627
wan 53627
designation 53621
(2013) 53616
similarly 53610
er--@@ 53588
Martha 53585
drag 53578
nes 53573
flights 53570
Bis@@ 53568
asleep 53562
Album 53556
heads, 53556
High@@ 53555
Am 53553
sphere 53549
photography 53546
enemy's 53536
Work@@ 53535
charities 53527
Industry 53522
considers 53514
Pra@@ 53513
premiere 53501
ble. 53497
CB@@ 53495
1911 53489
permanently 53482
civilization 53479
relationships 53478
ically 53476
sink 53474
"He's 53470
Festival. 53459
monks 53452
enjoying 53444
om, 53435
6; 53422
athletic 53422
laughed. 53416
Madison 53410
Buck@@ 53403
improving 53391
ves@@ 53386
First, 53382
birth, 53382
Lad@@ 53370
s.' 53369
cro@@ 53368
windows, 53359
right," 53351
lac@@ 53347
div@@ 53345
Cul@@ 53342
all." 53342
ously. 53340
discovers 53338
Death. 53335
ED 53335
participants 53335
"Will 53315
grave, 53314
through, 53312
display, 53308
gold. 53302
7). 53298
formidable 53296
people's 53281
Presbyterian 53280
stand@@ 53271
32@@ 53260
pic@@ 53258
each. 53251
cho@@ 53242
learnt 53242
positively 53239
Illinois, 53229
ongoing 53226
him," 53211
NI@@ 53206
ail@@ 53206
"No@@ 53197
partners 53197
simultaneously 53197
structural 53192
diseases 53187
3:@@ 53183
information, 53175
Euro@@ 53172
(2001) 53171
VII. 53168
el" 53168
Ell@@ 53162
ingly, 53154
shouldn't 53154
pupil 53149
alcohol 53145
agu@@ 53144
Boy@@ 53142
kills 53136
care. 53126
attraction 53121
participating 53114
dream@@ 53108
wagon 53099
doctors 53097
T) 53096
nu@@ 53085
Pad@@ 53084
bend 53083
BUT 53076
relatives 53076
touchdown 53075
child's 53067
Trail 53064
sit@@ 53063
的@@ 53051
rejoined 53043
this@@ 53041
SC@@ 53039
Bill@@ 53033
Kit@@ 53023
den, 53023
drunk 53016
ping 53011
congregation 53009
ments, 53009
patterns 53003
confessed 53002
because, 52994
1926 52988
Athens 52982
Northwest 52966
iss@@ 52966
hur@@ 52958
kick 52949
Jon@@ 52943
n's 52935
Rav@@ 52927
boat. 52924
7,@@ 52921
behind, 52914
now," 52912
(uncredited) 52907
sins 52890
disease. 52876
logical 52876
suggesting 52872
music@@ 52869
inducted 52868
Zone 52865
és 52859
Rub@@ 52853
ely, 52850
79 52842
.—@@ 52834
bonus 52824
fancied 52817
get@@ 52814
historians 52810
arrives 52796
scientist 52792
grades 52782
silent, 52781
Contact 52780
awa 52780
am" 52762
youthful 52761
Sz@@ 52756
again; 52754
Jack@@ 52748
NBC 52742
fortress 52734
sn@@ 52730
Ric@@ 52729
venue 52726
initiative 52721
Till 52718
might, 52718
1913 52713
slain 52702
Chancellor 52685
Delaware 52670
violin 52669
"Ex@@ 52665
jet 52659
basin 52654
states. 52635
drivers 52634
photo 52630
ads 52628
Villa 52624
blue, 52620
purposes. 52620
besides, 52613
concerts 52612
maintains 52611
81 52609
site, 52604
Cameron 52602
ball@@ 52593
endless 52591
subtle 52580
rou@@ 52577
ranges 52575
nerve 52571
ac, 52567
Dakota 52561
Bear 52554
bridges 52544
Date: 52536
Anglican 52532
ale@@ 52531
Nan@@ 52526
revived 52515
med@@ 52505
obedience 52503
"Car@@ 52495
ple@@ 52491
reckon 52489
joy, 52485
ar" 52482
burial 52482
privately 52482
tenure 52477
cast@@ 52467
producer, 52467
Milan 52456
value. 52454
Legal 52451
sa, 52442
switched 52442
like. 52440
sun. 52439
nations, 52437
relevant 52437
may@@ 52436
Vladimir 52431
6). 52424
5; 52419
,0@@ 52416
requirements, 52416
donors 52413
grandson 52413
1979. 52412
"one 52403
Phillips 52401
1971, 52400
a' 52400
creates 52382
efficiency 52382
rebels 52373
Care 52368
co, 52368
atory 52366
appeared, 52364
or; 52359
escort 52357
wheat 52342
heroes 52340
tone. 52339
haste 52335
Tru@@ 52334
Man" 52333
Hungary 52331
chair. 52327
Literature 52325
maker 52309
necessary. 52309
smart 52307
alis 52301
ă@@ 52299
Vis@@ 52278
winding 52277
prison, 52267
7; 52261
disappointed 52260
around, 52258
neglect 52257
Apple 52252
chart. 52248
present-day 52247
F, 52242
IR@@ 52231
Wolf 52231
exterior 52231
Left 52224
deed 52224
VIII. 52223
pil@@ 52220
64@@ 52216
Renaissance 52208
ira 52198
Yellow 52195
butter 52180
25th 52176
Ful@@ 52175
Leader 52168
implemented 52163
ori 52162
par 52149
coalition 52147
ak, 52139
ot, 52137
accomplish 52121
Males 52113
ace@@ 52107
piano, 52102
Survey 52088
halted 52085
Mik@@ 52081
Well@@ 52075
again@@ 52070
chapters 52070
1969, 52068
voluntary 52060
measuring 52059
(2000) 52058
USE 52056
styles 52052
John@@ 52049
Portland 52044
Rev@@ 52044
relate 52037
--- 52030
golf 52022
1977, 52019
Gos@@ 52019
Fund 52005
cow@@ 52001
ber, 51992
ques 51990
Liga 51989
True 51984
ı@@ 51984
1973, 51983
,--a 51972
banned 51962
Florida. 51959
Friends 51956
Ontario, 51951
point@@ 51948
structure. 51948
commands 51947
buying 51945
holder, 51939
Stanford 51922
END 51919
spoke, 51909
strangely 51909
Brun@@ 51905
Commerce 51905
warrant 51899
UK, 51897
ua 51896
86 51895
Episcopal 51895
here@@ 51892
exchanged 51891
indifferent 51884
pay@@ 51882
."--_@@ 51868
Writing 51858
zo@@ 51858
Loc@@ 51854
"God 51853
here," 51853
pieces, 51850
seventeen 51850
ths 51849
maps 51847
L.@@ 51845
Leg@@ 51837
little. 51826
beetle 51825
lab@@ 51822
journey, 51821
palm 51821
DA@@ 51818
sur 51817
ami@@ 51816
master@@ 51813
prosperity 51812
rocks, 51812
zer 51812
Py@@ 51808
neutral 51807
AC 51803
Beginning 51801
variable 51790
town@@ 51772
estates 51771
Fairbanks, 51766
manifest 51759
built, 51756
MRS. 51750
Mario 51741
err@@ 51741
Liv@@ 51740
Marion 51737
ped@@ 51737
alter 51731
Morning 51722
9/@@ 51714
Mang@@ 51706
François 51704
princess 51702
nia 51687
29. 51665
inaccurate 51664
y). 51664
ft 51662
Ober@@ 51658
Vit@@ 51657
writ@@ 51649
curse 51643
Todd 51642
uk 51641
Does 51638
ards 51638
Low 51631
Creek, 51628
Proofreading 51625
farming 51622
built. 51621
bun@@ 51617
implementation 51614
}@@ 51609
res. 51603
Asia. 51602
eri 51602
live, 51595
Again, 51593
Milton 51593
Religious 51590
Henry, 51583
ft@@ 51581
Monte 51572
principally 51567
deer 51565
awaiting 51562
north. 51560
bells 51557
Future 51555
-and-@@ 51553
Southeast 51553
"what 51547
decree 51537
AI@@ 51532
examining 51531
DS 51521
expressions 51519
honors 51518
ambitious 51517
Islam 51516
Jer@@ 51513
"Mon@@ 51512
coins 51511
mut@@ 51501
Exchange 51487
opponent 51487
rights. 51485
91 51481
Record 51480
exciting 51480
MAN@@ 51478
Michel 51478
BI@@ 51471
sem@@ 51464
poetry, 51455
revival 51452
imported 51450
amb@@ 51445
joins 51444
characters, 51422
colleges 51420
Plan 51414
lighter 51406
politics, 51403
enforcement 51401
suppose, 51401
investigate 51393
written, 51393
ust@@ 51388
Rab@@ 51375
neuro@@ 51372
waved 51371
resembles 51370
oxygen 51369
UM@@ 51356
rich, 51347
sin, 51343
in." 51337
Louis, 51335
Meanwhile 51335
ie, 51311
order@@ 51306
6/@@ 51295
"Black 51294
Ron@@ 51290
surprising 51290
子@@ 51279
furious 51277
clergy 51274
him?" 51273
sle@@ 51271
relegated 51265
“the 51265
releases 51261
new, 51259
width 51257
blood@@ 51253
176@@ 51251
justify 51246
edition, 51241
brother's 51238
Cham@@ 51235
forms, 51230
index 51229
5). 51224
Republic, 51222
bigger 51219
Wellington 51215
anna 51209
donate 51209
it" 51209
buildings. 51207
objection 51204
Vic@@ 51197
preservation 51186
ose 51184
bush 51161
ff. 51160
ines, 51152
comprising 51148
singer, 51144
deposited 51141
PC 51139
d’@@ 51138
jo 51136
Marshal 51134
embarked 51129
escape. 51128
depression 51127
longing 51125
legs, 51123
"Never 51119
glow 51109
tears, 51109
white-@@ 51105
Sum@@ 51100
thin@@ 51098
Together 51094
Lis@@ 51083
Republic. 51079
illustrations 51070
Career 51069
ly: 51065
bach 51064
taken, 51057
wounds 51055
directing 51053
essay 51044
orders, 51041
Tech 51040
o: 51039
“It 51031
Fel@@ 51028
Leon 51028
Interstate 51018
Letter 51015
given, 51011
Annie 51010
Brooklyn 51001
regiments 51001
ily 50993
expenses 50990
it’s 50990
ñ@@ 50988
municipalities 50981
ring, 50980
1/2 50975
married, 50971
pit@@ 50968
Ukraine 50961
Rog@@ 50948
high. 50948
alien 50945
upright 50940
worth, 50939
CC@@ 50924
aff@@ 50923
crops 50923
_), 50922
public@@ 50915
carrier 50914
Eugene 50901
Oil 50900
ing? 50898
bases 50897
7/@@ 50884
mentioned, 50883
protecting 50880
CE 50874
checked 50872
dual 50872
lateral 50869
Fernando 50868
hair. 50865
8). 50863
ici@@ 50862
Parliament, 50856
ia. 50855
coast. 50847
dreamed 50838
master. 50837
gravity 50818
WILL 50807
bishops 50802
8; 50797
Finance 50797
whi@@ 50795
rescued 50787
mineral 50775
Plat@@ 50774
messenger 50768
sel 50767
87 50758
eman 50757
discussing 50755
ney, 50754
absurd 50747
basket 50746
cooperation 50736
uch@@ 50727
Newcastle 50726
Pearl 50726
mul@@ 50726
consecrated 50720
weather, 50719
UL@@ 50707
you--@@ 50705
silently 50701
conclude 50697
fees. 50696
trade. 50692
scholarship 50686
appreciate 50680
ø@@ 50677
Lac@@ 50674
September. 50668
Award. 50664
Paul's 50662
la. 50660
1967, 50658
cemetery 50654
Faith 50644
priest, 50643
voters 50643
yp@@ 50642
man" 50641
Jud@@ 50638
shoulders, 50637
suddenly, 50636
roused 50626
ky@@ 50616
700 50613
define 50607
I.@@ 50606
researchers 50603
houses. 50602
Maj@@ 50600
Miles 50599
adoption 50593
jobs 50593
Low@@ 50591
("the 50589
bullet 50589
presentation 50589
EM@@ 50586
result. 50585
Jose 50584
forever 50576
is; 50573
Kos@@ 50570
ET@@ 50567
arrived, 50564
Bern@@ 50543
0–@@ 50542
Under@@ 50541
earthquake 50537
soap 50535
Hall. 50530
pursuing 50524
Sister 50521
enlarged 50518
Lords 50514
3D 50513
1960s, 50495
bos@@ 50486
Delhi 50484
signature 50481
thoughts, 50481
in) 50477
colour, 50472
5,000 50470
Iraqi 50470
ino, 50469
lecture 50469
Thai 50466
Pla@@ 50462
(185@@ 50460
Alaska 50460
5: 50456
negro 50454
closest 50452
Think 50447
curve 50447
object, 50439
behaviour 50421
thorough 50403
interfere 50397
immigrants 50395
Rangers 50394
comments 50392
boy's 50390
computers. 50390
stated, 50387
newsletter 50373
helpless 50370
since, 50364
;--@@ 50358
TV@@ 50358
damages, 50358
Book@@ 50350
breed 50347
merger 50346
--if 50342
Luther 50338
ello 50327
letter. 50315
í 50315
"Die 50306
keeper 50305
Contributions 50304
obscure 50302
ground@@ 50294
six-@@ 50289
Hem@@ 50281
id. 50270
fish@@ 50269
anus 50266
Lap@@ 50264
Pir@@ 50263
May. 50262
senses 50262
percussion 50259
metropolitan 50255
Sweet 50252
rhythm 50249
1906 50246
Park@@ 50241
Independence 50238
rely 50238
knock 50224
consumption 50222
displayed, 50207
Horace 50205
pas@@ 50203
Coach 50202
phenomenon 50200
Negro 50194
vacant 50194
TION 50188
dra@@ 50184
database 50183
ships. 50168
holder. 50160
sound. 50157
G, 50136
Storm 50123
1942, 50121
gro@@ 50117
locomotive 50117
organs 50117
Angel 50115
agriculture 50113
raid 50103
incapable 50102
#1 50094
een 50093
hint 50086
Magic 50084
lectures 50080
Pennsylvania. 50077
mark@@ 50077
departments 50075
An' 50073
any) 50073
at-@@ 50071
hem@@ 50064
need@@ 50054
handful 50050
L-@@ 50043
tus 50029
poetic 50024
quickly, 50023
there; 50022
dol@@ 50014
83 50005
patron 50005
Chester 49998
Frances 49998
sed@@ 49998
pla@@ 49992
variant 49992
marking 49990
nes@@ 49984
Bob@@ 49973
accounted 49973
Murphy 49970
lend 49969
lightning 49968
Case 49965
sword, 49965
geographical 49956
displays 49948
letter@@ 49945
darkness, 49936
IV@@ 49934
2% 49931
confident 49930
thread 49926
K, 49924
health. 49922
decisive 49918
then-@@ 49915
bride 49912
capita 49902
"Le@@ 49899
Championships. 49892
chase 49880
hot@@ 49878
ta. 49876
ev 49872
Georgia, 49862
Tom, 49861
angels 49857
ly." 49856
aroused 49834
lives, 49829
Arch@@ 49825
procedure 49823
Les@@ 49821
LE 49820
virtual 49820
cou@@ 49818
rational 49811
happy, 49807
tends 49804
saint 49799
began. 49798
wrong. 49789
1978. 49788
tion." 49778
ore, 49776
Madrid 49775
watch@@ 49775
assurance 49772
Advanced 49770
Mic@@ 49766
hill@@ 49748
August. 49743
awakened 49739
1972. 49737
fal@@ 49736
(2014) 49730
ith 49726
Net@@ 49722
VIII 49720
guarded 49714
sheer 49712
a/@@ 49710
Car 49700
"Well," 49690
zeal 49689
frontier 49688
deserve 49685
Come, 49680
Arena 49678
glowing 49675
ar's 49669
rig@@ 49661
competition, 49652
market, 49652
illustration 49646
amused 49640
stained 49638
Duncan 49630
GUTENBERG-tm 49629
Capt. 49624
affecting 49619
medi@@ 49606
Theatre, 49605
Josh 49603
ates. 49600
memorable 49599
12.@@ 49593
ned 49593
goin' 49583
girl@@ 49582
Author 49580
HE@@ 49580
Vas@@ 49580
German, 49577
eyed 49576
Hart, 49569
terms, 49564
celebration 49562
cla@@ 49562
Ridge 49557
lucky 49556
76@@ 49548
Tul@@ 49544
William, 49544
,000, 49542
him--@@ 49538
s--the 49535
despair 49532
Derby 49531
fall@@ 49526
question@@ 49522
chin@@ 49509
anyone. 49503
strings 49503
lin, 49501
oppose 49484
loyalty 49475
Living 49470
videos 49468
Lutheran 49467
Ob@@ 49467
Above 49463
coin 49458
Wildlife 49454
minute, 49452
user, 49452
Starting 49451
corners 49450
et-@@ 49421
messages 49421
interviews 49419
virus, 49409
http://pglaf.org 49406
Oak 49399
Britain. 49392
lean 49392
underwent 49391
quickly. 49374
emotions 49373
Cuban 49370
cle@@ 49370
bending 49366
settling 49364
unpleasant 49362
side@@ 49360
acceptance 49351
ł@@ 49351
gri@@ 49347
command. 49344
Bird 49342
Transportation 49329
o; 49329
Providence 49327
conceive 49323
introducing 49317
construct 49301
incomplete, 49301
ians 49297
sore 49297
laugh. 49295
material, 49294
tic. 49286
Hun@@ 49284
ages. 49284
atus" 49268
sunshine 49268
Facebook 49267
centuries, 49264
Show" 49241
dangers 49240
version, 49233
Joshua 49230
trap 49229
silly 49226
Yet, 49224
behind. 49220
3" 49219
C., 49218
Andrea 49215
customary 49212
enjoyment 49211
blowing 49207
exceeding 49206
know." 49205
1980s. 49204
Campaign 49202
Well 49198
sou@@ 49194
activity. 49192
fat@@ 49178
brush 49176
yo 49173
projected 49168
lic@@ 49164
BA@@ 49162
preventing 49147
breeze 49143
assets 49142
Columbus 49141
ery, 49136
returns. 49129
2007) 49123
chang@@ 49123
Support 49115
App@@ 49114
came. 49112
Cincinnati 49106
roar 49104
families, 49103
ski@@ 49093
thought@@ 49093
top, 49089
sion@@ 49087
Mars 49081
Clara 49069
fire-@@ 49062
recruited 49061
learns 49059
Bes@@ 49055
bonds 49055
"Look 49047
Bour@@ 49045
twisted 49039
y_, 49036
perception 49030
Log@@ 49028
longer, 49027
Sections 49025
Arts, 49017
elderly 49011
occurring 49007
legislature 49005
ome@@ 48990
Janet 48989
cooking 48989
(not 48961
za@@ 48960
79@@ 48955
pick@@ 48953
Gall@@ 48952
Cent@@ 48937
framework 48934
editorial 48932
operation. 48928
o'clock, 48918
Charles, 48917
Back@@ 48902
SE 48897
inevitable 48896
hall. 48893
Vancouver 48891
Ned 48890
General, 48885
Majesty's 48883
(1999) 48875
Territory 48875
burg, 48869
base, 48858
1981. 48857
Rabbi 48857
Wind@@ 48852
mansion 48850
1905 48849
eighteenth 48837
foul 48829
perform, 48820
tig@@ 48819
collaborated 48809
song@@ 48803
rie 48801
GU@@ 48794
dat 48788
athletes 48782
nor@@ 48781
rin@@ 48780
1974. 48773
Linda 48772
Blake 48766
warfare 48764
particles 48761
sentiments 48744
speedily 48740
dug 48737
9; 48730
Lisa 48727
present@@ 48727
Arctic 48725
animals. 48722
Watson 48720
dwelt 48720
pretend 48718
swing 48708
2008) 48707
ite. 48699
picking 48696
ology. 48691
advise 48688
cylinder 48684
reads 48678
skilled 48675
Rud@@ 48673
"Tell 48672
l-@@ 48671
prayed 48669
1976. 48665
Jersey, 48664
stretching 48662
"Little 48661
differs 48660
Antarctic 48652
still. 48648
secular 48647
leisure 48642
1941, 48640
Carolina. 48639
motives 48639
mirror 48638
rep@@ 48638
Bangladesh 48634
note, 48631
weighed 48628
tended 48623
lo, 48622
feeling, 48598
Kaz@@ 48594
Cavalry 48587
royalties 48587
Poland, 48586
grim 48586
sporting 48585
portraits 48583
brow 48572
shoulder. 48571
infrastructure 48569
more@@ 48566
goodness 48565
lay@@ 48564
uro@@ 48555
finance 48554
explaining 48552
loses 48552
ley@@ 48548
dre@@ 48546
Hag@@ 48545
compressed, 48541
Championship, 48537
Large 48536
remember, 48534
drugs 48532
CR@@ 48531
Die 48530
ff, 48528
Lun@@ 48515
papers, 48507
XX@@ 48500
ashi@@ 48493
gauge 48492
ales 48488
faded 48486
simplicity 48483
open. 48481
distress 48480
Nation 48479
ell. 48478
protests 48478
Bot@@ 48472
blows 48463
duly 48449
loss. 48444
ER. 48438
T.@@ 48433
Zo@@ 48433
Eagle 48425
outline 48407
serial 48406
sandy 48405
PhD 48402
parties, 48401
pun@@ 48394
attain 48389
centuries. 48389
port, 48388
tragedy 48386
Ever@@ 48384
photograph 48383
"Oh 48382
kel@@ 48381
Post-@@ 48378
prison. 48372
ye, 48370
Replacement 48361
Austria, 48359
pistol 48354
molecular 48350
foundations 48349
F) 48346
detected 48341
allies 48339
unwilling 48338
MON@@ 48324
pel@@ 48314
ward@@ 48310
bodily 48309
throws 48301
enthusiastic 48300
detach 48299
2010) 48297
amusement 48297
Saxon 48295
Municipality 48292
onia 48277
Malcolm 48276
vote. 48253
ance@@ 48243
asa 48242
anything. 48237
fla@@ 48236
tz@@ 48236
1975. 48230
Ferr@@ 48228
Presidential 48220
through. 48218
nickname 48216
kicked 48213
out; 48200
Willie 48199
ost@@ 48199
fiery 48195
Valley, 48194
ari, 48193
MS. 48191
seeming 48190
functional 48183
organization. 48180
practice. 48177
sealed 48170
Instead, 48167
pop@@ 48164
130@@ 48162
fri@@ 48158
discharged 48155
stock@@ 48155
erg@@ 48153
mit@@ 48152
flu@@ 48147
ancestors 48145
nay, 48142
June. 48139
Sandy 48130
Hell@@ 48127
8:@@ 48121
Sang@@ 48120
US$@@ 48120
salary 48115
mature 48113
SA 48110
goddess 48105
truck 48103
abad 48099
conversation, 48099
stories, 48093
worker 48088
Days 48082
surgeon 48080
Glen 48075
feminine 48073
sul@@ 48073
decent 48072
án@@ 48070
Mot@@ 48069
PRO@@ 48060
films, 48058
poison 48053
surgery 48036
we, 48036
Len@@ 48031
(188@@ 48023
3,000 48017
comparative 48017
Fro@@ 48007
ing! 47995
92 47985
prevailed 47983
od 47968
Things 47964
RIGHT 47960
Martin, 47958
Nathan 47958
ston@@ 47952
Rocky 47950
Table 47947
ants. 47935
fertile 47931
是@@ 47921
mankind 47915
pause 47913
saying: 47912
Players 47911
Palestinian 47906
counter 47902
exporting 47900
iter@@ 47891
PL@@ 47888
2009) 47887
tears. 47887
Too 47884
cream 47879
ready, 47876
resource 47874
effected 47872
tics 47872
,_ 47858
Court. 47857
noting 47856
emerging 47855
transcribe 47855
(by 47851
under-@@ 47850
associations 47848
harbour 47844
1970. 47843
ent" 47841
s") 47841
Wells 47831
Clar@@ 47827
bred 47824
color, 47824
paths 47823
WORK 47820
spotted 47819
sus 47818
happened, 47807
ting@@ 47806
hi, 47802
Nas@@ 47786
Title: 47779
Jackson, 47777
89 47776
inus 47773
Washington. 47767
accidentally 47766
playoff 47764
Han 47762
Behind 47761
dine 47760
upward 47757
invisible 47756
careless 47752
Stor@@ 47736
Word 47728
aga 47728
silver, 47727
Election 47724
skin, 47709
vit@@ 47701
Mit@@ 47691
Battalion, 47682
Cher@@ 47680
Hunt 47678
historically 47674
Columbia, 47672
8/@@ 47657
coached 47656
Not@@ 47655
wears 47654
1907 47653
1964, 47653
numbers, 47653
appreciation 47652
foremost 47651
trouble, 47649
Distinguished 47640
bridge. 47631
stake 47627
Card@@ 47622
ero@@ 47613
our, 47613
surrendered 47610
Wilson, 47607
further, 47605
Artist 47603
inland 47601
barrel 47599
Juli@@ 47589
Song@@ 47588
value, 47583
Leeds 47573
Sally 47551
breach 47551
2006) 47550
Play 47549
damages. 47547
command@@ 47545
independently 47544
Chin@@ 47541
territorial 47540
6: 47539
Rag@@ 47533
trouble. 47531
less@@ 47529
everything, 47523
Life" 47520
SR 47518
(U@@ 47516
manages 47510
long-term 47504
surprise. 47499
abolished 47497
Physical 47494
ine" 47493
Than 47460
cheek 47459
Bru@@ 47456
Brazil. 47455
ex 47451
path@@ 47449
mathematics 47448
GA@@ 47439
Francisco, 47433
Delta 47431
Tree 47427
ries 47423
laboratory 47422
insects 47420
Foster 47416
modification, 47401
ford. 47397
nav@@ 47396
consumed 47390
schedule 47384
Zealand. 47377
Rid@@ 47376
lec@@ 47370
1965, 47369
gentlemen, 47368
originator 47365
his. 47363
rendering 47363
ë@@ 47361
fair, 47359
Philosophy 47358
Bryan 47357
vers@@ 47354
adults 47349
blade 47346
Wool@@ 47345
Chart 47338
archaeological 47335
Felix 47326
films. 47320
1943, 47319
110 47311
Results 47311
danced 47310
lip 47305
Dominican 47303
sympathetic 47303
7" 47300
wrath 47300
patch 47299
living, 47293
Knights 47280
how@@ 47275
discontinue 47267
Arm@@ 47265
Gan@@ 47263
doubts 47260
hypertext 47258
Hospital, 47256
Run 47253
ina" 47253
(194@@ 47252
J.@@ 47251
affairs. 47245
HA@@ 47243
MY 47238
me: 47235
ish. 47234
Day, 47233
EVEN 47233
something, 47232
wounded, 47231
prolonged 47229
expend 47227
muscles 47223
"De@@ 47219
Nation@@ 47216
charts 47214
ine's 47208
vegetable 47204
Newton 47201
let's 47197
steps, 47196
signals 47192
7% 47191
Ye@@ 47189
explore 47187
INCLUDING 47184
ren 47183
plastic 47181
Oh 47180
Tit@@ 47180
compensation 47179
Sunday, 47178
powers, 47173
duration 47172
(2@@ 47171
ity: 47171
ago@@ 47169
2011) 47159
conferred 47156
1990s. 47145
Adrian 47143
,9@@ 47140
boy@@ 47139
lent 47138
seasons. 47138
or-@@ 47137
castle, 47135
waving 47134
[1] 47133
Nic@@ 47131
River@@ 47130
twentieth 47120
explosion 47118
ful, 47117
1909 47115
ans" 47114
(at 47113
straw 47110
TER@@ 47095
sessions 47095
short@@ 47083
Domain 47077
mothers 47077
Rum@@ 47076
dining 47075
soldier, 47073
breast, 47070
violates 47069
1973. 47068
Classical 47062
ended, 47059
eve 47057
Pay@@ 47055
funny 47048
offic@@ 47047
98 47045
warn 47043
"un@@ 47040
mainstream 47038
Jeremy 47037
tap@@ 47037
child@@ 47034
burn@@ 47030
aver@@ 47027
muscle 47014
"L'@@ 47013
achievement 47001
tissue 47001
th's 46997
1940, 46995
exceed 46992
relates 46991
cannon 46989
speak. 46989
She's 46987
Hugo 46983
8% 46977
sheets 46968
pass, 46965
preference 46965
July. 46962
size. 46960
CAR@@ 46956
Taiwan 46955
strangers 46941
applying 46940
this: 46939
ents. 46938
past@@ 46936
expelled 46933
centre, 46926
Steel 46922
peasant 46910
Sho@@ 46906
locomotives 46906
ato 46902
boarding 46902
s_. 46902
H.@@ 46901
many, 46896
1971. 46892
André 46889
chamber, 46888
expression, 46885
Geoffrey 46875
alteration, 46868
Americ@@ 46861
se; 46852
nit@@ 46851
Lanka 46850
cities. 46845
Letters 46843
´@@ 46839
hell 46824
outdated 46816
unt@@ 46808
ć 46808
UC@@ 46800
serv@@ 46799
songs. 46798
foot. 46796
Dale 46794
4% 46780
Using 46774
(1998) 46772
need, 46772
Group. 46769
us: 46767
invaded 46764
Eli@@ 46763
Footnote 46761
Indonesia 46757
11-@@ 46756
King. 46751
run. 46745
bab@@ 46740
rat 46740
exile 46734
but@@ 46733
donations. 46727
ace 46724
drums, 46723
te" 46721
disclaimers 46716
novelist 46713
Liber@@ 46706
horse. 46693
rain, 46693
soil, 46689
told, 46683
breath, 46674
electronically 46671
All-Star 46664
so," 46664
camps 46663
(193@@ 46658
Agricultural 46656
Creating 46655
43@@ 46652
Nine 46652
electronically, 46649
il. 46644
Jesse 46639
theoretical 46636
Grove 46634
(2015) 46633
freed 46633
sweeping 46620
embraced 46619
soci@@ 46614
t," 46600
practiced 46587
Georgian 46586
Complete 46579
ammunition 46578
wil@@ 46578
continental 46577
tune 46571
€@@ 46568
gracious 46566
death@@ 46563
Nebraska 46560
provide, 46553
each, 46538
alia 46534
--or 46533
If, 46530
costume 46529
cousin, 46529
orn@@ 46529
ach, 46516
ros 46506
comment 46503
Sus@@ 46502
white. 46502
Flo@@ 46499
ism@@ 46499
chin 46498
aro 46494
third, 46489
_," 46488
random 46487
coach. 46484
PS 46482
ion 46472
origins 46468
(187@@ 46466
(i.e. 46463
Tigers 46462
duty. 46462
Maz@@ 46455
speakers 46454
(on 46452
9), 46450
released. 46450
160@@ 46448
seat. 46439
Institute, 46438
manual 46435
speci@@ 46430
both. 46426
Til@@ 46425
win. 46420
innings 46416
monster 46416
viol@@ 46416
ota 46413
Montgomery 46412
loop 46406
1977. 46403
9). 46398
feathers 46398
subjects, 46398
Stars 46394
argues 46392
Diana 46391
Hul@@ 46386
chairs 46382
Actor 46376
Eve 46376
haw@@ 46355
itz 46349
Books. 46347
1966, 46335
Deep 46334
BEFORE 46330
ized 46330
Phoenix 46325
refusing 46325
finals 46319
Zi@@ 46316
dead@@ 46315
stripped 46315
switch 46310
to-day. 46309
dé@@ 46308
Safety 46299
privileges 46299
Dog@@ 46296
flow@@ 46292
programs. 46286
fashionable 46284
altitude 46282
demonstration 46282
Playing 46275
Clarke 46272
transmitted 46267
detached 46265
boots 46263
anth@@ 46257
Est@@ 46253
preached 46244
cry, 46243
package 46242
School@@ 46234
happily 46232
adi 46222
arising 46222
span 46216
erect 46215
that? 46211
longer. 46205
a! 46204
ow, 46203
justly 46196
communicated 46192
favored 46192
dubbed 46188
Bull 46187
clasped 46183
www.@@ 46182
aerial 46175
harder 46174
temperatures 46169
shirt 46167
purposes, 46165
Honorary 46151
ş@@ 46137
cents 46134
gesture 46132
paperwork 46132
Chair 46129
Castle, 46117
chief, 46113
namely 46111
control, 46109
palace, 46105
"With 46101
sincere 46101
wilt 46099
intervention 46096
6% 46092
tar 46090
x" 46085
e.g. 46075
ability, 46065
stamp 46065
spirit. 46064
unknown. 46064
if@@ 46063
festivals 46059
som@@ 46057
oph@@ 46048
didn’t 46039
clearing 46036
trial, 46034
October. 46029
Rico 46029
library, 46022
Mills 46014
"as 46012
round@@ 46012
97 46010
ations; 46009
dat@@ 46009
ary@@ 46002
stately 46001
Stock 45999
FE@@ 45997
X, 45993
old@@ 45982
general. 45980
ah. 45963
inserted 45961
us," 45961
undergraduate 45954
—a 45953
simple, 45946
tragic 45946
treating 45946
enemies, 45941
polished 45940
register 45935
cad@@ 45930
strengthen 45918
Call@@ 45916
93 45912
della 45912
lif@@ 45905
V-@@ 45904
liability, 45901
Liu 45900
remedy 45900
HIS 45898
man." 45895
drawings 45894
strength. 45886
victories 45882
Broad@@ 45873
languages, 45873
stupid 45873
Peter, 45869
virtues 45869
has@@ 45859
did@@ 45856
lacked 45855
unusually 45854
Islands. 45851
walls. 45850
elections, 45839
protested 45839
di, 45837
mob 45837
time@@ 45832
(195@@ 45829
World@@ 45828
solve 45828
Roland 45823
capit@@ 45819
Vir@@ 45816
maternal 45812
Cob@@ 45810
science. 45809
mann, 45807
happened. 45806
Academy, 45802
es?" 45802
teaches 45797
grants 45791
shout 45784
Brown@@ 45775
East. 45775
politics. 45775
Eight 45765
keys 45763
affectionate 45762
GIVE 45761
ett 45755
scal@@ 45755
beasts 45754
ise, 45754
corner, 45751
oo 45748
san@@ 45747
us". 45747
,8@@ 45746
2012) 45745
Congress. 45742
Down@@ 45741
Games. 45740
reason@@ 45733
Into 45730
division, 45728
woman@@ 45728
fortune, 45726
ence" 45724
languages. 45724
lock@@ 45722
ington, 45721
Nobel 45720
Pag@@ 45717
base. 45711
refuses 45709
Cros@@ 45705
Roman@@ 45701
indemnify 45701
Reading 45699
east. 45699
seasons, 45699
genre 45696
1970s. 45695
ry. 45691
perfection 45684
view@@ 45676
miles. 45665
Grammy 45661
players. 45661
procure 45661
tribal 45661
speak@@ 45652
Mary@@ 45648
decrease 45648
interference 45647
concerned, 45646
do? 45646
drives 45645
shot, 45642
Center. 45638
logic 45637
gladly 45634
Hughes 45631
shop, 45630
petty 45629
uses. 45628
gun, 45615
avi@@ 45613
Marco 45609
1904 45604
110@@ 45597
Christ. 45596
memory, 45590
Percy 45588
1918, 45587
Reform 45587
earnestly 45585
yards, 45577
SUCH 45564
sighed 45563
vanished 45563
tanks 45562
94 45559
Language: 45559
fence 45555
O.@@ 45549
Sidney 45547
Indonesian 45544
ists. 45542
Manager 45531
FO@@ 45530
DS@@ 45526
extract 45525
ologist 45524
Bronze 45522
sequel 45522
earth@@ 45520
WA@@ 45513
Grande 45509
Boo@@ 45508
Hav@@ 45506
View 45505
Circuit 45502
UK. 45501
so; 45486
ana@@ 45484
Interview 45483
Kra@@ 45481
studies, 45471
(1997) 45449
ideas, 45447
identify, 45443
e' 45440
qualification 45437
missile 45435
sigh 45435
pale, 45433
cares 45431
mur@@ 45429
git 45428
Row@@ 45422
path, 45419
Chuck 45418
clan 45412
boiled 45403
Foundation" 45400
obsolete, 45374
athlete 45360
unnecessary 45359
blank 45347
Eg@@ 45346
Species 45340
group's 45329
Def@@ 45328
gospel 45313
depended 45311
bodies, 45307
championships 45302
bat 45300
act. 45299
thanked 45298
royalties. 45295
seventy 45290
brown, 45279
EU 45275
circumstances. 45270
Cruz 45267
can. 45265
will@@ 45264
M'@@ 45263
rain@@ 45263
infringement, 45260
class@@ 45258
females, 45256
aircraft. 45255
strengthened 45254
Greece, 45252
ico 45243
addresses. 45241
tive, 45237
solicitation 45235
forehead 45233
aceae 45230
Mass 45228
beg@@ 45225
snow, 45225
Bran@@ 45223
metre 45219
fortunes 45214
Finland 45212
XI 45211
rule. 45205
gigantic 45197
laden 45197
faith. 45192
cancelled 45191
1960, 45190
term, 45189
2013) 45186
READ 45186
renamed. 45171
1930s 45168
draw@@ 45157
thin, 45151
bet@@ 45144
teacher, 45136
”@@ 45133
Ah! 45129
Kad@@ 45122
material. 45119
fails 45110
Parliament. 45107
free. 45106
TS@@ 45105
servants, 45105
not; 45103
predominantly 45102
Af@@ 45100
(p. 45098
south-east 45096
ess. 45091
Carlo 45085
South, 45084
nobles 45083
cultivation 45075
stirring 45075
Burton 45071
Jew@@ 45068
proposition 45062
navy 45060
Biography 45059
West. 45056
upon, 45053
let, 45052
north-west 45051
meeting, 45045
bread, 45044
chains 45040
monarch 45039
1968. 45035
Rang@@ 45035
stor@@ 45035
resolve 45029
suspension 45029
Joel 45027
makers 45025
curved 45017
Rue 45015
Lord's 45012
strang@@ 45011
Hir@@ 45008
(1@@ 45003
Fire@@ 45003
sound@@ 45002
deceased 44996
4:@@ 44989
Index 44978
Author: 44977
_E@@ 44975
> 44971
roof, 44970
CP@@ 44969
ade, 44967
energy, 44963
Co-@@ 44959
Corn@@ 44948
(186@@ 44943
campaigns 44937
liber@@ 44936
89@@ 44933
Put 44933
nar@@ 44929
best. 44928
near, 44924
applies 44922
s,” 44919
1969. 44917
contracts 44908
issue. 44898
kov@@ 44896
Stan@@ 44890
volcanic 44886
Committee, 44881
is," 44880
fall. 44868
ball, 44867
Von 44866
1963, 44865
game's 44864
samples 44860
releasing 44854
collapse 44853
SC 44850
21@@ 44847
spared 44841
crashed 44839
Div@@ 44834
deposits 44833
theological 44832
ina. 44831
compositions 44830
illustrious 44828
Female 44826
detective 44821
rulers 44821
assuming 44816
Published 44814
threats 44813
desk 44810
"Get 44809
ham. 44809
north-east 44809
policy, 44809
elections. 44805
present) 44805
Bureau, 44798
well; 44798
Brad@@ 44795
exit 44788
Jake 44784
se-@@ 44778
citing 44775
"Per@@ 44773
amusing 44759
Curtis 44757
ascended 44757
Democrat 44756
Democrats 44751
vessel, 44739
binary, 44733
Compliance 44729
checks, 44717
training, 44713
recommend 44709
Ale@@ 44694
searched 44694
"Perhaps 44687
rich@@ 44679
SEND 44677
Ball 44676
dialogue 44674
reviewed 44674
fortified 44667
km 44667
Kab@@ 44662
Ye 44662
ria 44656
Ath@@ 44655
mo 44648
mean@@ 44644
compliance. 44640
Marvel 44637
Catholics 44636
philosophy, 44630
Scotch 44629
veil 44628
Meg@@ 44627
sty@@ 44627
re; 44622
punished 44619
names. 44618
la" 44617
pet 44614
kal@@ 44613
NOTICE 44610
bs 44607
Wer@@ 44606
Penn 44598
non-families. 44593
awareness 44591
Family. 44590
deck, 44579
Edition 44574
set. 44573
Francesco 44571
sixteenth 44571
quote 44568
certainty 44562
awards. 44554
175@@ 44553
EXPRESS 44551
disappointment 44547
anticipated 44544
Cuba 44536
centered 44536
stood, 44536
Fish 44531
endeavoured 44527
alive, 44524
Tap@@ 44520
"Big 44516
complaint 44513
eighty 44502
tow@@ 44494
flour 44493
Defect 44490
em, 44489
Jamie 44486
winter. 44485
addresses 44482
listings 44479
viewed, 44478
shape, 44475
gn@@ 44473
20-@@ 44456
companies, 44456
Ellis 44454
real@@ 44451
31. 44444
layers 44441
available. 44438
knights 44438
fight. 44431
revolt 44431
ia" 44424
ser 44423
parts. 44413
coach, 44410
exceptional 44408
Nay, 44407
Lip@@ 44402
uli@@ 44400
jest 44399
ed". 44397
per. 44396
fields. 44394
warranties 44393
defective, 44392
ch-@@ 44391
help. 44389
disorder 44387
Dub@@ 44362
aqu@@ 44362
1901 44359
please, 44357
ne's 44356
summer. 44355
809 44352
。 44351
(TV 44349
fle@@ 44349
front. 44347
ps, 44347
140@@ 44342
Diamond 44342
here?" 44340
EX@@ 44335
2005) 44331
Sea, 44329
topic 44324
added. 44320
Sn@@ 44316
operations, 44316
hydro@@ 44313
week@@ 44313
s,' 44312
acre 44308
bad, 44303
Set 44300
Glen@@ 44299
Pun@@ 44294
barrier 44291
p-@@ 44289
classes, 44287
ly," 44283
stomach 44282
underlying 44281
inquire 44280
ances 44278
ies. 44278
Hou@@ 44276
south-west 44274
world; 44272
train, 44269
rests 44263
blast 44257
(184@@ 44254
"De 44251
accuracy 44245
diamond 44243
status. 44243
ara, 44242
Denver 44241
Roosevelt 44236
locks 44236
Ox@@ 44234
Cra@@ 44232
Agriculture 44229
fastest 44228
cases. 44227
upwards 44225
"there 44223
ibn 44223
division. 44222
Fighter 44217
naming 44216
mov@@ 44215
en) 44212
Tennis 44207
stored, 44207
adorned 44206
controlling 44199
ator. 44196
circles 44194
rid@@ 44192
troop 44182
Ph.D. 44181
combine 44181
torture 44175
EIN 44173
uz@@ 44173
dist@@ 44170
ku@@ 44169
lawyer, 44169
bind 44163
proofread 44163
uncommon 44158
networks 44149
wealth, 44148
shaft 44146
installation 44142
tru@@ 44139
civilized 44137
tes@@ 44136
å@@ 44133
REMEDIES 44132
PROVIDED 44130
squ@@ 44130
ar-@@ 44128
Shaw 44125
Sacred 44121
lacking 44121
ingly. 44115
cri@@ 44113
organization, 44113
features, 44108
focusing 44104
Way@@ 44102
B) 44097
Brazil, 44094
alis" 44092
legendary 44087
130 44086
descending 44086
fighters 44080
Drama 44079
longed 44069
extent, 44067
ben 44060
KIND, 44058
POSSIBILITY 44058
speed, 44058
Got 44037
origin, 44033
Airlines 44030
Scar@@ 44028
report, 44027
Sony 44025
magazines 44025
ardent 44015
ian, 44013
essence 44009
PURPOSE. 44002
controls 44002
you!) 44002
coat, 43997
championship. 43991
violation 43981
Taylor, 43980
Augustus 43978
Mut@@ 43973
Updated 43971
STRICT 43965
coaches 43965
knowledge. 43962
li, 43958
INCIDENTAL 43951
FITNESS 43950
determining 43950
Nak@@ 43949
two-year 43949
answering 43940
modes 43933
saddle 43933
August@@ 43928
ander 43928
information: 43920
systematic 43919
closed, 43918
curtain 43918
DISCLAIMER 43916
CL@@ 43912
WARRANTY 43911
PUNITIVE 43906
mon 43903
bordered 43901
occupying 43894
CONSEQUENTIAL, 43892
大@@ 43889
IMPLIED, 43886
INDIRECT, 43886
LIABILITY, 43886
°@@ 43885
Springs 43884
I’ll 43873
competitions 43870
bull 43864
THOSE 43863
Leon@@ 43862
disclaim 43860
hut 43860
redistributing 43855
tempted 43855
support, 43853
prepare) 43852
 mm 43850
INDEMNITY 43848
Voice 43847
1,0@@ 43843
age; 43835
1962, 43832
:" 43831
sie 43824
Netherlands, 43818
Bengal 43800
do." 43798
fulness 43798
ap 43795
some, 43795
FOR@@ 43792
hand-@@ 43786
Advisory 43785
stealing 43785
Æ@@ 43783
Pakistani 43779
green@@ 43777
industries 43777
Refund" 43775
nerves 43770
monuments 43768
1939, 43767
Reverend 43759
performance, 43757
"Information 43752
danger. 43751
Berg@@ 43750
artists, 43750
parting 43746
elec@@ 43739
eventual 43718
BA 43716
1903 43712
conspiracy 43705
sized 43702
We'll 43701
Crow@@ 43693
consumer 43691
unsolicited 43691
hitting 43689
hour@@ 43687
Sheffield 43683
minister, 43679
Jesus, 43675
rub@@ 43672
Empress 43669
ode 43668
(March 43662
Rel@@ 43658
physics 43657
)) 43656
hop 43656
parking 43641
resided 43640
impossible. 43628
100,000 43625
communist 43622
2014) 43613
stra@@ 43613
gul@@ 43611
din 43607
finished, 43607
offence 43602
159@@ 43597
Mau@@ 43596
solutions 43593
Sant@@ 43591
lovers 43591
rigid 43589
Bac@@ 43587
S., 43586
reason. 43583
7: 43579
importance. 43579
ais@@ 43577
demonstrate 43575
ax 43571
ib@@ 43569
courage, 43568
ate; 43564
'It 43562
centres 43560
Avenue, 43557
donate. 43555
canoe 43549
flames 43549
units. 43547
attachment 43536
garden. 43533
Foundation." 43524
by-@@ 43520
Associate 43515
Alberta 43512
"Com@@ 43511
reflecting 43499
one." 43497
sir." 43497
canvas 43495
range, 43494
innumerable 43482
ears. 43471
honour, 43468
ter's 43458
field@@ 43455
Architecture 43452
farms 43450
fury 43450
scarlet 43450
lia 43448
(200@@ 43435
download 43432
1902 43422
à@@ 43422
Legislature 43419
church@@ 43419
Inc., 43411
instead. 43411
He, 43407
ast 43403
streak 43403
Archives 43400
hamlet 43395
ith@@ 43393
lap@@ 43393
Let@@ 43387
range. 43385
construction. 43384
deepest 43363
Princeton 43360
donate, 43352
Museum. 43350
Highland 43349
ele 43349
Inspector 43346
outcome 43346
evil, 43345
Pictures 43344
mand@@ 43339
exhibits 43338
descriptions 43337
lunch 43336
Exhibition 43335
detect 43335
fare 43334
ades 43313
soul@@ 43312
tossed 43307
hearty 43306
punk 43306
convent 43302
9% 43298
presence, 43298
ino@@ 43296
puzzled 43296
Reed 43294
170@@ 43291
us) 43290
expanding 43284
crest 43282
nie 43280
su 43279
tenor 43276
Awards, 43275
box@@ 43274
founders 43273
realised 43271
org@@ 43267
since. 43266
_A 43260
Range 43249
1967. 43247
inf@@ 43244
transformation 43224
th" 43208
how, 43206
pon@@ 43205
him! 43203
atus 43199
Bank@@ 43196
heights 43196
platforms 43192
Return 43191
number. 43191
weekend 43191
sweet, 43185
om. 43184
refined 43183
Zealand, 43181
complaints 43180
viewing, 43177
QU@@ 43172
triple 43170
Email 43158
regulated 43144
Jennifer 43138
lit@@ 43136
fell, 43132
W.@@ 43121
wer@@ 43119
cha 43116
og 43116
train@@ 43113
ascertain 43109
Block 43101
flowers. 43101
"Miss 43100
Albanian 43099
Edith 43096
prestigious 43093
suspicious 43092
viewers 43090
Chang@@ 43088
lers 43087
exercises 43084
ill. 43078
key, 43071
continu@@ 43067
demanding 43062
one--the 43056
embrace 43054
out." 43048
batteries 43047
abroad, 43040
writer. 43038
20,000 43026
companion, 43022
[Greek: 43021
both, 43021
cooked 43020
model, 43018
Library, 43017
Cot@@ 43011
bar, 43010
Ot@@ 43008
lords 42992
wounded. 42992
boo@@ 42988
ila 42988
lav@@ 42982
Hart@@ 42979
worry 42979
le) 42976
ence; 42970
occasions, 42970
Lucas 42969
militia 42969
journey. 42964
Dictionary 42958
commentary 42955
ula@@ 42955
yours, 42949
ANYTHING 42947
awake 42946
soldiers. 42940
transit 42936
admire 42935
ium 42927
revelation 42925
man," 42924
Kle@@ 42920
clothed 42913
charge, 42904
Turks 42903
Bennett 42900
struggles 42900
framed 42897
Newby 42893
apple 42893
row, 42891
doubles 42884
brother@@ 42882
staff, 42882
Scott, 42881
Agnes 42879
creek 42876
Pop 42875
plan. 42875
physically 42874
Hurricane 42873
implies 42872
remarkably 42866
iron, 42851
las 42843
dem 42842
boats, 42840
h-@@ 42839
hears 42837
respect, 42833
notifies 42831
tak@@ 42831
't 42830
ed", 42829
Frank@@ 42828
8,@@ 42817
diversity 42815
Easter 42798
mer, 42797
e.” 42796
Plant 42794
ata, 42793
IRS. 42792
impatient 42791
York@@ 42790
vers 42790
open@@ 42787
Dear 42786
Massachusetts. 42785
immigration 42785
rocket 42785
50% 42782
supernatural 42777
honours 42774
sailor 42774
(1996) 42772
s'@@ 42771
en: 42768
hill. 42768
endeavour 42759
101 42747
equality 42744
oh@@ 42743
kin, 42740
blocked 42739
magazine, 42732
hydrogen 42730
engine, 42724
sister. 42718
rider 42717
Redistribution 42715
2019, 42707
tion) 42703
Serbia 42698
bright, 42694
velocity 42688
hunger 42680
mes 42676
fear. 42674
(any 42667
soft, 42666
ed), 42664
est. 42654
1917, 42648
step, 42648
pleasure. 42644
confession 42642
dislike 42641
four@@ 42638
deductible 42636
Fore@@ 42635
ner's 42635
Education, 42634
remind 42629
atic 42628
established. 42628
valleys 42626
followed. 42621
assert 42620
ld@@ 42619
guessed 42614
fact. 42609
FA@@ 42608
heat, 42603
overseas 42603
Dro@@ 42602
consulted 42597
ol, 42595
unite 42595
delicious 42594
redistribute 42592
Aircraft 42591
Poetry 42590
influence, 42589
chemistry 42585
"not 42577
Muslims 42577
environment. 42577
possessing 42576
construction, 42574
forest. 42568
"Some 42567
gradual 42557
confronted 42556
clung 42547
troops. 42545
Davis, 42535
tract 42535
8vo, 42532
Fle@@ 42522
Pos@@ 42517
valid 42510
abilities 42506
Gene 42502
Ey@@ 42497
counting 42494
hypothesis 42494
8: 42491
Rice 42489
deletions 42473
boss 42465
internet 42464
features. 42455
tam@@ 42454
cunning 42453
Rain@@ 42450
politicians 42449
MR. 42448
lot@@ 42438
animation 42433
no-@@ 42428
Albums 42427
automatically 42425
low. 42420
oriented 42417
Timothy 42413
laugh, 42411
North, 42406
jumping 42402
could. 42399
abl@@ 42396
hun@@ 42387
thunder 42381
artist. 42379
ceremonies 42373
redistribution. 42373
Pit@@ 42370
loss, 42366
encouraging 42361
bir@@ 42358
ops 42357
Working 42352
s/he 42347
Chile 42343
occur: 42337
descend 42335
recognise 42327
mist 42324
Ahmed 42312
Haw@@ 42311
Pod@@ 42311
from, 42309
societies 42307
ok 42306
Show@@ 42303
Overview. 42301
.0@@ 42300
movies 42298
Whilst 42296
ferry 42293
prose 42292
^@@ 42291
led@@ 42289
dressing 42288
show's 42278
assumption 42274
million, 42271
für 42269
ress 42265
saints 42265
Glenn 42255
enzyme 42234
man’s 42229
terms. 42228
punish 42222
TA 42221
149@@ 42216
Julie 42216
churches, 42215
ze, 42215
college, 42214
Blues 42212
Ou@@ 42207
ID@@ 42206
beauty. 42204
passions 42196
enacted 42195
uck@@ 42185
ling. 42184
invalidity 42183
beautifully 42181
continent 42180
version. 42180
visit: 42177
oil, 42176
favoured 42171
grace, 42169
reforms 42167
sculptor 42163
tape 42159
Syria 42149
"His 42147
Sweden, 42147
marvellous 42147
Comics 42146
enables 42146
Lions 42143
María 42142
origin. 42142
hen@@ 42134
az 42133
teeth, 42132
virus 42130
nevertheless, 42129
bombing 42128
folly 42125
winged 42125
park. 42123
speeches 42123
apparatus 42114
facilitate 42112
memory. 42108
loo@@ 42096
ear. 42092
Vietnamese 42083
Haz@@ 42082
man-@@ 42081
ef 42078
Petersburg 42065
為@@ 42046
Serie 42039
costly 42034
sir@@ 42034
fountain 42028
arts, 42027
track. 42026
zo 42025
yearly 42023
A., 42022
Martin@@ 42019
ud 42018
PAR@@ 42014
worldly 42013
occurrence 42012
166@@ 42010
mountain, 42009
le: 42006
human@@ 42004
Clay 41998
glasses 41998
Ear@@ 41997
(does 41993
ck@@ 41993
dry, 41987
thee. 41986
Name 41980
"Be@@ 41978
talents 41977
Room 41972
rubber 41971
Nord@@ 41962
aren't 41957
washing 41957
drowned 41954
ks@@ 41952
ory 41949
African-American 41948
Church@@ 41945
fam@@ 41945
ock@@ 41945
bag@@ 41944
shocked 41944
authority. 41941
Doug 41940
_C@@ 41931
vil@@ 41923
do?" 41918
horses. 41912
infinitely 41909
challenges 41908
hasn't 41907
500@@ 41905
What's 41904
ville. 41902
problems. 41897
light-@@ 41896
ur. 41888
counter-@@ 41887
utility 41883
Soul 41881
filming 41881
2019. 41880
Lee, 41877
Palmer 41877
pocket, 41877
N-@@ 41876
eti@@ 41874
updated 41871
ó 41865
wall@@ 41864
ras@@ 41860
scar@@ 41859
ers) 41858
Light@@ 41856
cluster 41854
Stevens 41852
breathed 41848
accessed, 41845
dialect 41842
documented 41841
sum@@ 41840
ska 41836
afternoon. 41835
alization 41833
"Journal 41831
Sul@@ 41831
bank. 41829
knees, 41827
distributing, 41826
spirits, 41825
account. 41822
southeastern 41822
desirous 41817
fus@@ 41816
Non@@ 41813
disturb 41802
Electoral 41800
officer. 41797
research, 41794
(1995) 41790
black-@@ 41784
Lord@@ 41783
main@@ 41781
1914, 41777
realm 41776
Micro@@ 41774
1961, 41771
aur@@ 41771
Happy 41770
Thailand 41769
EXCEPT 41768
outside, 41766
pan 41760
Essex 41758
thereafter 41755
indoor 41753
snake 41753
nobility 41752
Regular 41750
way." 41749
Tat@@ 41745
wind. 41743
divorce 41736
summary 41736
AGREEMENT 41732
CONTRACT 41725
fossil 41720
ure. 41718
suppressed 41715
Holmes 41712
Vin@@ 41712
declares 41712
hereditary 41703
performs 41700
leap 41696
doctrines 41688
Web@@ 41687
topped 41686
um-@@ 41686
Comedy 41678
himself; 41678
!_ 41677
restless 41675
Dam 41674
blamed 41672
facility: 41669
downloading, 41665
($1 41662
Gate 41662
ame 41662
Artists 41660
nowhere 41654
non-profit 41642
Kid@@ 41641
и@@ 41636
et's 41634
distributed: 41632
pain@@ 41631
elsewhere. 41629
sails 41628
kn@@ 41627
attributes 41625
holder), 41623
passed. 41620
yard, 41620
1948, 41619
willingly 41619
LIABLE 41614
(May 41603
$5,000) 41600
Plate 41600
DONATIONS 41599
Brisbane 41598
Gutenberg: 41598
(I 41596
kes@@ 41596
farewell 41588
Del 41587
nonproprietary 41586
84@@ 41581
'What 41577
emp@@ 41573
importance, 41567
robbed 41567
wel@@ 41565
Oak@@ 41562
vocalist 41558
seas 41557
'n 41550
PARAGRAPH 41547
vs 41541
associated) 41540
"Because 41538
Cri@@ 41538
(801) 41535
Heinrich 41535
occasion. 41535
unlink 41535
FOUNDATION, 41534
Hawaii 41531
daylight 41530
flushed 41529
schemes 41524
e-mail) 41521
achievements 41514
Station, 41513
matters, 41512
PlayStation 41510
jan 41508
moon, 41507
endowed 41505
operation, 41504
Abdul 41502
kers 41502
REPLACEMENT 41501
crystal 41499
sion. 41496
granite 41495
ars, 41489
unenforceability 41488
Redistributing 41485
1.C 41482
Actress 41482
DIRECT, 41481
spot. 41481
1.E 41480
pleasures 41480
OWNER, 41479
WARRANTY, 41479
DAMAGE. 41475
DISTRIBUTOR 41475
84116, 41473
PGLAF), 41473
customer 41473
gbnewby@pglaf.org 41473
(trademark/copyright) 41472
TRADEMARK 41472
64-6221541. 41470
honourable 41470
NEGLIGENCE, 41469
ACTUAL, 41466
REFUND 41464
projects. 41464
Junction 41463
born. 41458
bass, 41456
type, 41454
angel@@ 41451
role. 41451
look@@ 41450
late. 41449
liberty, 41449
matches. 41448
Panama 41443
vulgar 41443
"But, 41441
dishes 41431
teams, 41431
victory, 41431
Ottawa 41430
dinner. 41426
required. 41426
hn@@ 41424
Father, 41423
symbols 41420
advances 41415
1946, 41414
WE@@ 41411
test@@ 41408
questions, 41405
m" 41403
counts 41400
waters, 41392
yc@@ 41389
heard. 41386
Encyclopedia 41381
and. 41380
procured 41373
storm, 41372
policy. 41371
escape, 41369
Bus 41367
shoulders. 41361
Ner@@ 41358
spelling 41358
Tropical 41357
K.@@ 41356
"Defects," 41352
Gutenberg"), 41352
Fisher 41348
ima 41347
rivals 41347
up; 41344
Mobile 41342
pag@@ 41342
Fish@@ 41339
bis@@ 41339
Green, 41338
judgment, 41335
2015) 41333
M) 41332
ashore 41332
(2016) 41330
nation's 41329
too@@ 41322
halt 41321
zh@@ 41317
safety. 41313
Hos@@ 41301
bi 41300
war-@@ 41292
wont 41287
manufacturers 41285
Hamilton, 41280
put@@ 41280
minded 41279
Israel. 41276
lady's 41276
Railways 41275
honoured 41275
ver, 41271
Ground 41270
honorable 41270
selfish 41267
any, 41266
Asi@@ 41265
maritime 41265
th; 41263
warmth 41263
Armstrong 41259
electro@@ 41240
ell's 41234
zy@@ 41217
Finally 41212
definitely 41204
store, 41202
aire 41198
navigation 41196
boldly 41193
et" 41193
ref@@ 41193
VER@@ 41190
k; 41189
Eu@@ 41184
tops 41183
Dum@@ 41177
imprisonment 41177
everything. 41175
fast, 41175
Educational 41174
1965. 41172
Relations 41171
pouring 41167
"After 41159
throne, 41155
reverence 41154
banking 41142
Peninsula 41133
photos 41132
crimson 41129
exclaimed. 41121
old-fashioned 41120
plat@@ 41120
occupies 41119
model. 41110
pain. 41103
For, 41098
Acts 41097
mainland 41095
Better 41094
park, 41091
colleagues 41090
aggressive 41089
PR@@ 41087
grasped 41080
[...]
