t h 542107135
a n 335156770
i n 321241812
th e</w> 316301023
e r 286153836
r e 207338620
o n 199078967
o f</w> 187084178
a r 186914110
e n 183860480
e d</w> 183113655
t i 168396505
an d</w> 167268372
o u 162792536
o r 158799054
i t 131573930
e r</w> 131356900
t o</w> 130858943
i n</w> 128324065
a l 127800470
s t 124371618
in g</w> 113222966
h i 112773188
o n</w> 111226563
a s</w> 110779260
a t 103574045
r o 101484849
e s 100718965
h e</w> 88051251
a t</w> 87965216
e l 86218553
o r</w> 76826953
a c 75351989
i s 75185309
e s</w> 73538596
o m 69901503
r i 67555613
i s</w> 66930494
a n</w> 66642831
a s 65705611
i l 65221053
e c 64320976
o l 63347610
h a 62065331
e n</w> 60682147
a l</w> 60599832
i c 58581699
w as</w> 56100028
l e 54340873
u r 53848026
a m 53534004
a ti 53144816
a d 48412278
s i 48212285
l y</w> 47508750
u n 46470548
n o 45796485
e m 45039194
l i 44956162
u s 44403192
e d 43819081
v e</w> 42829486
l o 42679639
th at</w> 42524035
T he</w> 41867874
it h</w> 41469932
en t 40920154
a g 40443801
w h 40266859
f or</w> 39807028
c h 39384673
w ith</w> 39171424
e ,</w> 39144293
c h</w> 38977642
b e 38459457
v er 37526080
l e</w> 37438106
s ,</w> 37424889
hi s</w> 37367049
d i 37227655
g h 36726252
th e 34700977
er e</w> 34631159
in g 34187040
s e 33909703
b y</w> 33681211
i r 33413181
a b 32820297
ou n 31948822
en t</w> 31274021
s u 31204879
c on 31050632
s .</w> 30769028
1 9 30166946
d e 29993077
o s 29709552
r a 29390697
i t</w> 29171845
l a 29150873
o p 29136175
t er 29100795
o w 29013453
f or 28825972
b u 27864125
p ro 27289516
' s</w> 26998586
c om 26866292
o o 26653390
ro m</w> 25566414
y ,</w> 25381561
w hi 25183919
c e</w> 25084316
n e 24562690
f rom</w> 24363731
a p 23846795
u l 23425879
i d 23412386
an d 23325588
2 0 23142664
e t 23047461
e x 22902063
b e</w> 22897859
ati on 22311629
s p 22191605
e .</w> 22146807
ha d</w> 21905115
q u 21876917
l d</w> 21816428
al l</w> 21697627
s h 21363821
m a 20919956
no t</w> 20646327
ati on</w> 20486597
ar e</w> 20409309
h e 20073774
t r 19877406
whi ch</w> 19852848
- - 19490216
th er</w> 19342173
f f 19331632
t a 19288601
p er 19073479
re s 19011050
t ed</w> 18860751
t h</w> 18812427
s a 18581465
i m 18437610
w or 18358295
o u</w> 18282374
ti on</w> 18146042
i r</w> 18100978
u m 17855717
ou ld</w> 17831398
ti on 17729059
u t 17582160
e v 17284537
w ere</w> 17041244
o c 17009649
on e</w> 16819722
ou t</w> 16790012
y .</w> 16699097
gh t</w> 16548183
t er</w> 16493153
a r</w> 15951800
ha ve</w> 15800835
h er</w> 15795621
p ar 15596839
p l 15542709
s o</w> 15442071
bu t</w> 15407164
u c 15293473
k e</w> 15251025
s t</w> 15037058
e ar 14938214
at e</w> 14894139
er s</w> 14834569
es ,</w> 14832262
th is</w> 14680513
t s</w> 14652434
ou r 14611043
o v 14475998
w a 14466984
m an 14421745
re c 14400138
y ou</w> 14275542
i g 13935601
ou r</w> 13853573
e p 13712884
al l 13481114
t w 13440337
it y</w> 13430400
S t 13401668
u d 13247917
st r 13179518
T h 13010234
am e</w> 12792020
en d 12779132
the ir</w> 12764379
o d 12758266
at ed</w> 12740335
re d</w> 12710904
ti m 12684345
p o 12541339
th er 12463386
the y</w> 12448879
e t</w> 12398490
in c 12360935
I n</w> 12260412
H e</w> 12001753
i v 11956616
e st 11872288
ar d 11817683
t ,</w> 11780534
es .</w> 11719597
n i 11714242
b er 11635218
an g 11499025
a v 11476794
. "</w> 11465612
t o 11320878
g h</w> 11298202
ar y</w> 11278847
p e 11232332
f i 11206035
ti c 11160240
es t</w> 11137090
s el 11131621
u p 11083213
s he</w> 10945093
ed ,</w> 10940837
i d</w> 10893594
c o 10783394
wh o</w> 10772704
A n 10761465
s e</w> 10712203
om e</w> 10665158
d a 10641849
g r 10605662
it s</w> 10593978
d er 10537474
es s</w> 10487794
an c 10431478
20 0 10412302
f e 10383072
20 1 10313935
be en</w> 10236128
i st 10198949
b o 10184986
p or 10172730
C h 10162524
h as</w> 10154971
m or 9970500
is h 9951939
f ir 9892373
a in 9834451
m y</w> 9771192
I t</w> 9721022
al ly</w> 9693203
ou s</w> 9680179
o ther</w> 9603158
b er</w> 9589391
I n 9584419
1 8 9570769
s er 9554537
on g</w> 9467747
com p 9410124
el l 9403392
il l</w> 9394356
re n 9366204
u s</w> 9349886
ar d</w> 9322220
d is 9315834
ou gh</w> 9260444
b l 9213589
t e 9209719
d er</w> 9184599
lo w 9178604
en c 9130300
for m 9089777
m in 9046169
t ur 8988149
a f 8897632
o g 8819636
il l 8797328
w ould</w> 8718272
a d</w> 8667656
ag e</w> 8588568
m e 8572540
p res 8546204
s c 8545194
us t</w> 8473754
l in 8468109
er ,</w> 8450037
g e</w> 8361009
ver y</w> 8341604
g o 8326465
os t</w> 8291880
oun d</w> 8270583
b r 8236061
ec t</w> 8207435
ow n</w> 8185294
an y</w> 8183933
as t</w> 8153992
ab le</w> 8149586
es s 8128919
, "</w> 8092337
v i 8083106
k no 8065816
hi m</w> 8035980
an t</w> 8024907
g re 8002548
w i 7979209
) ,</w> 7923499
wh en</w> 7902537
p re 7901538
d ,</w> 7890581
on ,</w> 7883199
w e</w> 7876081
k ing</w> 7838134
as s 7814133
ed .</w> 7783565
a ,</w> 7744096
t ing</w> 7730192
in to</w> 7700916
u t</w> 7682858
p la 7653942
f in 7653397
n o</w> 7630094
a st 7621125
m o 7591575
en ce</w> 7584428
p h 7572881
m er 7541053
u p</w> 7532921
A l 7526183
k s</w> 7519055
d e</w> 7501638
ol d</w> 7471472
P ro 7387282
hi m 7382059
g i 7376408
fir st</w> 7375135
t .</w> 7322699
w e 7306595
u re 7302419
M ar 7269307
ing ,</w> 7258838
at t 7245592
mor e</w> 7238214
a re 7234875
A r 7233359
ri c 7226847
p os 7219553
al so</w> 7156190
W h 7151351
m ar 7147437
t y</w> 7140731
w ill</w> 7138075
a u 7119842
it e</w> 7082483
es e</w> 7063147
el l</w> 7032297
d o 7032035
k ed</w> 7025870
ad e</w> 6972570
m ent</w> 6922365
on g 6919025
b ec 6906124
com m 6869237
s hi 6862894
i c</w> 6854806
ac e</w> 6838561
o b 6779702
d uc 6758991
oun d 6708019
p r 6699738
m an</w> 6690541
el y</w> 6662054
an ce</w> 6660965
c l 6657334
a m</w> 6628108
m e</w> 6618929
con t 6613503
it t 6607279
i es</w> 6589095
p a 6573136
d es 6556428
s o 6551693
tw o</w> 6542220
al i 6534293
ur e</w> 6474012
u e</w> 6433412
g l 6399585
ac h 6370686
N e 6349249
ac k</w> 6337676
m ost</w> 6322333
is h</w> 6283486
y s</w> 6248731
c hi 6247340
th an</w> 6239789
or d 6223773
" ,</w> 6196967
th ere</w> 6189778
on ly</w> 6188158
s ec 6182413
o w</w> 6171282
s ome</w> 6155387
ff ic 6150110
n ed</w> 6142656
i al</w> 6142182
e l</w> 6125627
i f</w> 6112117
s ti 6097358
p p 6043065
m on 5925007
ou s 5899855
m ent 5896878
oo d</w> 5893442
in e</w> 5876099
in ter 5875312
ab out</w> 5874206
os e</w> 5861396
k ,</w> 5849491
af ter</w> 5825924
c oun 5824596
us e</w> 5816851
19 9 5759152
l l</w> 5738969
ov er</w> 5731835
re e</w> 5702507
g u 5689061
e f 5627298
wa y</w> 5623132
o f 5609421
u b 5567729
f a 5562810
the m</w> 5557785
c an</w> 5522711
m u 5510138
ser v 5507777
p ri 5504739
M a 5504095
sa id</w> 5497127
it ed</w> 5494694
wi th 5476775
E n 5470583
y ear 5455349
h er 5450382
an t 5420444
f l 5419474
ro w 5400911
kno w 5395837
en er 5365845
tim e</w> 5358118
em ber</w> 5357031
) .</w> 5355668
a k 5310414
c ol 5307013
wh at</w> 5294280
o re 5284668
m il 5274184
for e</w> 5238745
th r 5228946
si on</w> 5227366
ation s</w> 5220445
ma y</w> 5207405
ar i 5186747
p i 5186728
t or 5183924
wh ere</w> 5178196
m ade</w> 5171464
in d 5149292
su ch</w> 5129052
c ould</w> 5128393
m i 5106776
t e</w> 5098111
di st 5069194
j ect</w> 5066254
f ac 5040314
th ing</w> 5038644
lo c 5018410
J o 4988046
a .</w> 4984447
r u 4980831
T he 4944439
d o</w> 4932643
ta in 4918317
v er</w> 4877696
C om 4871379
in t 4870495
th em 4847948
k e 4839440
sp ec 4816230
c ri 4806664
l d 4795426
f ol 4792844
t u 4786726
st or 4784037
n ing</w> 4778827
l at 4773472
an s 4771294
ation al</w> 4765036
ing s</w> 4758452
U n 4754859
ac c 4750790
' t</w> 4748450
en ,</w> 4736716
is t</w> 4730119
T his</w> 4724697
oo k</w> 4702872
b or 4698146
ic al</w> 4697222
i l</w> 4688378
ac h</w> 4684612
y ing</w> 4665321
th en</w> 4645861
lo o 4643273
inc l 4618781
le ,</w> 4607350
li ke</w> 4603072
f u 4581940
on s</w> 4574082
is i 4567340
er .</w> 4548419
ne w</w> 4544808
L e 4538185
l l 4524055
ur ing</w> 4523566
tion s</w> 4519097
ic e</w> 4512184
en ti 4502354
pro v 4495025
on .</w> 4483692
r y</w> 4472343
m is 4468207
v el 4467421
f ul 4459908
en d</w> 4455851
ing .</w> 4449434
l and 4443163
An d</w> 4441962
ou ght</w> 4430521
gh t 4415688
e ver 4414487
" .</w> 4407564
M r 4406393
s on</w> 4396829
ch ar 4395191
su b 4394154
h el 4391663
t ra 4386624
b le</w> 4381517
P ar 4378697
incl ud 4374882
ag ain 4373800
an i 4359482
ut en 4357790
C on 4349239
up on</w> 4347572
o t 4347245
ow n 4345460
ent s</w> 4340541
y our</w> 4336325
ver s 4301967
w r 4300593
s y 4286064
l ar 4283252
B ut</w> 4280056
d ec 4243832
st e 4242243
at es</w> 4234859
t ri 4234032
c re 4227599
19 8 4227272
th ese</w> 4225954
wor k</w> 4207713
us ed</w> 4206420
b el 4205932
e en</w> 4188398
ed i 4178906
A mer 4152841
be fore</w> 4148697
li f 4146115
an s</w> 4138332
o ver 4126873
p ol 4125934
A u 4124178
0 0 4123270
Amer ic 4116579
itt le</w> 4079718
c er 4076255
ter n 4075178
man y</w> 4072600
ac k 4072401
e y 4069291
S he</w> 4067932
r an 4064708
sel f</w> 4032287
om e 4014440
c ent 4004545
di d</w> 4001791
as ed</w> 3999491
en g 3991277
m at 3990384
as e</w> 3981030
" The</w> 3973312
el ec 3971801
? "</w> 3950511
n am 3925885
be ing</w> 3925135
un der</w> 3923295
em p 3901762
uten ber 3901057
il y</w> 3900427
c ar 3893525
thr ough</w> 3878006
ish ed</w> 3874382
no w</w> 3870487
ha m 3868143
y ou 3856888
s ch 3852926
t re 3846899
i p 3846462
a th 3841528
d s</w> 3840125
ff er 3830885
e g 3827190
s ur 3797996
E x 3791259
re ad 3767032
t t 3761293
C ol 3732241
f t</w> 3728871
si d 3722148
g e 3711846
r is 3711205
L i 3700878
1 7 3693952
l ittle</w> 3680200
s ol 3677463
e i 3670048
R o 3663538
pla y 3661418
oc i 3658045
sh ould</w> 3655593
w at 3652360
Ne w</w> 3652132
Pro ject</w> 3646007
b ro 3644310
a y 3642006
o m</w> 3631123
on d</w> 3627197
m ust</w> 3626926
ti es</w> 3610667
f il 3608326
pe op 3597652
19 7 3588647
f am 3588140
be g 3581070
v ing</w> 3577630
ta in</w> 3573382
c an 3564760
r e</w> 3557930
be tw 3546016
G utenber 3517731
S e 3508078
d on 3506814
d .</w> 3500757
betw een</w> 3484147
ti ve</w> 3479984
fu l</w> 3470452
c ap 3461479
w ell</w> 3444593
A f 3429566
gre at</w> 3427458
al s</w> 3416105
o ,</w> 3413398
in ce</w> 3412351
p s</w> 3411558
fol low 3405253
l ed</w> 3401668
s m 3399459
u m</w> 3395026
n um 3392000
U ni 3386791
ap p 3383224
pl ac 3373899
i an</w> 3372449
c c 3369293
ar m 3355549
En gl 3347531
The y</w> 3345879
mu ch</w> 3344328
o ffic 3333167
th ough</w> 3332716
1 0 3327766
l and</w> 3327663
s k 3327253
j o 3322120
Jo h 3317368
an n 3316854
v es</w> 3315825
h and 3312706
par t</w> 3308904
at ing</w> 3302754
bu il 3302674
e - 3302469
c lo 3298611
m ov 3293792
whi le</w> 3274799
th ree</w> 3274506
f er 3272006
c our 3271661
g a 3254592
em ent</w> 3254533
N or 3229391
en s 3222245
c all 3214902
u bl 3210159
th ose</w> 3204079
si st 3193800
ation ,</w> 3192195
a w 3188123
b i 3184550
O n</w> 3173057
st ar 3172168
lo w</w> 3163479
pro duc 3151426
se e</w> 3151371
ol og 3145862
si g 3141873
e w 3132812
c or 3131590
g ener 3129443
da y</w> 3116452
s ame</w> 3113824
oo l</w> 3106224
again st</w> 3105497
l es</w> 3101207
b re 3098389
ro s 3094277
f ound</w> 3090200
ation .</w> 3081463
v o 3077928
ti c</w> 3066724
str uc 3061753
ev er</w> 3061743
19 6 3061723
" S 3059689
d own</w> 3048338
b ur 3039986
ou t 3038432
ati ve</w> 3038422
s ome 3036103
f ic 3025794
ev en</w> 3024167
v ed</w> 3020823
a use</w> 3020289
su p 3019879
1 6 3019814
re g 3015022
ex p 3007964
f ri 3005755
c ur 3000418
v ol 2999352
on d 2995134
l ess</w> 2971248
an ,</w> 2966506
tion .</w> 2959513
Mr .</w> 2959401
tion ,</w> 2955173
po in 2949963
in ed</w> 2945128
d uring</w> 2940113
Th ere</w> 2936737
" I</w> 2935301
Un ited</w> 2931261
B ri 2925578
n or 2922952
it ,</w> 2921961
with out</w> 2914383
ex c 2912704
l y 2910743
n e</w> 2908807
C oun 2906575
si de</w> 2904322
am p 2903823
1 5 2893303
know n</w> 2884632
w om 2883054
ti v 2881253
th in 2881163
di rec 2878630
Y ou</w> 2876300
! "</w> 2875091
c ame</w> 2873153
s ed</w> 2872690
ard s</w> 2871980
- t 2870090
k s.</w> 2867466
al ,</w> 2864633
ma ke</w> 2864266
m en</w> 2859881
le t 2855944
la r</w> 2855638
g iv 2849415
u st 2847034
b ri 2840170
a ir 2837956
com e</w> 2836170
ou gh 2833109
h ol 2822520
k .</w> 2821770
. . 2804666
un d 2802326
ent ,</w> 2797643
ne ver</w> 2797377
c i 2794232
S ch 2793808
or g 2792479
in i 2790236
shi p</w> 2782300
sel f 2776859
id e</w> 2776396
-- -- 2775910
th ,</w> 2770745
di v 2770337
h ou 2770259
t ly</w> 2766862
G re 2759721
s ou 2755580
m p 2754583
qu i 2749436
ad i 2749361
Americ an</w> 2747552
s on 2745330
g ra 2741315
b ack</w> 2733167
v e 2732577
t y 2729862
er n</w> 2718485
le .</w> 2707362
or y</w> 2703102
W or 2695205
and ,</w> 2693402
B o 2682305
A s</w> 2681742
c op 2679055
as s</w> 2678277
si on 2678186
po si 2672885
n ec 2671158
h or 2670118
h ow</w> 2664496
year s</w> 2661291
bo th</w> 2659176
g ood</w> 2659109
W il 2658008
un i 2655914
ri bu 2649435
re tur 2648538
per i 2645719
l y,</w> 2645023
por t 2640535
un der 2636550
l ong</w> 2633033
G er 2611941
e iv 2610873
m em 2608552
ti s 2604802
Gutenber g 2604025
_ ,</w> 2593935
p ow 2591863
F r 2591019
bor n</w> 2587276
ti l</w> 2585968
g o</w> 2579353
er ed</w> 2574794
C ar 2574285
u al</w> 2574026
19 4 2573192
at h</w> 2572484
k en</w> 2562770
call ed</w> 2560690
le g 2559719
1 ,</w> 2559400
I f</w> 2555128
h al 2549754
H is</w> 2546533
se as 2541088
d ing</w> 2532076
N o 2530767
T H 2529135
e ach</w> 2528016
e very</w> 2527562
f r 2521603
t on</w> 2517296
peop le</w> 2511017
or t</w> 2508520
n at 2505251
m s</w> 2504781
t en</w> 2504736
p ass 2501584
s ha 2499473
it .</w> 2495153
s ing 2494046
t or</w> 2492800
as h 2490619
li c</w> 2488378
a in</w> 2486835
i z 2485440
is ,</w> 2485088
y e 2484798
S p 2484201
Uni vers 2484111
oo t 2480917
ever ,</w> 2477945
p le 2477774
19 5 2472595
ch ang 2467818
G r 2467218
I I 2462073
D e 2460284
i gh 2457922
un til</w> 2456990
in d</w> 2456413
he ar 2455618
S ou 2450833
pl ace</w> 2449229
1 2 2448383
w ent</w> 2447442
sp e 2446188
u ary</w> 2440880
ta ke</w> 2437705
j ec 2437366
R e 2436555
t ook</w> 2435468
is e</w> 2434330
su l 2433909
1 . 2432275
se ver 2429107
en ed</w> 2426181
se t</w> 2423003
j ust</w> 2419890
o ol 2418319
re l 2411950
In di 2410358
1 .</w> 2409132
p ur 2408292
y s 2408192
in s</w> 2407995
bec ame</w> 2407772
m en 2399293
4 ,</w> 2392921
ec h 2388665
p op 2387862
t al 2385871
it y,</w> 2382948
su cc 2382414
ri ght</w> 2382058
ow ever,</w> 2373528
ic k 2367261
sti ll</w> 2364756
c as 2358811
a z 2357050
y oun 2355740
ar ly</w> 2351200
a y</w> 2350642
cont in 2350215
S .</w> 2349175
ad v 2343216
3 ,</w> 2330761
ub lic</w> 2329651
sh all</w> 2329029
w ar 2325310
Q u 2319616
f re 2316060
l ast</w> 2315443
er s,</w> 2311186
T E 2305518
kno w</w> 2304755
g et</w> 2300242
o ther 2297362
ter s</w> 2293846
v en 2293616
end ed</w> 2293543
ent ly</w> 2292280
d el 2291770
i a</w> 2275065
G e 2274902
A t</w> 2274278
Gutenberg -t 2274197
B r 2273227
F or</w> 2271758
e 's</w> 2260827
n ess</w> 2258587
e p</w> 2255762
tic al</w> 2252513
l ec 2251555
mi ght</w> 2248546
’ s</w> 2244503
de p 2234370
. ,</w> 2228399
isi on</w> 2227318
c ha 2227268
n er</w> 2226770
an y 2225370
or s</w> 2225203
W e</w> 2220373
re ma 2216464
p ubl 2216160
sa id 2214461
n ame</w> 2210030
par t 2207273
P er 2205657
hi stor 2195182
di ffer 2190680
H ar 2189216
ch ,</w> 2189082
tern al</w> 2187821
at ,</w> 2184137
Wh en</w> 2182505
re le 2180927
o d</w> 2180716
of f</w> 2179646
a ff 2177635
J u 2175655
ep t</w> 2174643
I ' 2171238
re st 2170802
d r 2170553
v ari 2169312
v al 2168999
B e 2163774
h o 2161201
hi gh 2157566
s ;</w> 2157199
op er 2156811
I s 2155713
Gutenberg-t m</w> 2152477
Joh n</w> 2151533
in ,</w> 2151206
ri ed</w> 2150752
ap pe 2149865
3 .</w> 2141255
D i 2138385
pres ent 2138097
go ver 2137958
" M 2133824
st and 2133526
a il 2132193
f el 2132141
rec eiv 2131418
or ,</w> 2130252
le ft</w> 2129894
or ig 2129487
m edi 2128796
b us 2125405
st at 2125037
sec ond</w> 2120401
u gh 2116890
c e 2115426
coun tr 2113797
tur e</w> 2108687
re as 2105673
al e</w> 2100988
chi ld 2100802
bec ause</w> 2100666
B ar 2093290
o ff 2090098
ad d 2088024
tr ac 2087079
se em 2083137
for m</w> 2081364
or d</w> 2080156
w ard</w> 2078745
Af ter</w> 2076086
includ ing</w> 2074269
f ore 2071133
d ra 2068792
en n 2068170
fi el 2064142
wa ys</w> 2063273
c are 2063013
2 .</w> 2062587
oo d 2058112
e ;</w> 2053498
h um 2051710
b ar 2050559
us ,</w> 2040813
A d 2039021
ure s</w> 2034848
A c 2033143
R E 2031471
4 .</w> 2028523
M on 2026451
num ber</w> 2026091
wr it 2025938
2 ,</w> 2018378
con si 2016923
il i 2014967
19 3 2010572
P r 2009819
v ic 2005376
5 ,</w> 2004098
he ad 1998747
b all</w> 1986119
e "</w> 1983912
J an 1982176
b od 1979125
fe w</w> 1976882
O r 1975902
" H 1970114
s en 1966744
su m 1965432
lat er</w> 1964788
ra p 1962962
C an 1955516
sever al</w> 1955280
7 ,</w> 1953775
A N 1952435
por t</w> 1952382
6 ,</w> 1946389
lif e</w> 1945823
him self</w> 1945705
u lar</w> 1943261
bel i 1933793
8 ,</w> 1928698
lin e</w> 1927866
C hi 1926561
de vel 1926370
it y.</w> 1924787
n ,</w> 1922689
s ince</w> 1922393
u ro 1921182
co ver 1919449
c le 1916990
st re 1908719
f our</w> 1908320
la w 1906532
li m 1904647
S h 1904342
v is 1899951
gr ou 1897084
char ac 1896671
Y or 1894556
l ong 1893087
ab l 1892961
it er 1891711
" D 1890530
" B 1888168
an other</w> 1885998
a k</w> 1883149
d u 1880464
e f</w> 1876616
w in 1875786
T o</w> 1874448
ti t 1874122
g g 1872485
w ell 1872335
un e</w> 1871090
lo s 1869805
i de 1869459
par tic 1867524
a red</w> 1867206
Univers ity</w> 1866304
n 't</w> 1863790
re sid 1863223
re ,</w> 1862100
p er</w> 1861835
G u 1857210
pos si 1855038
t ow 1854444
re f 1853217
tis h</w> 1853028
y 's</w> 1852401
T r 1851862
gi ve</w> 1851841
ep t 1851434
th ir 1850232
orig in 1846882
in v 1844838
as ,</w> 1839975
m od 1837771
Ex ternal</w> 1834546
Ch ar 1834086
5 .</w> 1833757
st ud 1832922
st ,</w> 1831435
beg an</w> 1829200
d em 1829112
c ul 1827476
C or 1819550
ent .</w> 1817696
u r</w> 1817189
lin ks.</w> 1816889
re sp 1814453
A s 1813795
ex t 1813134
youn g</w> 1812925
ne w 1812694
H e 1809465
sm all</w> 1809376
al .</w> 1802688
in e 1801970
p ut</w> 1797687
i ous</w> 1788597
P ol 1787395
fri end 1787105
b ed</w> 1785706
gover n 1785376
he ad</w> 1784293
le ad 1782115
es s,</w> 1782047
ha ving</w> 1780931
p .</w> 1780690
id ed</w> 1778862
st ate</w> 1778543
tr ans 1772782
him ,</w> 1771713
c a 1769028
y - 1768622
contin u 1768156
ha pp 1767063
hel d</w> 1766633
ear ly</w> 1765229
follow ing</w> 1765022
pro f 1764233
p ic 1763803
C o 1763178
f ur 1762297
I N 1760494
ye ar</w> 1759929
res s</w> 1759553
ig n</w> 1757938
tim es</w> 1756275
H ist 1754154
M is 1751102
ch ed</w> 1750594
app ear 1749205
N ational</w> 1745711
b as 1745263
consi der 1744935
k et 1743952
s il 1742900
devel op 1740894
Se e</w> 1740005
, 00 1739154
thin k</w> 1738412
e qu 1737101
th ought</w> 1734980
e br 1733638
0 ,</w> 1730114
li ght</w> 1728112
au th 1727179
m y 1720908
c la 1718859
wh ol 1718803
am ong</w> 1717367
pl an 1717078
with in</w> 1715529
le y</w> 1713273
al bu 1712152
ec ted</w> 1711926
si c</w> 1711882
no w 1708864
h on 1707219
N ov 1701303
S er 1700978
9 ,</w> 1700579
k es</w> 1700318
am es</w> 1699422
tion al</w> 1699175
1 4 1698227
o p</w> 1698009
m us 1694597
d re 1691109
lar ge</w> 1689657
S ec 1689232
s "</w> 1687956
to o</w> 1686552
p e</w> 1686338
le t</w> 1684656
wor ks</w> 1684168
1 3 1681634
is ed</w> 1681155
" L 1678173
6 .</w> 1676489
ag re 1675563
D ec 1674609
E uro 1674605
d en 1672868
z e</w> 1672681
" P 1670733
ham pi 1669753
ir e</w> 1668267
l ad 1667806
sa w</w> 1667597
ic h 1665143
g en 1658224
a "</w> 1656859
F or 1656434
e ff 1646653
d om 1645708
F ren 1645448
M an 1645241
. _</w> 1643724
st er 1640497
l y.</w> 1640057
receiv ed</w> 1638437
e k</w> 1638259
A R 1637759
fe at 1635140
a way</w> 1634482
g ed</w> 1634112
u di 1633403
E d 1633147
p ublic</w> 1632426
b le 1630861
a wa 1628404
re sul 1626671
be t 1624135
pol i 1624100
8 .</w> 1621732
c r 1621552
B l 1621008
sh ow 1618903
ful l</w> 1615057
s oci 1614820
re li 1613019
giv en</w> 1610002
play ed</w> 1608634
7 .</w> 1608051
ne x 1607676
to ge 1606758
b an 1604691
Wh at</w> 1604622
o t</w> 1602800
ag es</w> 1602364
fi ed</w> 1602224
h ar 1601691
C ent 1598436
O c 1595083
C l 1595011
him .</w> 1593095
ut e</w> 1589798
e as 1587105
ig n 1587100
on ic</w> 1584366
ther ,</w> 1583520
Wor ld</w> 1578156
form ed</w> 1577722
f e</w> 1577337
des cri 1576353
g ir 1574442
on ce</w> 1574405
sa y</w> 1573908
li st 1573026
t ro 1571060
h y 1568936
pop ul 1566162
z ed</w> 1566144
ic k</w> 1566106
w ard 1565382
e y</w> 1563597
b oo 1559599
Wil li 1559355
ros s</w> 1559042
res t</w> 1550871
f ace</w> 1550548
ter ,</w> 1549852
u ally</w> 1549195
19 2 1548243
R om 1547240
h ,</w> 1547147
d ou 1545886
Bri tish</w> 1544324
er s.</w> 1544198
al ong</w> 1543069
or e</w> 1541720
ther n</w> 1540859
of ten</w> 1538678
Com m 1537833
al ways</w> 1536615
en .</w> 1534662
hou se</w> 1534505
S u 1533804
at ely</w> 1531734
p ed</w> 1528695
i ght</w> 1528564
si ve</w> 1527535
Ma y</w> 1527127
k s,</w> 1525972
for c 1525115
dist ribu 1524865
et y</w> 1522507
fam ily</w> 1520757
s it 1519024
f ar</w> 1517781
TH E</w> 1515150
so .</w> 1512951
St ates</w> 1512740
9 .</w> 1512664
l ing</w> 1512473
ag ain</w> 1511866
v ill 1511811
w al 1508748
ne ar</w> 1508374
a i 1502913
comp le 1501961
de f 1500262
u ri 1498011
u str 1497783
B i 1495711
form er</w> 1495346
th .</w> 1494315
ord ing</w> 1493303
in ing</w> 1492190
b ers</w> 1488809
st ri 1488776
m om 1488105
b est</w> 1487979
P hi 1487258
G ener 1486848
r un 1485546
E R 1477674
re s</w> 1477461
S ept 1477352
read y</w> 1477189
ac t</w> 1474073
Th at</w> 1473575
go t</w> 1473197
p ec 1471524
th y</w> 1471397
y et</w> 1469394
hi gh</w> 1465468
Sou th</w> 1465432
d ri 1465405
Engl ish</w> 1465265
B er 1464298
go ing</w> 1463830
o s</w> 1463049
" W 1462136
m ember</w> 1460957
ar ound</w> 1460575
r ang 1460435
ous ly</w> 1459548
al most</w> 1456601
sc i 1456547
" O 1456069
re p 1453356
Oc to 1451365
se en</w> 1451041
d en</w> 1450561
et ,</w> 1449266
fin d</w> 1447464
n ational</w> 1445994
ang u 1444420
h ere</w> 1442910
wh om</w> 1440123
L a 1440023
ta ken</w> 1439342
ab ly</w> 1437142
" C 1436413
ad em 1436153
fi ve</w> 1436145
b it 1436125
A pri 1435348
all ,</w> 1435314
h ome</w> 1434229
tr u 1433921
an ts</w> 1433805
un c 1432794
" T 1431021
or i 1430988
ag ue</w> 1430842
d ge</w> 1429171
H er 1428103
St at 1427792
enc e,</w> 1427371
Fr anc 1425743
a ve</w> 1424964
h op 1424430
sti tu 1422752
en s</w> 1422501
gh t,</w> 1418878
A b 1418779
elec tr 1418762
m ag 1416909
il ity</w> 1416507
m id 1415658
t s,</w> 1415358
ga ve</w> 1414186
gre at 1413992
ap pro 1412831
se .</w> 1412188
d ar 1412079
s :</w> 1410740
f oot 1410515
man ,</w> 1408987
ur ch</w> 1408597
0 .</w> 1408129
est abl 1407687
en ing</w> 1407255
in st 1407169
ound ed</w> 1406263
r ac 1405485
ach ed</w> 1400343
t ure 1399546
v il 1398329
A m 1397933
cent ur 1394172
serv ed</w> 1391531
nex t</w> 1390132
P e 1389683
d ro 1388850
or der</w> 1388320
bus in 1387927
o ve</w> 1387156
d oc 1384668
fil m</w> 1384588
ar ,</w> 1384338
vi ew 1384108
S y 1379100
h om 1377105
Ge or 1375641
pr is 1375418
M ic 1374762
an .</w> 1373574
v en</w> 1370866
s ent</w> 1369143
M in 1368099
O N 1365713
m ,</w> 1365499
R ep 1365328
b ased</w> 1363191
Th en</w> 1362209
M o 1360854
differ ent</w> 1360721
comm un 1360263
ar ch 1359384
pro t 1358394
R us 1357958
I t 1357373
al ity</w> 1357014
ed uc 1355248
19 0 1353740
im port 1353236
he av 1352086
ans w 1351272
posi tion</w> 1350399
i m</w> 1349334
Au str 1347563
loc ated</w> 1346646
Mar ch</w> 1346329
h ous 1345647
da ys</w> 1345609
do es</w> 1345420
J une</w> 1343273
P ri 1342555
se e 1341174
ment s</w> 1341143
er y</w> 1340876
c am 1339721
th re 1339536
h owever,</w> 1339345
te am</w> 1339154
s ite</w> 1339147
spec i 1338763
m e,</w> 1338085
rele ased</w> 1336166
p at 1335847
se qu 1335390
whol e</w> 1334925
n or</w> 1333961
Au g 1333626
wh e 1333219
w on</w> 1331868
y ;</w> 1331496
in a</w> 1328701
lar g 1328343
A L 1328097
Al l</w> 1326370
pos ed</w> 1326220
Fren ch</w> 1326180
s w 1326049
c ir 1325730
ur al</w> 1325676
ag ed</w> 1325281
p ain 1322682
ric t</w> 1322571
ro w</w> 1321846
t on 1321015
ma j 1320015
qu es 1319712
hal f</w> 1319552
w w 1318013
M us 1317830
C ap 1317524
Jan uary</w> 1317431
t old</w> 1317070
nam ed</w> 1314920
Austr ali 1313520
bod y</w> 1312718
D av 1311940
F ound 1311265
W e 1309003
pres ent</w> 1308815
ag e,</w> 1308635
wat er</w> 1308535
pro c 1306929
Ju ly</w> 1305156
p hi 1303800
row n</w> 1303637
sch ool</w> 1302578
fl u 1302548
E N 1301620
so on</w> 1301375
e w</w> 1301182
ro c 1300475
shi p 1299964
mov ed</w> 1298480
m .</w> 1297744
c ity</w> 1297092
wh ose</w> 1296135
D r 1292580
O ne</w> 1291707
m ed 1289933
dep end 1288998
br ought</w> 1287835
M c 1287146
Sept ember</w> 1286915
ch e 1285724
said ,</w> 1284823
Mr s.</w> 1284649
al so.</w> 1284600
St ate</w> 1283452
sp o 1282585
no thing</w> 1280878
Octo ber</w> 1276430
- -</w> 1276394
th ers</w> 1275901
,00 0</w> 1274713
W al 1273437
ar ti 1273340
ther e 1272072
m et 1270882
l ab 1270624
cur ren 1266916
am s</w> 1266548
for t 1266530
Apri l</w> 1266429
no t 1266338
w on 1264275
ra ph 1262399
qu ar 1260205
b ir 1257243
n er 1256629
e ve</w> 1252339
them ,</w> 1251092
us ing</w> 1250812
pr inc 1249842
ber t</w> 1249337
( born</w> 1249149
loo ked</w> 1248083
ch es</w> 1247208
bec ome</w> 1247164
ni ght</w> 1247098
L ond 1246614
m er</w> 1245273
cl u 1245266
B y</w> 1244106
S co 1244053
Aug ust</w> 1243943
St .</w> 1240247
tim e,</w> 1239733
" N 1239639
c al 1239187
form ation</w> 1238992
C H 1238832
don 't</w> 1238329
i e</w> 1235312
wor ld</w> 1233021
t ell</w> 1232539
s '</w> 1232174
a ut 1231695
oc c 1230899
re t 1230122
an ti 1229516
P o 1228800
Nor th</w> 1227067
18 9 1226790
di ed</w> 1225914
t own</w> 1224271
y ed</w> 1223187
ri st 1223094
hampi on 1222568
ad di 1222168
electr onic</w> 1221996
pr ac 1217511
v el</w> 1217446
t el 1215734
per son 1215469
li ed</w> 1214601
gr ad 1214404
Nov ember</w> 1213509
W ith</w> 1213367
0 0</w> 1212233
r al</w> 1209415
div id 1209358
Hist or 1209174
Sch ool</w> 1207829
R ec 1206934
d own 1206561
o .</w> 1205312
pl ic 1204754
ser ies</w> 1203996
F ebr 1203073
ro om 1202499
p it 1201626
D ist 1200957
H ol 1199995
Can ad 1199874
cer tain</w> 1198482
cont ro 1198210
et s</w> 1197964
on - 1197821
seem ed</w> 1197109
h and</w> 1194614
L E 1194287
m oun 1193214
re gi 1192887
s ing</w> 1192461
Gener al</w> 1191346
Dec ember</w> 1191330
le ar 1190375
( 200 1190277
r ing</w> 1189979
b and</w> 1189262
re n</w> 1189070
loo k</w> 1188536
ra ther</w> 1187660
ter min 1186637
wr itt 1185337
re .</w> 1184787
pow er</w> 1184770
H ou 1184340
s al 1183790
or .</w> 1183342
plac ed</w> 1183296
ful ly</w> 1182835
Th ese</w> 1182073
an im 1181876
P l 1180025
t y,</w> 1179918
buil t</w> 1179422
them sel 1179275
TE R</w> 1178493
seas on</w> 1178321
can not</w> 1178130
O F</w> 1177331
t en 1176734
bet ter</w> 1171073
fr on 1170684
g ent 1169878
nec ess 1169612
F rom</w> 1169371
a h 1169045
oun c 1167979
s es</w> 1167824
us h 1167537
ey es</w> 1167078
ar ri 1166590
ple as 1165126
v ir 1164512
st ro 1164251
re ad</w> 1164088
st em 1163259
ti ce</w> 1162249
sch ool 1162130
them .</w> 1161974
th ings</w> 1161906
1 0</w> 1160898
n s</w> 1160681
po st 1160346
ex pres 1159944
ed er 1159766
end ing</w> 1155053
or t 1154566
s on,</w> 1151786
c at 1150558
im p 1150535
he ard</w> 1147915
" A 1147269
qu ite</w> 1146822
di d 1144790
countr y</w> 1142099
18 8 1142082
y al</w> 1141156
ris ti 1141134
con f 1140702
se tt 1140309
gener al</w> 1139584
col lec 1138009
ter ms</w> 1137050
p ap 1136565
re present 1134539
ar t</w> 1132988
u g 1132473
on e,</w> 1130615
fa ther</w> 1130500
anc e,</w> 1130440
lo ve</w> 1129457
es s.</w> 1126186
Com p 1125691
sh ow</w> 1125150
tur ned</w> 1123043
v ent 1122621
G od 1122397
G over 1122021
as ked</w> 1121890
pos e</w> 1120602
d g 1120392
tain ed</w> 1120184
ma king</w> 1119709
in .</w> 1118983
U . 1114932
j ud 1114473
rec ord 1114182
it ted</w> 1114029
U S 1111929
dra w 1111249
it ary</w> 1110679
mis sion</w> 1110603
y n 1110329
d ue</w> 1108936
i str 1108911
r ound</w> 1107949
ati c</w> 1107157
R es 1106881
ill ed</w> 1105989
th at 1105614
poin t</w> 1105473
l angu 1103921
L I 1102635
u red</w> 1100941
W est 1100817
al low 1100173
A .</w> 1099707
r it 1099051
c ou 1098377
con cer 1097542
an g</w> 1097274
pla y</w> 1096800
ass oci 1096677
h und 1096249
ment .</w> 1096146
m ul 1095389
ation s.</w> 1088478
ex ist 1088399
Yor k</w> 1088083
st udi 1086998
wh ite</w> 1085578
C ha 1085530
is su 1085292
writt en</w> 1085222
st ood</w> 1084163
i .</w> 1082449
es ;</w> 1081995
" G 1081716
some thing</w> 1081584
re qui 1081557
Ch risti 1081072
Febr uary</w> 1080890
le av 1080513
W hi 1080338
grou p</w> 1078086
er ing</w> 1077168
il ed</w> 1077108
s qu 1076243
emp lo 1076230
i k 1075986
un g 1074177
da ugh 1071642
serv ic 1070875
tr an 1070780
18 6 1070143
ell ,</w> 1069654
b ook</w> 1066173
oc k 1064265
ste m</w> 1063511
" F 1062735
me ans</w> 1062092
y "</w> 1060227
k new</w> 1059741
b en 1059407
qu e</w> 1057767
O n 1057618
st er</w> 1057040
M e 1056290
fiel d</w> 1056285
wor d</w> 1055169
s or 1054432
l ate</w> 1054036
a ir</w> 1053941
sp ir 1050992
Ger man</w> 1050687
p ra 1050599
t s.</w> 1050092
ro ad 1049311
sing le</w> 1048539
on y</w> 1047901
S w 1046378
o k 1045211
J ap 1045106
g am 1044450
enc es</w> 1042862
i ent</w> 1042386
publ ished</w> 1042215
ing s,</w> 1041983
org ani 1041301
ist er</w> 1040947
en se</w> 1040341
is m</w> 1040267
be h 1039639
inter est 1039000
h our 1038884
st ra 1038493
T I 1038254
er e 1037881
con c 1037481
si x</w> 1037013
el ,</w> 1035536
Willi am</w> 1034390
H en 1033608
af ter 1032050
cir c 1031108
f av 1030494
. ”</w> 1030423
vari ous</w> 1029786
albu m</w> 1029110
" Y 1028931
comp any</w> 1028866
H owever,</w> 1028713
in divid 1026971
a 's</w> 1026552
og raph 1026148
R i 1025247
Sco t 1025158
s e,</w> 1024394
ei ther</w> 1024216
g ame</w> 1023799
da y,</w> 1023781
ment ,</w> 1022885
re fer 1022020
are a</w> 1020915
E m 1020881
ed ;</w> 1020709
" )</w> 1020280
le ge</w> 1018903
on om 1017657
ma in 1017200
enc e.</w> 1015190
n .</w> 1013156
pa ren 1012613
in de 1011573
d one</w> 1010677
Rus si 1010549
ac coun 1010339
I r 1010225
t own 1009508
In tern 1009502
thir d</w> 1008702
att emp 1008267
ma in</w> 1007559
cover ed</w> 1006014
ti ll</w> 1005501
fi c</w> 1005486
mu sic</w> 1004975
vi ew</w> 1004002
b ack 1003780
retur ned</w> 1003681
th at,</w> 1003618
appe ared</w> 1003343
ed ed</w> 1003029
th us</w> 1002230
S ir</w> 1001889
el s</w> 1001581
i ally</w> 1001550
toge ther</w> 1001093
. '</w> 1001080
M u 1000679
wor ld 999292
f low 998399
pp ed</w> 997782
we e 995817
land ,</w> 995690
A P 995180
E . 994960
er 's</w> 994903
Th om 994837
t em 994310
govern ment</w> 994028
at e,</w> 994026
c ase</w> 993699
D uring</w> 993561
1 )</w> 992758
P resid 992470
pro per 991028
ati s 990718
ab ove</w> 989642
loc al</w> 989563
th s</w> 989514
f ig 988685
dou b 988517
ke ep</w> 987968
Af ric 987809
v e,</w> 987364
D u 986710
con di 986470
U. S.</w> 986296
ever y 985827
M il 985078
R ev 984462
ne y</w> 984421
f ree</w> 983969
or der 983105
C .</w> 982566
F ran 981888
st s</w> 981754
es sion 980940
, -- 980873
at s</w> 980488
s le 979977
ag e.</w> 979788
W ar 979323
18 7 978988
cour se</w> 978766
K ing</w> 978425
b ra 978060
anc es</w> 977738
an a</w> 977665
de ath</w> 977136
origin al</w> 976125
c ast 975146
ag u 975143
O R 974804
en ough</w> 974672
D es 974470
M or 974385
hel p</w> 974021
B el 973495
mil li 973222
b att 973212
da y 971576
F i 971092
fel t</w> 971049
you ,</w> 970508
succ ess 969201
con struc 967958
ud e</w> 967340
pos s 966789
li ght 965697
our n 965541
B ur 965508
lo st</w> 965413
ure ,</w> 965392
f our 964005
---- ---- 963212
in flu 962996
ro om</w> 962030
M al 961453
i ,</w> 959665
reli gi 959582
s em 958460
g row 958127
on e 957384
op en</w> 956738
. -- 955929
wor k 955890
f lo 954984
ol d 954900
si ons</w> 954650
L ord</w> 953774
for d</w> 953719
sti t 953383
pro b 952856
w ant</w> 950509
p rec 950275
2 5 948711
ar ch</w> 948257
C am 947921
self ,</w> 947361
pass ed</w> 947243
comm on</w> 946070
hum an</w> 945911
o - 945898
at e 944604
_ .</w> 944483
all y,</w> 944272
St re 943809
l ,</w> 943706
Ne w 943466
olog y</w> 942893
al ready</w> 942564
ro ad</w> 941467
vill age</w> 941418
h ard 940223
en 's</w> 939931
c ra 939455
s ong 938297
popul ation</w> 937538
E l 937404
pre vi 936729
W ar</w> 936324
ig h</w> 935884
mem bers</w> 935343
in n 935251
possi ble</w> 933263
er i 933175
P et 932823
tr y</w> 932577
w il 932551
L ou 932083
si mil 931486
w id 930961
la w</w> 930646
. ]</w> 930399
ac ross</w> 929988
enc y</w> 929157
" R 929094
T ur 926873
1 1 925777
por ted</w> 925608
T w 925605
O ffic 924895
S ha 923923
la y</w> 923031
D iv 920569
uc k 919900
cla im 919873
at or</w> 919667
st and</w> 918099
ffic ul 917471
sh ort</w> 916878
h old</w> 915810
t al</w> 915782
poin ted</w> 915624
es "</w> 914533
ad m 913944
Gutenber g</w> 913663
ic s</w> 913618
E .</w> 913551
pe ti 911608
gh ts</w> 910302
G od</w> 908564
sig ned</w> 907901
I S 907804
w est 907702
gr ound</w> 906780
ech n 906738
retur n</w> 906470
me an 906185
t ou 905794
Geor ge</w> 905701
w ar</w> 905499
R ich 905425
fur ther</w> 905279
in t</w> 904823
di fficul 904372
An g 904236
I .</w> 904013
s un 903404
st y 903335
pi ec 903264
le ast</w> 902739
us .</w> 902452
y p 902343
continu ed</w> 902104
3 )</w> 899978
s ure</w> 899818
Ch in 898591
s ong</w> 897143
oc cas 896927
spec ies</w> 896613
chang e</w> 896249
a ver 895736
W est</w> 895565
gr am 895477
Mis s</w> 895095
child ren</w> 894895
au ti 892953
th ous 892856
li ve</w> 892734
produc ed</w> 892668
ev id 892477
fam il 892295
un ic 891813
duc ed</w> 891353
str ang 891033
m ou 890945
F re 890689
per f 890620
tion s,</w> 890600
w ro 890274
w ind 889585
eff ec 889327
V al 889215
2 )</w> 888777
Intern ational</w> 888009
C our 887721
A g 887426
l s</w> 886523
s )</w> 885744
w est</w> 885582
c el 884737
star ted</w> 884730
T im 884571
al though</w> 884437
occas i 884018
resp on 883519
ac i 883296
import ant</w> 883109
includ ed</w> 882951
con sist 882845
int ro 882290
L ist</w> 882084
O f</w> 881608
M ad 879438
l an 879312
min d</w> 877873
h er,</w> 877803
V i 877075
po or</w> 876199
J ames</w> 875887
si mp 875129
P al 874899
ex peri 874732
fi f 873865
Euro pe 873581
it al</w> 873315
wom an</w> 872658
em ents</w> 872487
ter ed</w> 872365
S al 871734
K ing 870595
, '</w> 869618
sy stem 869426
t oo 869402
ow ,</w> 869312
clo se</w> 869278
is .</w> 868682
con nec 868512
ch o 867662
R eg 867552
ord in 867351
1 2</w> 866934
tow ards</w> 866859
V er 866209
hear t</w> 865579
M .</w> 864513
r up 864409
b ly</w> 864292
a - 864155
ha ps</w> 863368
D on 862810
buil ding</w> 860989
d am 860966
ann ounc 860134
vi ol 859273
v es 858332
P i 858250
A le 858179
b and 856725
A S 856614
sy stem</w> 856543
sup port</w> 856276
C ity</w> 856265
T e 855270
per son</w> 855165
ation s,</w> 854805
an ted</w> 854637
ter .</w> 854104
to - 853857
ef for 853790
ch .</w> 853767
C hampion 853352
ra il 853258
M y</w> 852733
m other</w> 852254
S o</w> 852028
i th 851909
t on,</w> 851791
F l 851236
know le 850539
s la 850225
S ome</w> 850213
d ic 850024
v ely</w> 849856
op ened</w> 849555
2 0</w> 849317
tain s</w> 848714
B oo 848254
oc ial</w> 847945
l a</w> 847664
to p</w> 847588
ar y,</w> 847146
gh t.</w> 847118
l eng 846022
H er</w> 846006
oc k</w> 845935
st ation</w> 845764
Le ague</w> 844565
" You</w> 844158
od e</w> 843775
rec og 843748
in e,</w> 843691
d ed</w> 843668
I' m</w> 843594
dis c 843525
p en 843494
min istr 843406
ru n</w> 843402
or ity</w> 843218
themsel ves</w> 842850
follow ed</w> 842674
stand ing</w> 842625
e ."</w> 842164
S oci 842045
li k 841798
pre t 840685
com b 840152
it ing</w> 840133
iter ary</w> 840066
lif e.</w> 839419
an k</w> 839367
sc ri 839087
B u 838227
mar k 837165
R O 837008
f o 836597
al th</w> 836445
Ar chi 836361
whe ther</w> 835324
mar ried</w> 835218
M ed 834776
li es</w> 834638
li g 834547
de ath 834066
f em 833738
fin al</w> 833674
a h</w> 832960
enti al</w> 832845
ing - 832834
" E 831834
h us 831571
tic s</w> 831381
1 8</w> 831013
hund red</w> 830808
serv ice</w> 830277
1. E. 830197
f all 829128
k ind</w> 828373
e :</w> 827966
c y 827523
in es</w> 826375
tion s.</w> 826257
m et</w> 826159
ard ed</w> 825878
u tion</w> 825630
m e.</w> 825086
S a 825071
F ir 824956
m ed</w> 824282
ev ent 824083
beh ind</w> 823709
A t 823220
s us 822529
18 5 822467
su gg 822191
pro mo 821945
ne t 821104
S i 820518
ha m</w> 819462
ard ,</w> 818757
beli ev 818646
im medi 817491
inc re 817114
( 199 816472
( 201 816429
wor ds</w> 815883
l d,</w> 815004
k er</w> 813141
sp i 813089
poli tical</w> 812269
G i 812042
A cc 811680
su d 810976
i or</w> 809785
1 5</w> 809306
3 0 809203
in vol 808796
anc e.</w> 808511
wom en</w> 808407
pri v 808243
occ up 807970
er r 807141
, ”</w> 806579
on es</w> 806467
g ar 805249
Hou se</w> 804741
hou se 804630
ta king</w> 804224
stor y</w> 803293
Ch rist 803139
b ac 803107
F oot 802859
loo king</w> 802384
4 )</w> 802319
f oo 802112
fe el 801889
h ur 801682
R ef 801674
ish ing</w> 801002
o thers</w> 800756
h un 800458
b al 800091
busin ess</w> 799286
w ards</w> 799141
con duc 798916
re qu 798846
p al 798524
jo ined</w> 798381
in f 798058
se par 797780
x im 797705
A n</w> 795497
as k 795258
re ached</w> 794813
her .</w> 794613
st .</w> 794426
s we 794424
de termin 794401
S en 794152
for man 794045
ing ton</w> 793190
me th 793156
c iv 793031
w ill 792604
establ ished</w> 792549
m ur 792441
l ic 792395
bl ack</w> 791599
de gre 791514
ph ys 791101
re - 790884
L u 790829
ni fic 790559
com ing</w> 789664
th - 789175
ti es.</w> 789004
iv er</w> 788671
mon ey</w> 788649
M i 788422
V ic 787631
F in 787336
ke y</w> 785525
s ."</w> 785499
p h</w> 785427
man ag 785039
le ave</w> 784849
en em 784540
on e.</w> 784382
C ath 784258
Indi an</w> 783181
M at 783088
6 )</w> 782202
p ,</w> 782134
5 )</w> 782126
D .</w> 781578
bec om 781384
r ul 780758
hand s</w> 780180
" Wh 779808
es pec 779716
P res 779495
' d</w> 779319
histor y</w> 776657
d le</w> 775955
A C 775771
ch ing</w> 775189
f ut 775026
par ty</w> 775008
Coun c 774261
C re 774061
v iv 773303
re spec 773256
mom ent</w> 773039
7 )</w> 772935
se arch</w> 772913
b all 772688
str ong</w> 772593
ed s</w> 772365
comm and 772303
includ e</w> 771712
est ed</w> 771605
sc en 771501
As soci 771069
b il 770469
enc es.</w> 768813
wi fe</w> 768570
8 )</w> 767950
some times</w> 767615
ach ing</w> 767606
er ous</w> 767480
min ut 767214
ec t 766690
J e 766157
mem ber 765995
' ll</w> 765866
li ving</w> 765663
3 0</w> 765279
do or</w> 765158
c .</w> 764934
g ri 764895
b es 764591
V ol 764317
prov id 763798
wro te</w> 763763
consider ed</w> 763673
2 4 762849
me as 762694
I ll 762643
B ro 761531
n ar 761526
am ,</w> 761168
k ind 760804
Dr .</w> 760729
su per 760246
di g 759715
an s,</w> 759492
cop y 758475
V ir 757995
for th</w> 757608
ind ic 756847
u l</w> 756229
M ag 754710
om in 752997
c all</w> 752223
ffer ed</w> 751864
thr ough 751727
B ra 751583
C ali 751252
sa y 750740
ast ern</w> 750588
si on,</w> 750558
sh ou 750351
Whi le</w> 750205
descri bed</w> 750095
Found ation</w> 749121
ent al</w> 748786
s mil 748603
as k</w> 748524
wor k,</w> 748224
er - 748102
an k 748068
Joh n 747900
al s,</w> 747786
J er 747642
buil d 747297
c ros 746806
comp ani 746247
tw ent 745957
. )</w> 745845
it y 744949
offic ial</w> 744131
in ning</w> 744046
s our 743889
Char les</w> 743741
maj or</w> 743671
de .</w> 743612
re ly</w> 743565
at ure</w> 743535
shi ps</w> 743415
any thing</w> 743214
et .</w> 742687
wor ked</w> 742593
em ent,</w> 742380
beli eve</w> 742042
ne arly</w> 741851
M er 741716
ac tion</w> 741409
ab ility</w> 741341
es sion</w> 741131
f le 741099
su pp 741007
iz ed</w> 740841
publ ic 740530
pro mis 740513
a j 740337
cre ated</w> 739237
on s,</w> 739182
end s</w> 738852
op s</w> 738007
del i 737357
B al 737327
part ment</w> 737243
tim e.</w> 736825
ing s.</w> 735760
tr ou 734486
car ried</w> 734394
fir e</w> 734323
fac t</w> 733894
f t 733416
sa ys</w> 733363
ad ,</w> 733047
w in</w> 732485
Al l 732245
c row 731975
J .</w> 731528
ound s</w> 730611
x ed</w> 729978
la ugh 728894
2 2 728371
us es</w> 728105
D em 727764
k ept</w> 727321
D is 727065
Europe an</w> 726844
k in 726410
M ac 726175
mil itary</w> 725253
18 4 724898
s -- 723749
sol di 723444
ore ,</w> 721777
it te 721671
Ma j 721665
as sist 721573
ec tion</w> 721530
1 1</w> 721008
B as 720826
espec ially</w> 720817
nat ural</w> 720720
Presid ent</w> 720185
st ep 720150
at er</w> 720002
ne igh 719505
b our 719340
Dav id</w> 719125
Ro yal</w> 718960
ex amp 718690
ep is 718643
we b 718112
In ter 717566
child ren 717363
er n 717083
un d</w> 716630
0 )</w> 716596
G RE 716022
S an</w> 715899
mus ic 714714
be auti 713641
ti es,</w> 713442
in j 713373
organi z 713239
ti g 712749
Mic ha 712315
for ni 712287
Coun ty</w> 712275
ther .</w> 712069
ar s</w> 711413
F il 711350
fre qu 711044
y e</w> 710928
charac ter</w> 710748
.. .</w> 710622
ast ,</w> 710474
Ger man 710401
y er</w> 710336
sy m 710277
rema ined</w> 709579
av ail 709291
de stro 709206
tain ing</w> 708885
H igh</w> 708720
ver sion</w> 708497
wa y,</w> 708330
tur al</w> 707998
ch urch</w> 707928
pre sid 707775
Ro bert</w> 707368
P at 706993
i ed</w> 706725
d at 706380
9 )</w> 705958
ne ed</w> 705740
p ul 705706
comp os 704869
Lond on</w> 703488
do m</w> 703412
ad y</w> 703348
Engl and</w> 703258
N o</w> 702724
simil ar</w> 702091
um ,</w> 701907
ac qu 701691
Cali forni 701652
os pit 700822
ar t 700492
si on.</w> 699523
princ ip 699476
ess ed</w> 698999
fe et</w> 698748
G l 698392
let ter</w> 698221
sh e 698126
oun d,</w> 697056
pa id</w> 695801
tr adi 695510
fron t</w> 694988
id enti 693606
I T 692889
for ce</w> 692846
t in 692007
an t,</w> 691784
ec u 691403
ini ti 691232
ar tic 690490
ure .</w> 690423
( " 690318
ob jec 690309
per forman 690211
ab le,</w> 690197
r an</w> 689944
g et 689578
el .</w> 689482
S ci 689481
ste ad</w> 689169
m en,</w> 688896
re ti 688885
B en 688684
1 6</w> 688505
C al 688306
c ast</w> 687790
Ch urch</w> 687737
* * 687580
on al</w> 687317
l er</w> 687231
ou t,</w> 687020
E ar 686661
tr ue</w> 686603
de l</w> 686447
ver ,</w> 686041
W ash 685866
centur y</w> 685711
p le</w> 685685
olog ical</w> 685391
ession al</w> 685331
play er</w> 685093
s ac 685077
b a 684634
foot ball</w> 684142
d ang 684057
us ually</w> 684049
as .</w> 683922
h u 683710
P or 683671
ell s</w> 682916
mat ter</w> 682500
char ge</w> 682455
sit u 682214
acc ess</w> 682210
v oc 681800
oo d,</w> 681055
x i 680305
A M 680285
R os 680257
z z 680237
1 4</w> 678834
r on 678785
p as 678642
re d 678607
mer c 678499
si x 678464
Gover n 677904
le ad</w> 677868
n a</w> 677836
pl es</w> 677803
re al</w> 677611
an e</w> 677055
c es</w> 676925
pla ying</w> 676681
wor king</w> 676471
dre w</w> 676220
_ _ 676184
land s</w> 675913
ap pointed</w> 675729
ing ly</w> 675630
r adi 675049
b it</w> 674531
c are</w> 673854
so ,</w> 673533
E ast</w> 673473
li am 673369
ess or</w> 673204
e )</w> 672817
Ill ustr 672750
Fir st</w> 672713
mar ri 672426
ser i 672245
2 3 672114
T er 671891
Gre at</w> 671340
f ound 671273
ex am 669950
ei ve</w> 669927
peri od</w> 669097
re ally</w> 669075
I m 668737
cer tain 668329
per c 668077
ac tiv 667930
th ough 667666
oun t</w> 667468
it self</w> 667415
he ar</w> 666996
tor y</w> 666703
il s</w> 665481
am b 665166
w ood</w> 664687
t our 664350
tor s</w> 663539
f f</w> 663086
S up 663057
es tiv 662832
w . 662798
ec onom 662061
Col lege</w> 661652
land .</w> 661594
up ,</w> 661578
f ell</w> 661280
vo ice</w> 660795
n on- 660395
/ / 660316
ing u 660105
prov ed</w> 659555
P au 659522
as h</w> 659243
P la 658780
f ar 658706
5 0 658365
poli tic 658365
It ali 657667
a king</w> 657593
ul arly</w> 656506
on i 656416
h ard</w> 656351
tur n</w> 656209
Thom as</w> 656206
e al 655820
S un 655768
self .</w> 655612
: // 655383
th ou</w> 655317
be y 655245
att en 654992
ww w. 654966
oc cur 654542
des ig 654528
N av 654366
No .</w> 653962
ar rang 653845
tt p 653824
h ttp 653296
Hen ry</w> 653141
ren g 652821
rec ord</w> 652357
g ,</w> 652026
charac ter 651917
em ent 651624
es :</w> 651063
seem s</w> 650613
ation :</w> 650514
nor th</w> 650376
S M 650252
R iver</w> 650100
Ref er 650043
I I</w> 650037
g er</w> 649956
im ag 649942
p ing</w> 649720
M id 649302
es cap 649005
recog ni 648957
tit le</w> 648930
e m</w> 648913
prov ide</w> 648890
wor d 648820
de fe 648336
wh at 648287
cl ass</w> 648195
anc ed</w> 647758
R I 647138
r a</w> 646837
acc ording</w> 646530
s atis 645892
O R</w> 645814
vo ic 644900
D ev 644585
elec ted</w> 644056
1 3</w> 643959
milli on</w> 643856
an ish</w> 643743
S am 643299
ei ght</w> 642680
sig n 642415
as hi 641937
in depend 641726
de fin 641584
br ing</w> 641385
il ,</w> 641348
announc ed</w> 641167
n a 640945
th en,</w> 640567
1 7</w> 640472
ti n</w> 640026
pol ic 639983
loc k</w> 639731
wa y 639729
fri end</w> 639264
ev ision</w> 638939
po int 638341
er g 638148
c ause</w> 637722
Pro f 637606
U N 637385
clu b</w> 637385
tu al</w> 637291
x ,</w> 637097
me et 636712
Histor y.</w> 636622
ex ic 636574
c ut</w> 636412
no te</w> 636318
2 6 636204
nat ure</w> 635849
oc r 635224
mod ern</w> 634755
P a 634477
ri ght 634151
offic e</w> 634148
Phi li 633935
T ri 633640
f ounded</w> 633461
per haps</w> 633267
out side</w> 632987
ber ,</w> 631980
cl ass 631464
J ew 631213
m ist 630854
en sive</w> 630845
m ad 629657
to tal</w> 628880
unic ip 628609
ell ed</w> 628594
ma kes</w> 628391
inter est</w> 628358
hop e</w> 628357
H am 628056
S ain 628016
prov ided</w> 627574
2 5</w> 627501
s ocial</w> 627474
cont ribu 627452
t ar 627147
S T 626986
in formation</w> 626617
se ven</w> 626410
chi ef</w> 625953
s ons</w> 625947
ha bit 625478
t - 625413
m a</w> 624431
law s</w> 624413
com peti 623890
te en</w> 623763
s ent 623664
Vir g 623257
vi de 622423
par ts</w> 622417
o red</w> 621682
add ed</w> 621323
sub ject</w> 621321
st reng 621258
des ign 620988
Christi an</w> 620098
form s</w> 619505
w ood 619344
D E 618852
I' ll</w> 618774
p il 618344
du ce</w> 618314
ch ur 618312
wor k.</w> 617819
2 7 617698
par ag 617649
u la 617619
Dist rict</w> 617446
t op 617367
pop ular</w> 616887
spec ial</w> 616821
ke ep 616761
am a</w> 616487
al ist</w> 616247
in - 616237
M exic 616035
wh y</w> 615936
' re</w> 615107
y l 614921
li ved</w> 614642
No t</w> 614420
a ther</w> 614091
Pro v 613820
k e,</w> 613735
H ow</w> 613657
P h 613640
k ing 613527
sub jec 613449
sou th</w> 612888
ear s</w> 612299
ent ered</w> 611857
0 s</w> 611651
ant ly</w> 611289
g un 610839
li e</w> 609829
enc ed</w> 609790
" Th 609723
ent er 609647
associ ated</w> 609598
los op 609319
as c 609295
P re 608954
whi ch,</w> 608950
un ity</w> 608789
pro gram 608388
l ess 608385
grad u 608301
w ide</w> 608112
H or 607784
L iterary</w> 607684
at e.</w> 606843
resul t</w> 606339
tion ed</w> 606236
as i 606167
th ing 605826
ist s</w> 605546
ri t</w> 605132
B ook</w> 604999
bo ard</w> 604798
W .</w> 604796
exc ept</w> 604668
e -- 604307
er e,</w> 604283
g la 604166
year s,</w> 604110
all .</w> 603989
I ts</w> 603969
tre at 603692
hal f 603430
C a 602936
qu ali 602820
er c 602791
ac tive</w> 602664
i ther</w> 602182
b lo 602131
ou s,</w> 601701
2 8 601534
Archi ve</w> 601093
Micha el</w> 600824
R .</w> 600779
dist rict</w> 600706
develop ment</w> 600468
m al 600365
sig nific 599516
tr ad 599330
v es,</w> 599257
ac hi 599025
g one</w> 598769
beg inning</w> 598527
prob ably</w> 598021
( S 597929
st op 597876
ati c 597851
con trac 597688
ex pla 597594
tre m 597454
gener ally</w> 597414
ide a</w> 597038
copy right</w> 596598
qu ick 596393
ne l</w> 596290
reas on</w> 596288
t a</w> 595945
fe el</w> 595714
e k 595534
and .</w> 595414
me et</w> 595246
y r 595223
stit ute</w> 595194
s at</w> 595180
dist inc 595135
pris on 595117
ound .</w> 594987
her self</w> 594763
year s.</w> 594699
mor ning</w> 594274
necess ary</w> 593621
ri g 593367
gent le 593344
D el 593062
l .</w> 592876
m ing</w> 592664
Qu e 592269
val u 592264
pro ble 591958
R u 591847
in ation</w> 591520
po t 591124
G ra 590592
Pau l</w> 590179
Cath ol 590133
comp an 589739
hi c 589608
ep h 589350
5 0</w> 589249
Rom an</w> 588912
com es</w> 588649
U S</w> 588629
Jap an 588439
n ess,</w> 588152
LE T 588031
fin e</w> 588024
be fore 587983
C ong 587875
s co 587599
si r 587583
si ble</w> 587333
long er</w> 586890
daugh ter</w> 586497
Coun ty,</w> 586382
br an 585708
c ust 585419
thous and</w> 585211
O ly 584811
th or 584242
ear li 584209
2 . 583704
T ra 583481
ob serv 583428
at or 583312
pro ce 583012
http :// 582971
v e.</w> 582455
w ish</w> 582085
lead ing</w> 581843
st one</w> 581129
ac t 581129
through out</w> 580855
su ffic 580818
Australi an</w> 580722
op ini 580119
accoun t</w> 579606
mo ve</w> 579491
le - 579415
mil es</w> 579086
Sch ool 578681
y our 578584
Y ou 578069
f all</w> 578048
Acc ording</w> 578019
A si 577813
self - 577686
18 3 577546
ti z 577503
ph o 577324
W om 577299
Mus e 577248
Refer ences.</w> 577213
curren t</w> 577178
GRE E 576850
org an 576827
S ta 576701
fut ure</w> 576470
th is,</w> 576439
pre v 576147
H u 576036
est s</w> 575982
g ard 575915
um ent 575771
( 198 575741
I ,</w> 575726
writ ing</w> 575659
won der 575636
L o 575521
ni ght 575208
S hi 575105
Jo se 574717
" It</w> 574262
F . 573417
it ation</w> 573406
s - 573134
st on</w> 572836
individ ual</w> 572377
cl as 572353
re pe 572250
f y</w> 572085
e ast</w> 572072
it ch 571780
fort un 571775
co - 571526
priv ate</w> 571111
to ,</w> 571031
produc tion</w> 570953
" A</w> 570672
m ach 569955
sp or 569861
st ed</w> 569840
Ac adem 569454
C la 569428
e ,"</w> 568968
ac y</w> 568564
Ale x 568343
A ir 567808
at .</w> 567793
al s.</w> 567789
str ong 567336
a u</w> 566279
f unc 566009
gir l</w> 564929
lif e,</w> 564710
care er</w> 564695
T V</w> 564462
t emp 564458
201 0</w> 564287
ubl ic 563671
G o 563560
an - 563547
al is 563415
CH AP 563402
partic ip 563177
in stead</w> 562952
.. . 562625
r y 562464
J es 562461
d es</w> 562316
low er</w> 562023
bro ad 561794
now ,</w> 561731
a ke</w> 560844
c u 560634
le vel 560354
l am 559742
sh ar 559365
{ ~ 559108
da y.</w> 559076
ag o</w> 558930
AL L</w> 558883
Gr ou 558846
B att 558708
ef ul</w> 558608
op port 558492
sc re 558447
" the</w> 558405
B or 558129
1 9</w> 557755
un g</w> 557454
et h</w> 557408
con stitu 557390
ov i 557202
chang ed</w> 557165
Di rec 556987
f eder 556953
prof essional</w> 556723
record ed</w> 556387
hand ,</w> 554432
h our</w> 554312
om b 554250
langu age</w> 554080
ish ,</w> 554062
por ts</w> 553743
I s</w> 553644
LET TER</w> 553206
ed :</w> 552858
C ast 552827
in k</w> 552755
h ow 552647
Pr inc 552589
ex t</w> 552436
con st 552198
ri s</w> 552148
in k 551314
S k 551271
y m 551241
ap plic 550999
es tim 550908
us "</w> 550841
circ um 550157
B a 550146
I re 550040
ri ver</w> 549680
" K 549614
g ain 549583
1 st</w> 549260
develop ed</w> 549086
0 . 548967
S im 548967
fa ther 548853
mar ked</w> 548776
allow ed</w> 548678
al - 548568
tow ard</w> 548253
ch est 547764
w as,</w> 547678
p ast</w> 547657
C A 547384
B .</w> 547343
fin ished</w> 546895
M el 546844
u k 546753
ro le</w> 546663
2 9 546257
loo d</w> 545831
se a</w> 545696
coun tri 545608
direc ted</w> 545229
H el 544861
O ther</w> 544588
Ar my</w> 544451
p ut 544389
L .</w> 544147
partic ular</w> 543938
w ise</w> 543710
al one</w> 543303
[ Illustr 543091
there fore</w> 542967
rap h</w> 542924
T or 542899
ir ,</w> 542641
ut y</w> 542626
S I 542620
p s,</w> 542570
an 's</w> 542273
S tr 542190
fic ation</w> 541918
F o 541785
F ri 541709
man .</w> 541515
j us 541127
d in 540965
lo t</w> 540965
chi ld</w> 540720
ab le.</w> 540445
CHAP TER</w> 540199
it 's</w> 539947
succ e 539876
t end 539856
g ood 539620
stud y</w> 539530
avail able</w> 539437
gu lar</w> 539112
ri ch</w> 538717
R A 538551
on s.</w> 538475
comp let 538385
ad ministr 538325
A ir</w> 538015
C up</w> 537984
of ,</w> 537926
ex per 537868
ast er</w> 537811
appe ar</w> 537134
dar k</w> 536906
pa y</w> 536766
1 – 536701
ed ing</w> 536536
ro ll 536499
commun ity</w> 536033
l iter 535767
b y 535757
S m 535627
Pet er</w> 535480
gu it 535464
la un 535252
it z 535041
lat ter</w> 534766
Counc il</w> 534614
an al 534383
in ess</w> 534350
inter national</w> 533958
l es,</w> 533365
b le,</w> 533340
K ar 532918
ter m</w> 532889
en jo 532664
great er</w> 532610
H igh 532560
k illed</w> 532437
M et 532393
am ed</w> 532145
mul ti 531932
le vel</w> 531655
t ures</w> 531413
bey ond</w> 531361
bro ther</w> 530854
E li 530533
b ow 530378
ish op</w> 530357
ag g 529865
ell ing</w> 529650
S ar 529644
wa y.</w> 529540
C O 529480
arm s</w> 529304
H .</w> 529247
sen se</w> 528999
em ent.</w> 528929
spe ak</w> 528326
th es 528194
sc ar 528024
Stat es.</w> 528015
pro jec 527938
W at 527859
t y.</w> 527772
m ir 527638
la id</w> 527299
N ow</w> 527098
D ar 527064
J ud 526925
sec re 526679
mor n 526645
1 , 526629
t echn 526514
s old</w> 526506
peri od 526462
on ed</w> 526407
m el 526255
10 0</w> 526024
P op 525854
previ ous</w> 525828
contro l</w> 525637
other ,</w> 525618
The ir</w> 525557
GREE K</w> 525532
bi g</w> 525114
Cap tain</w> 524986
lin es</w> 524587
E g 524551
ec h</w> 524094
res ol 523976
a )</w> 523966
comp et 523872
st ates</w> 523813
R el 523789
prac tic 523763
con v 523419
E r 523343
poin ts</w> 523341
p an 523228
un te 523141
s li 522646
{~ GREEK</w> 522579
sa y,</w> 521621
N i 521586
beauti ful</w> 521548
giv ing</w> 521467
Rich ard</w> 521323
leng th</w> 521267
w anted</w> 521025
again ,</w> 520997
B ut 520937
t an 520694
l u 520407
dec ided</w> 520337
de t 519997
ta kes</w> 519734
ne t</w> 519637
scri p 519434
Sp ec 518806
tel evision</w> 518519
al ed</w> 518357
man u 518260
knowle dge</w> 518176
p ite</w> 518053
bo y</w> 517762
and er</w> 517632
E S 517475
uni vers 517431
l ist</w> 516530
in '</w> 516329
SM ALL</w> 516265
S um 515932
mon ths</w> 515859
wh ere 515782
th en 515612
Cent ral</w> 515340
y a</w> 515145
w is 515019
friend s</w> 514777
ra ised</w> 514752
and s</w> 514265
Tw o</w> 514206
cam pa 514000
agre ement</w> 513916
ty p 513454
inc reas 513378
s ound</w> 513245
heav y</w> 512973
Russi an</w> 512971
S ol 512925
sur r 512803
ex hi 512692
T hi 512571
year ,</w> 512439
cle ar</w> 512408
fer ence</w> 511779
rec eive</w> 511630
d res 511503
Rec ord 511491
ust ri 511414
ques tion</w> 511224
p ati 510916
1 - 510895
li ber 510392
H on 510340
ri c</w> 510237
car ri 510114
T ex 510076
d ol 509794
Ang el 509776
r y,</w> 509681
S ing 509512
um e</w> 508931
ul t</w> 508551
bl ed</w> 508191
stud ents</w> 507948
me an</w> 507926
forc ed</w> 507854
─ ─ 507735
west ern</w> 507701
" What</w> 507582
gra ph 507498
ed ly</w> 507417
bu l 507395
de ep</w> 507257
r ace</w> 507021
p et 506599
b at 506230
g ol 505770
ac e 505725
anc ient</w> 505505
ent ed</w> 505501
ou d</w> 505427
) ;</w> 505375
B est</w> 505349
sud den 505083
pres er 504883
og rap 504857
It 's</w> 504686
ship ,</w> 504577
Canad ian</w> 504313
gra m</w> 504024
dec la 503925
person al</w> 503550
th ro 502897
bu t 502701
A T 502667
p ass</w> 502570
w all 502312
-- the</w> 501334
c amp 501307
v ice</w> 501278
R ail 501140
" And</w> 501026
eff ect</w> 500758
1 00 500554
cri tic 500382
li v 500323
M os 500309
S o 500182
see m</w> 500090
pr in 500056
jud g 499868
des er 499758
disc us 499666
s ort</w> 499364
201 1</w> 499352
tri ed</w> 499272
Par k</w> 499269
ther e,</w> 499107
in e.</w> 498959
s ,"</w> 498806
ad op 498569
Oly mp 498539
de ta 498481
p un 498439
bel ong 498365
gr and 498353
care er.</w> 498279
West ern</w> 497931
hi ll 497697
said .</w> 497654
per formed</w> 497493
N ic 497454
r d</w> 497434
run ning</w> 497379
ser ve</w> 497357
ograph y.</w> 496739
leav ing</w> 496596
c au 496412
aver age</w> 496321
Sp anish</w> 495870
hous e,</w> 495606
G ar 495550
w it 495387
200 6</w> 495125
al low</w> 494902
it ec 494835
Chi c 494791
reg ul 494748
I tal 494567
wor th</w> 494468
g ro 493816
der iv 493696
Ch ur 493516
cop y</w> 493504
am .</w> 493486
don ations</w> 493285
de al</w> 493232
an o</w> 493127
sh or 493105
M any</w> 493006
ni ght,</w> 492851
L uc 492804
w el 492423
ar my</w> 492296
wi f 492278
( _ 492176
E duc 491959
ou te</w> 491812
2 4</w> 491801
fam ili 491665
im pres 491604
Mar i 491388
4 0 491114
ld n't</w> 491078
re gular</w> 491013
Fr ance</w> 490992
att ac 490830
ment al</w> 490620
des c 490584
n ess 490539
per form 490186
F ol 489887
int en 489699
th i 489601
my self</w> 489545
Itali an</w> 489234
2 1</w> 488635
e z 488567
re ported</w> 488537
Col on 488372
Al though</w> 488337
R a 488068
tr ack</w> 487744
E arly</w> 487622
id es</w> 487582
ard .</w> 487175
sy n 486937
itte e</w> 486815
s low 486745
B re 486564
pur su 486420
ur b 486042
cri p 485549
sp ent</w> 485243
A ward</w> 485004
well - 484905
Cour t</w> 484803
st - 484623
Div ision</w> 484490
cri ed</w> 484351
sa f 484128
200 8</w> 484019
tu red</w> 483720
servic es</w> 483331
L ady</w> 483273
S il 482881
f ru 482673
S he 482419
st ly</w> 482266
on 's</w> 482142
Is ra 482139
t able</w> 482065
adv ant 481987
ac e,</w> 481964
u b</w> 481775
at trac 481663
2 – 481392
s l 481292
ur y</w> 481243
J ack 481169
vi a</w> 481027
origin ally</w> 480715
G .</w> 480524
) :</w> 480480
or s,</w> 480465
appear ance</w> 480202
M ost</w> 479926
o l</w> 479589
pur ch 479562
O N</w> 479557
religi ous</w> 479458
O ld</w> 479411
hour s</w> 479266
requi red</w> 479261
pow er 479107
appear s</w> 479096
S ince</w> 479090
W in 478926
-- and</w> 478822
l es 478561
con ven 478107
pro g 477939
Br it 477860
resp ond 477653
de ep 477521
C ur 477271
at ed,</w> 477260
au di 477244
L ic 476725
AN D</w> 476553
g ames</w> 476457
M ur 476354
B et 476224
high er</w> 475671
g old</w> 475610
li fe 475327
E S</w> 475290
Govern ment</w> 475220
M ary</w> 475199
star t</w> 475016
K e 475013
b ol 474450
b ility</w> 474227
n y</w> 474209
degre e</w> 473917
por tion</w> 473881
phi losop 473614
G al 473472
Japan ese</w> 473411
Le g 473359
T om 473245
c ut 473069
re ve 472927
3 – 472917
comm is 472622
j ourn 472583
is c 472567
con sequ 472470
ca used</w> 472095
t ric 471850
re d,</w> 471792
fel low 471518
writ er</w> 471255
( 197 470731
includ es</w> 470651
comple te</w> 470592
leg al</w> 470528
f un 470364
s ",</w> 470243
Associ ation</w> 470230
desig ned</w> 470157
201 2</w> 470136
partic ularly</w> 469975
larg est</w> 469838
B ul 469800
sh own</w> 469528
edi tion</w> 469290
Car ol 469272
Uni on</w> 468803
Chin ese</w> 468682
p on 468384
der ,</w> 468365
vir on 468321
la im 468208
ati ves</w> 468026
. [ 467961
der ed</w> 467780
did n't</w> 467547
clo sed</w> 467327
De partment</w> 467028
man 's</w> 466527
b on 466055
addi tional</w> 465837
re search</w> 465756
sub sequ 465497
V en 465341
O p 465233
circum st 465038
adem ar 465023
ver s</w> 464790
T .</w> 464717
c li 464455
fam ous</w> 464423
V .</w> 464313
m unicip 464297
sh ot</w> 464193
Virg ini 464136
di e</w> 464063
for ward</w> 463940
um ent</w> 463460
pl at 463437
6 – 463399
m as 463307
web site</w> 463306
num erous</w> 463255
de ad</w> 462673
commun ic 462402
a x 462359
ill s</w> 462330
boo ks</w> 462260
form ula 462134
ar g 462040
well ,</w> 461716
ar .</w> 461575
av o 461549
influ ence</w> 461295
M em 461146
m os 460782
bri dge</w> 460477
La ke</w> 460460
ar ies</w> 460028
fil e</w> 459944
D o</w> 459824
B C</w> 459738
us h</w> 459722
feat ures</w> 459667
d y</w> 459520
re fl 459486
200 9</w> 458994
ou t.</w> 458934
~ } 458591
y al 458518
con ver 458156
F eder 458072
immedi ately</w> 457991
fa il 457776
m ary</w> 457705
c e,</w> 457522
sci enti 457295
H ow 457279
er ial</w> 457203
P .</w> 456987
re vol 456824
cent ral</w> 456752
ev en 456577
z a 455710
eng ine 455412
addi tion</w> 455306
est ,</w> 455286
N ot 455248
g lo 455226
2 2</w> 454605
per m 454386
car ry</w> 454326
elec tion</w> 454242
L a</w> 454227
C as 454183
dis covered</w> 454061
k a</w> 453916
n ation 453877
tr ademar 453780
pur pose</w> 453647
G en 453641
cl ub 453623
lik ely</w> 453434
proper ty</w> 453317
Ma y 453246
sm all 453239
roc k</w> 453152
er ly</w> 453054
att ack</w> 452455
L aw 452234
id ,</w> 452230
se t 451959
S ur 451954
Par liam 451876
si ght</w> 451759
ush ed</w> 451688
D o 451426
acc ep 451364
in o</w> 450613
st age</w> 450581
ty pe</w> 450540
A p 450485
ow s</w> 450153
3 5 450113
collec tion</w> 449535
Stre et</w> 449167
E C 449158
r ate</w> 449101
sp ap 448838
t ed,</w> 448699
th ou 448508
com pl 448465
de ar</w> 448430
a y,</w> 448429
c le</w> 448353
rel ated</w> 447974
r o</w> 447810
th ing,</w> 447801
h ood</w> 447639
seas on.</w> 447616
cour t</w> 447615
U p 447588
man ner</w> 447430
do ing</w> 447108
ali z 447095
S qu 447011
s bur 446876
cra ft</w> 446670
C he 446247
n av 446237
op en 446071
chi ef 446019
ne ither</w> 445967
[Illustr ation:</w> 445946
tu ally</w> 445887
F .</w> 445507
T re 445008
er "</w> 444943
k et</w> 444779
get ting</w> 444632
f und 444466
g .</w> 444388
D ou 444108
f al 443900
tal k</w> 443858
sid e,</w> 443790
too ,</w> 443746
parag raph</w> 443706
direc tly</w> 443638
ic ally</w> 443495
ent h</w> 443483
j our 443366
rep lied</w> 443088
200 7</w> 443002
P enn 442734
H um 442700
gre w</w> 442645
ric ul 442466
X X 442118
f oc 442109
a i</w> 442021
tem per 441697
ordin ary</w> 441592
ed it 441583
high est</w> 441298
Wh it 441281
al d</w> 441276
v al</w> 441171
dist ance</w> 440947
rema in</w> 440801
ou red</w> 440578
z i 440494
Pr ince</w> 440431
ex ecu 440392
cour se,</w> 440353
sum mer</w> 440338
happ y</w> 439922
sec ond 439759
mat ch</w> 439606
you .</w> 439338
M A 439332
col on 439311
intro duced</w> 439101
dist ric 439002
Mu sic</w> 438778
air s</w> 438749
l v 438624
Gr and</w> 438614
( )</w> 438504
l in</w> 438474
f illed</w> 438253
can 't</w> 438178
in str 438168
Par ty</w> 438065
T ro 438032
el y,</w> 437932
I' ve</w> 437931
3 . 437911
lab or 437697
i - 437668
un less</w> 437627
I L 437618
b .</w> 437568
e th 437556
attemp t</w> 437543
shi p.</w> 437538
f ro 437416
d ate</w> 437299
in al</w> 437245
ro se</w> 437216
" But</w> 437122
3 6 437109
b ound</w> 437032
o ffered</w> 436869
e ar</w> 436685
ref er</w> 436558
piec e</w> 436402
Cathol ic</w> 436323
lo g 436233
again .</w> 436072
ti l 436052
. _ 435970
B ir 435912
o x 435678
bel ow</w> 435428
be l</w> 435368
do w</w> 435152
c uri 434978
show s</w> 434901
Hist ory</w> 434891
manu fac 434831
believ ed</w> 434818
y ."</w> 434802
cop ies</w> 434657
success ful</w> 434417
individ u 434207
E lec 434050
ta x</w> 433843
u li 433650
low ing</w> 433628
sec tion</w> 433607
b ad</w> 433425
ed ic 433342
at ory</w> 433232
atten tion</w> 433214
c ost</w> 433208
der .</w> 433203
formula _ 433180
E v 432931
up .</w> 432778
exp ected</w> 432774
T own 432727
y :</w> 432655
p age</w> 432642
2 3</w> 432584
auth or</w> 432577
d ' 432492
4 – 432489
n ative</w> 432383
pho to 432247
h ospit 432222
c lim 432111
des ign</w> 431802
ad ed</w> 431778
el d</w> 431573
vil le</w> 431519
5 – 431380
ag ree</w> 431373
f ashi 431016
n d</w> 430461
at 's</w> 430322
ver se</w> 429935
vide o</w> 429835
ev ent</w> 429672
ver .</w> 429583
s in 429165
ter s,</w> 429088
read ing</w> 428852
L ab 428823
ic i 428793
enti re</w> 428706
ev ents</w> 428646
D en 428583
le y,</w> 428496
bre ak 428440
’ t</w> 428307
sa ve</w> 428183
res er 428147
op ening</w> 428142
sp ace</w> 428074
il .</w> 427958
Min ister</w> 427907
cre d 427894
L A 427587
st e</w> 427425
e u 427408
ap paren 427288
w ou 427148
ci tiz 427125
show ed</w> 426970
Eg yp 426876
cel ebr 426766
c ru 426758
il e</w> 426640
year .</w> 426528
d og 426148
II .</w> 425996
" ),</w> 425955
Fl or 425899
ben ef 425865
gu n</w> 425327
giv es</w> 425298
curren tly</w> 424865
or ial</w> 424735
N at 424605
forc es</w> 424539
doub t</w> 424522
sup por 424469
Rep ublic 424440
s am 424231
v isi 424082
2 - 423944
arri ved</w> 423784
fi gh 423762
201 4</w> 423666
d a</w> 423628
fer red</w> 423540
in struc 423420
gre en</w> 423164
construc tion</w> 423144
ar y.</w> 423022
J am 422914
Ar ch 422619
mo ther 422347
op pos 422323
M oun 422287
R ob 422226
le d,</w> 422161
sty le</w> 422099
are ,</w> 422045
half - 422006
m ut 421957
4 - 421941
s ens 421849
list ed</w> 421827
mis sion 421552
ep tion</w> 421490
ing ing</w> 421489
( C 421437
an ch 421392
br ary</w> 421105
ch ec 420981
peop le,</w> 420782
H o 420774
ari an</w> 420667
~} {~GREEK</w> 420663
w as 420551
7 – 420175
201 3</w> 419947
ig r 419859
T el 419769
vis it</w> 419670
En g 419467
. org 419418
c ab 419417
regi on</w> 419299
four th</w> 419281
ar m</w> 419241
merc ial</w> 419160
ad .</w> 419129
spi rit</w> 419073
eas ily</w> 418970
se x 418944
pap er</w> 418800
ow er</w> 418643
at ed.</w> 418617
us ual</w> 418494
and ed</w> 418053
an s.</w> 417965
distribu tion</w> 417851
in stitu 417723
l li 417274
ani a</w> 417240
ag e 417020
Soci ety</w> 416971
inv es 416944
Gre ek</w> 416776
E s 416435
mar k</w> 416324
lim ited</w> 416065
u n</w> 416039
represent ed</w> 415994
an '</w> 415939
el i 415680
be aut 415592
att ended</w> 415434
rang e</w> 415432
Sw ed 415371
present ed</w> 415289
ing ;</w> 415158
spo ke</w> 415039
R ed</w> 414943
it able</w> 414923
tra v 414880
consider able</w> 414752
17 9 414712
comple ted</w> 414459
no t,</w> 414414
F am 414327
over ,</w> 413991
n one</w> 413318
dist ingu 413317
answ ered</w> 413144
18 0 412940
si ze</w> 412908
m ess 412881
los s</w> 412866
new spap 412500
D or 412391
strang e</w> 412179
vol unte 411626
y el 411569
Col um 411521
inves tig 411320
k er 411173
F I 411158
de but</w> 411129
proc ess</w> 411095
= = 410989
im ent</w> 410971
( the</w> 410840
feel ing</w> 410707
D ut 410584
O ' 410395
under stand</w> 410257
room ,</w> 410074
de b 409945
educ ation</w> 409931
sp r 409830
ast .</w> 409460
is ing</w> 409278
  k 409021
i es,</w> 409007
f arm 408812
f ood</w> 408744
b le.</w> 408656
cl ud 408520
fil m 408459
Ac t</w> 408439
man n 408331
ed y</w> 408260
con sci 408027
n es 407956
f ast</w> 407912
por ary</w> 407796
i f 407750
su s</w> 407726
L y 407687
Ir ish</w> 407681
sudden ly</w> 407636
nor thern</w> 407539
i i.</w> 407426
fol low</w> 407329
V o 407183
am ount</w> 407157
L at 406645
ef ore,</w> 406526
mid dle</w> 406428
exp lo 406360
P en 406330
fur n 406329
s end</w> 406173
ul l</w> 406063
pro min 406006
n omin 405910
tor ,</w> 405765
In stitute</w> 405549
0 s,</w> 405485
ent s,</w> 405387
2 8</w> 405377
Indi a</w> 405101
is s 405083
T i 405081
mag az 405022
plac es</w> 404941
r on</w> 404818
bre ak</w> 404735
y )</w> 404654
every thing</w> 404246
e uten 404242
Ar t</w> 404095
spir it 404011
od s</w> 403996
c ar</w> 403988
Ed ward</w> 403675
t est 403665
H ere</w> 403601
b e,</w> 403591
wh o,</w> 403520
ty - 403461
ter ri 403353
foo t</w> 403348
2 6</w> 403169
draw n</w> 403087
con fir 403054
b es</w> 403036
qui red</w> 402998
uc k</w> 402889
mar ket 402855
re ach</w> 402813
ma ster</w> 402619
auth or 402397
sur viv 402335
plac e,</w> 402238
M as 402191
C r 402102
3 - 402059
fe ar</w> 401884
add res 401703
ech an 401480
phys ical</w> 401224
Cl ub</w> 401189
fore ign</w> 401170
the at 401163
de vo 401059
f ing 400953
go es</w> 400488
fa ir</w> 400346
un t</w> 400343
order ed</w> 400224
pret ty</w> 399855
b lood</w> 399779
er a</w> 399530
H all</w> 399394
fem ale</w> 399240
minut es</w> 398979
St e 398959
her e,</w> 398899
S t</w> 398664
St udi 398538
te ach 398160
event ually</w> 397924
ter rit 397887
ab le 397531
Comp any</w> 397251
ri ghts</w> 397241
seas on,</w> 397210
int el 397066
batt le</w> 396808
S at 396789
le ague</w> 396771
sh o 396669
ist ,</w> 396605
st ated</w> 396586
ture .</w> 396409
fin ally</w> 396355
O b 396322
2 7</w> 396322
ric k</w> 396231
w ,</w> 396198
ent s.</w> 395897
D I 395883
Afric an</w> 395867
rema ins</w> 395690
pro duce</w> 395488
S ub 395370
evid ence</w> 395361
ind ustr 395213
enti rely</w> 395192
him self,</w> 395085
wh it 394971
spe ak 394699
D oc 394547
rele ase</w> 394362
c ell 394231
pro ve</w> 394082
201 5</w> 394067
1. F. 393947
C E 393930
wil d</w> 393647
w ear 393400
e Boo 393215
certain ly</w> 393124
anc y</w> 393115
invol ved</w> 393085
re placed</w> 393078
C ro 392938
bl ue</w> 392912
pres s</w> 392874
fl ic 392852
trans l 392569
direc tor</w> 392542
fe e</w> 392464
B ec 392294
Au gu 392247
ture ,</w> 392209
oo ds</w> 392202
v es.</w> 392126
bo ys</w> 391912
other .</w> 391902
duc tion</w> 391655
tw el 391577
nam es</w> 391498
Vic tor 391416
J ack</w> 391347
"O h,</w> 391234
sett le 391147
Li ber 391097
char g 390978
sou thern</w> 390846
no vel 390840
G ol 390823
pa ir</w> 390775
qu e 390725
ow .</w> 390564
C ri 390536
K h 390242
Bl ack</w> 390163
pro gram</w> 390149
r ad 390088
ward ,</w> 390003
al tern 389836
no tic 389527
C are 389356
bro ken</w> 389271
el ess</w> 389205
er s 389178
sk y</w> 389015
ro r</w> 388986
se at</w> 388840
fin anc 388424
ra y</w> 388209
sch ol 388127
win ning</w> 387780
ant s,</w> 387664
pres ence</w> 387657
S pr 387610
Americ a</w> 387518
feat ured</w> 387311
s mo 387304
sp l 387218
3 8 387201
is on</w> 387196
es )</w> 387161
Y oun 387009
um .</w> 386932
ener g 386754
im m 386501
T om</w> 386382
et t 386367
ish ment</w> 386243
pp ing</w> 386153
K ore 386011
exc laim 385838
hous es</w> 385703
s n 385664
requi re 385492
Dem ocr 385203
oo d.</w> 385136
r am 385115
3 4 385071
ow ned</w> 384935
3 7 384705
bro ke</w> 384673
conf id 384578
n ine</w> 384528
he al 384348
b al</w> 384312
hus band</w> 384134
cust om 384133
meet ing</w> 383970
dar k 383945
fi ght</w> 383883
comm and</w> 383867
Jose ph</w> 383733
coun c 383723
sa ying</w> 383645
fel low</w> 383280
Chi ef</w> 382979
pa y 382681
f er</w> 382600
C lar 382597
at ors</w> 382415
appro xim 382353
z a</w> 382258
some what</w> 382248
J on 382200
g utenber 382080
Sec ond</w> 382080
great est</w> 382079
cau ght</w> 382053
ut er</w> 381807
sp read</w> 381717
gutenber g 381616
http:// www. 381439
direc t</w> 381288
a e</w> 381193
ei gh 381158
er o 381119
Stat es,</w> 380954
head ,</w> 380856
I N</w> 380836
2 nd</w> 380761
int ended</w> 380687
con tr 380677
Z eal 380540
is s</w> 380539
U R 380306
nat ur 380249
new s</w> 380223
S E 380194
sp ort</w> 380068
val ue</w> 379998
foot ball 379943
ch em 379798
i es.</w> 379766
Pe op 379712
inc id 379561
con tains</w> 379501
difficul t</w> 379456
ar ing</w> 379369
D un 379354
R ed 379330
mat eri 379178
( 196 379174
d s,</w> 379015
ret ary</w> 378845
cas es</w> 378777
t om 378694
A no 378426
Wh ite</w> 378338
por tra 378272
can did 378264
Foot ball</w> 378193
Muse um</w> 378066
succ ess</w> 378049
ur ity</w> 378008
e ag 377942
Sec tion</w> 377877
gir l 377811
201 6</w> 377394
Nor thern</w> 377364
struc k</w> 377259
H al 377175
sub st 377051
larg er</w> 376809
se l</w> 376433
twent y</w> 376385
pol ice</w> 376379
becom ing</w> 376347
te l</w> 376295
bo at</w> 376266
com par 376256
O per 376213
c over</w> 376156
previ ously</w> 375984
r i</w> 375916
F ur 375841
fa ir 375710
f ear 375631
mov ing</w> 375573
N O 375545
our s</w> 375514
I S</w> 375459
P ublic</w> 375290
M ill 375241
se arch 374948
ill ustr 374863
A G 374754
F estiv 374748
R am 374746
pl an</w> 374704
cont em 374403
ev ening</w> 374342
decla red</w> 374260
t ol 374084
a ther 373915
simp ly</w> 373822
aw arded</w> 373666
ish es</w> 373621
we ek</w> 373557
i a,</w> 373474
" J 373470
O ur</w> 373310
world .</w> 373261
epis ode</w> 373243
blo od 373161
tra ining</w> 372865
pla ys</w> 372791
ph r 372763
sum ed</w> 372633
fig ure</w> 372345
id s</w> 372157
C at 371916
ti ll 371913
mo di 371695
cap ital</w> 371692
A B 371469
O x 371446
r ying</w> 371407
ic a</w> 371372
ali zed</w> 371243
ord ers</w> 370843
res h</w> 370648
hor se</w> 370475
incre ased</w> 370374
Du ke</w> 370325
ag es,</w> 369987
Offic ial</w> 369980
g er 369805
( or</w> 369357
f la 369292
u ght</w> 369264
a ur 368983
sig n</w> 368726
Cent er</w> 368667
ob ject</w> 368543
fa ther,</w> 368493
te ams</w> 368454
con vers 368352
Champion ship</w> 368238
5 - 368138
des i 367856
Academ y</w> 367803
see ing</w> 367682
wor ld,</w> 367412
F e 367330
cla im</w> 367298
. " 367155
k ing,</w> 366935
mou th</w> 366815
c old</w> 366685
ter s.</w> 366620
c hampion 366540
b ed 366477
our ,</w> 366455
6 - 366437
Lou is</w> 366205
ic ,</w> 366100
cha p 366097
n ess.</w> 365975
tro ops</w> 365946
mean ing</w> 365933
becom es</w> 365905
D a 365582
simp le</w> 365536
Wash ington</w> 365453
Qu een</w> 365259
be ar</w> 365125
4 0</w> 365115
answ er</w> 365050
presid ent</w> 365009
2 9</w> 364883
el op 364699
Grou p</w> 364626
Ju li 364572
M ass 364487
ey e</w> 364365
Prof essor</w> 364365
I l 364248
ass em 364084
rel ation 363961
N B 363775
lear ned</w> 363754
re member 363717
an t.</w> 363483
C iv 363364
re mark 363208
un t 363138
com mercial</w> 363038
ent r 362922
li ance</w> 362841
vari ety</w> 362734
sy lv 362412
we ight</w> 362398
rail way</w> 362336
is "</w> 362233
ound ing</w> 362023
at a</w> 361873
achi ev 361676
c ro 361661
wat er,</w> 361642
8 0 361601
per mission</w> 361596
ch ance</w> 361435
IN G</w> 361312
pass ing</w> 361188
quick ly</w> 360952
M y 360817
ri d 360724
9 – 360613
f t,</w> 360345
e ",</w> 360307
experi ence</w> 360223
rec i 360182
reas on 360043
re port</w> 359931
8 – 359730
o 's</w> 359474
hi t</w> 359307
sle ep 359225
perf ec 359181
G ir 359169
ga ther 358999
Per son 358866
neigh bor 358833
radi o</w> 358800
hard ly</w> 358525
is land</w> 358489
P an 358398
bl ing</w> 358347
song s</w> 358172
ga in</w> 358126
Au stri 358109
c av 357905
" We</w> 357863
rele as 357535
f oun 357383
m al</w> 357143
ran k</w> 357119
sou l</w> 357023
ig u 357017
per sons</w> 356904
Re gi 356858
bo ard 356811
mov ement</w> 356774
lat er,</w> 356711
ris e</w> 356653
T ran 356402
Be fore</w> 356389
su ffer 356265
ma y 356230
co ach</w> 356135
mer ely</w> 356086
st op</w> 355962
claim ed</w> 355920
prev ent</w> 355821
L et</w> 355741
pro ject</w> 355495
bo di 355481
C y 355300
tra in</w> 355199
inc or 355183
w ind</w> 355177
C ul 355099
st ay</w> 355001
M I 354911
sel y</w> 354683
l es.</w> 354662
cor rec 354601
s on.</w> 354540
pa in</w> 354507
in s,</w> 354413
min ist 354352
Maj or</w> 354282
Lond on,</w> 354162
200 5</w> 354120
str y</w> 353985
s ".</w> 353895
Ano ther</w> 353639
M E 353620
sa il 353538
mon th 353519
pe l</w> 353479
Ar th 353443
or ing</w> 353338
en a</w> 353032
hol ding</w> 352878
men tioned</w> 352654
200 0</w> 352603
s tic 352505
G il 352448
stat us</w> 352212
o ' 352032
ti vi 351720
determin ed</w> 351715
lad y</w> 351606
u ff 351477
St ar 351353
dg e,</w> 351302
eas y</w> 351291
tw o- 351269
offic er</w> 351132
um ents</w> 351111
H av 351034
he alth</w> 350819
si t</w> 350567
Li fe</w> 350545
x .</w> 350526
ash ed</w> 350487
on e- 350483
wr ite</w> 350333
prov inc 350105
independ ent</w> 350056
c ham 350001
effor ts</w> 350000
adm ir 349865
tr ying</w> 349546
th u 349484
is l 349392
as su 349345
an i</w> 349239
compos ed</w> 349142
o "</w> 348998
it ;</w> 348994
are as</w> 348986
provid ing</w> 348923
ill ,</w> 348899
des ire</w> 348897
es '</w> 348873
T al 348872
num ber 348870
S id 348804
B ud 348677
ing ton,</w> 348343
reg ard</w> 348342
li ves</w> 348284
H y 348223
St eph 347904
J us 347855
' ve</w> 347838
sa v 347753
F ar 347610
is tic</w> 347553
cha ir 347521
Sou thern</w> 347450
li gh 347403
g all 347364
arch itec 347308
pre par 347129
rema ining</w> 346804
shou l 346627
my ster 346592
es ."</w> 346565
on line</w> 346555
200 4</w> 346466
P aci 346459
ant a</w> 346395
sus p 346378
) "</w> 346328
ab sol 346300
"W ell,</w> 346232
performan ce</w> 346211
G am 346123
s light 346121
or ies</w> 346073
col lege</w> 346061
tra vel 345999
D ef 345926
incre ase</w> 345879
tour nam 345860
offic ers</w> 345854
agre ed</w> 345824
wor ks.</w> 345788
ell a</w> 345727
Californi a</w> 345564
equ ip 345550
exc ell 345521
ic h</w> 345490
ber g</w> 345360
bu t,</w> 345228
Penn sylv 345218
me ant</w> 345194
3 9 344987
0 – 344853
c k 344784
hol ds</w> 344784
" V 344731
z ,</w> 344638
F ore 344613
contin ue</w> 344378
perf ect</w> 344371
S ovi 344285
e e</w> 344268
pro per</w> 344230
mat erial</w> 344211
run s</w> 344019
b ase</w> 343908
vis it 343892
In formation</w> 343853
ex erc 343807
J ac 343767
y -- 343554
al ong 343454
R h 343387
ent er</w> 343048
Geor gi 342955
R adi 342892
lin ed</w> 342760
dom in 342750
Ar m 342228
int ell 342163
acc id 342096
frequ ently</w> 342056
za be 342005
el se</w> 341833
ther e.</w> 341818
countr y,</w> 341768
shi re</w> 341513
b ing</w> 341510
ac es</w> 341327
sur face</w> 341283
ac tually</w> 341231
descri p 341191
Euro p 341131
i o</w> 340969
inde ed</w> 340847
an nel</w> 340788
let ters</w> 340663
h a</w> 340614
defe ated</w> 340562
th ing.</w> 340532
struc ture</w> 340518
cri min 340517
W ol 340306
en viron 340161
L os</w> 340138
pa red</w> 339993
re view 339891
keep ing</w> 339887
h e,</w> 339869
t un 339838
f ast 339451
Lic ense</w> 339318
div ision</w> 339306
intel lig 339294
Col leg 339230
play ers</w> 339206
.. .. 339145
wee k 339115
lo v 339049
Mon t 338983
tru th</w> 338872
bl es</w> 338833
Yor k 338808
te :</w> 338652
it ting</w> 338511
h at 338444
e ase</w> 338419
R en 338164
own er</w> 338113
tr ade</w> 337746
le 's</w> 337724
equ al</w> 337705
ain ,</w> 337684
up per</w> 337634
re member</w> 337564
3 : 337560
sh are</w> 337556
de st 337389
re plac 337380
after no 337373
ti s</w> 337317
po et 337290
? '</w> 337255
R og 337083
ver si 336965
v an 336912
4 5 336900
refer red</w> 336815
ab il 336734
ad ap 336713
signific ant</w> 336705
T echn 336626
Is land</w> 336560
separ ate</w> 336540
div ided</w> 336177
princip al</w> 335968
Eli zabe 335961
se vent 335922
dom ain</w> 335892
Res ear 335679
Mar k</w> 335450
ing :</w> 335306
twent y- 335198
ati n</w> 335053
Bra z 335041
wor ks,</w> 334959
prac tice</w> 334951
pur pos 334886
e y,</w> 334869
a ks</w> 334735
dra w</w> 334711
im prov 334675
** *</w> 334673
em o 334396
K o 334326
r ough</w> 334149
ap ol 333995
B us 333795
it a</w> 333790
t ed.</w> 333646
ic e,</w> 333541
m ere</w> 333505
l ack</w> 333371
k y</w> 333335
opport unity</w> 332951
fac e,</w> 332938
af ra 332845
or s.</w> 332765
ab and 332668
T y 332585
pro posed</w> 332514
0 s.</w> 332364
Flor id 332326
c e.</w> 332131
T u 332059
Canad a</w> 332015
leav es</w> 331887
e astern</w> 331807
k ne 331783
stre t 331737
scen e</w> 331645
e !</w> 331621
meth od</w> 331439
con qu 331412
Australi a</w> 331354
par ti 331341
L ar 331254
Fil m</w> 331231
t 's</w> 331130
Em per 331036
ear th</w> 331017
Y O 331013
sp ring</w> 331012
The at 330995
y ,"</w> 330898
ob tained</w> 330874
in no 330855
fa iled</w> 330840
A th 330695
streng th</w> 330676
su n</w> 330658
ili ties</w> 330476
occup ied</w> 330401
chang es</w> 330379
Euro pe</w> 330132
sh oo 329862
ap point 329845
ru g 329762
awa y,</w> 329759
L ittle</w> 329746
d uty</w> 329220
II I</w> 329203
m echan 329105
h ang 329084
st ore 328962
Dist ric 328887
m ol 328685
T O</w> 328654
D e</w> 328363
enc our 328353
civ il</w> 328334
sist er</w> 328189
earli er</w> 328172
us e,</w> 328129
wal ked</w> 328026
a p</w> 328002
countri es</w> 327992
Engl ish 327942
T o 327933
ach ,</w> 327846
lear n</w> 327740
4 . 327719
per man 327485
E ven</w> 327458
17 8 327433
B on 327381
examp le</w> 327365
ob tain</w> 327330
condi tion</w> 327250
busin ess 327066
centur y,</w> 326772
ind ustri 326757
grow ing</w> 326739
direc tion</w> 326627
P O 326564
k il 326071
l ying</w> 325864
ad j 325802
resul ts</w> 325777
Y our</w> 325673
( 195 325641
k e.</w> 325251
sup pose</w> 325223
lead er</w> 325169
mo re,</w> 325103
re moved</w> 324941
r .</w> 324930
B O 324917
ma ster 324863
gu il 324565
pa th 324520
hel ped</w> 324405
A . 324363
S and 324307
e . 324257
te gr 324124
examp le,</w> 323893
U K</w> 323838
in habit 323806
ful ,</w> 323710
we ap 323625
M od 323493
cont act</w> 323411
no ted</w> 323306
Pa ul 323258
t od 323238
se y</w> 323201
peop le.</w> 323201
Por tu 323094
school s</w> 323030
thre at 322975
sup ported</w> 322697
Fran k 322589
e ?</w> 322563
i er</w> 322552
gla d</w> 322358
A ward 322148
p sy 321927
v ot 321697
S c 321687
arm ed</w> 321661
su ff 321605
grou ps</w> 321583
pe ace</w> 321559
feder al</w> 321322
p ost</w> 321235
L ov 321206
bo t 321166
mi x 321122
-------- -------- 321095
a ",</w> 320697
studi ed</w> 320661
i "</w> 320540
e ter 320531
maj ority</w> 320479
Ar ab 320319
t est</w> 320202
N E 319959
sp ort 319898
sco red</w> 319843
men .</w> 319819
rec ent</w> 319697
w all</w> 319660
Tr ans 319649
" "</w> 319574
high ly</w> 319343
er ;</w> 319322
B row 319202
reti red</w> 319166
ta x 319050
( M 319002
201 0,</w> 318902
ang e</w> 318766
squ are</w> 318591
approxim ately</w> 318488
l ing 318423
E le 318341
... .</w> 318218
jo in</w> 318134
en ough 318088
-- a</w> 317887
F lo 317817
Batt le</w> 317458
201 7</w> 317366
n in 317353
D ep 317339
As sem 317328
Ro ad</w> 317041
si de.</w> 317038
  –</w> 316960
Foot note</w> 316949
s om 316947
H a 316564
re sist 316564
thin king</w> 316550
tre es</w> 316519
bi tion</w> 316376
pre pared</w> 316199
R ol 316151
Par is</w> 316112
v on</w> 315919
r at 315841
ev ol 315787
B ol 315759
ter ing</w> 315750
suffic ient</w> 315750
Fran k</w> 315725
ou s.</w> 315549
b ad 315358
16 ,</w> 315347
end er</w> 315334
Sm ith</w> 315321
acqu ain 315268
gre g 315077
P ap 315021
Rep ublic</w> 314974
ma st 314925
" He</w> 314898
en e</w> 314815
cer em 314729
ati vely</w> 314693
Engl and,</w> 314522
div isi 314380
C ra 314322
ann ual</w> 314318
Bo th</w> 314244
G ri 314207
" If</w> 314206
d y 314180
accep ted</w> 313976
connec ted</w> 313879
God ,</w> 313766
co m</w> 313759
P RO 313646
to :</w> 313629
al le 313426
l or 313381
10 ,</w> 313246
st ing</w> 313207
cal cul 313123
acc ord 313023
T A 313017
as p 313000
n ation</w> 312964
re al 312953
ey es,</w> 312927
soldi ers</w> 312710
f t.</w> 312658
C amp 312655
Ch r 312644
D ani 312616
Colon el</w> 312338
w ing</w> 312194
f resh</w> 312097
enem y</w> 312053
ow ed</w> 312037
oper ation</w> 311959
effor t</w> 311858
ob served</w> 311800
re d.</w> 311730
distribu ting</w> 311730
D ,</w> 311707
ne ar 311557
u tion 311520
"M y</w> 311437
sur pr 311353
n on 311115
3 1</w> 311079
secre t</w> 310881
Sovi et</w> 310786
deli ver 310740
18 ,</w> 310646
ac ted</w> 310450
el ev 310439
__ __ 310409
build ings</w> 310400
ag on 310360
ch os 310334
beg in</w> 310206
es i 310188
Ger many</w> 310170
S el 310103
mo del</w> 310063
ves sel 310010
sti c</w> 309924
ne ed 309834
gr ound.</w> 309822
C ham 309507
mo stly</w> 309426
sel ected</w> 309376
u ,</w> 309350
bo y 309332
ta ught</w> 309291
T a 309227
( P 309119
ban k</w> 309093
to m</w> 308979
ren t</w> 308902
G ard 308821
stra ight</w> 308759
col um 308739
on str 308720
Ab out</w> 308619
17 7 308501
it ."</w> 308139
ro b 308116
sci ence</w> 308086
bu s</w> 307994
de al 307938
ef ul 307820
? ”</w> 307719
pl ant</w> 307708
succe eded</w> 307651
prin ted</w> 307538
bac k,</w> 307450
k - 307403
t led</w> 307331
D ra 307219
dis cover 307119
mon th</w> 307039
emplo y 306854
cent re</w> 306735
gir ls</w> 306727
sh ort 306709
un to</w> 306419
r ub 306265
L oc 306254
bas ket 306173
ho t</w> 306085
stop ped</w> 306030
opini on</w> 305970
speci fic</w> 305896
civ il 305848
sett led</w> 305791
toge ther,</w> 305740
plac e.</w> 305737
form erly</w> 305729
201 1,</w> 305723
6 0 305637
satis fac 305474
resp ect</w> 305465
Jew ish</w> 305458
tri c</w> 305284
ar a</w> 305153
Ser vic 305111
Phili pp 305108
A pp 305076
sel l</w> 305032
bl ack 305028
Sain t</w> 304996
U r 304928
K en 304889
ac compl 304882
Su ch</w> 304818
b loc 304776
we ak 304712
pri mary</w> 304540
emplo yed</w> 304499
Ch ina</w> 304495
consist s</w> 304365
so ft</w> 304240
Mar tin</w> 304147
R em 304021
off er</w> 304007
no vel</w> 303884
issu ed</w> 303877
R AN 303789
down ,</w> 303789
( 193 303652
a id</w> 303629
S an 303589
bi a</w> 303586
Li ke</w> 303436
Comm ittee</w> 303367
B ow 303335
a ;</w> 303134
mus ical</w> 303021
fac t,</w> 303014
L on 303003
reg arded</w> 302953
sil ver</w> 302859
fi xed</w> 302851
inde ed,</w> 302809
ri ght,</w> 302729
ment s,</w> 302495
ther efore,</w> 302461
clo th 302060
c ely</w> 302002
201 2,</w> 301966
arti st</w> 301935
concer ning</w> 301935
marri age</w> 301898
i ght 301860
pass eng 301846
b id 301788
dr um 301680
F er 301679
3 3 301505
( 19 301466
v an</w> 301458
da m</w> 301390
"Y es,</w> 301087
neigh bour 301046
15 ,</w> 301027
incor por 300894
ac e.</w> 300890
y i 300775
Th er 300522
th is 300461
financ ial</w> 300354
C le 300192
sac ri 300159
wee ks</w> 300035
ha ir</w> 299961
stand ard</w> 299950
od es</w> 299878
1 / 299862
et y,</w> 299796
res ent 299794
co tt 299780
su ffered</w> 299771
d - 299688
ograph y</w> 299672
in form 299652
dat a</w> 299561
H ung 299482
ig g 299382
t ree</w> 299318
know s</w> 299296
moun tain 299282
cent er</w> 299198
j um 299176
wor thy</w> 299169
z en</w> 299114
Dut ch</w> 299004
ar ily</w> 298998
rap id 298846
mil e</w> 298843
7 - 298728
t ;</w> 298676
G all 298591
en ess</w> 298584
eng aged</w> 298546
no tice</w> 298489
ac adem 298447
o v</w> 298422
ach es</w> 298334
sour ce</w> 298295
k i 298285
Th us</w> 298275
med ical</w> 298236
intell ec 298165
O hi 297913
mark et</w> 297904
well .</w> 297882
ext ended</w> 297836
p u 297648
histor ical</w> 297578
awa y.</w> 297555
proc ess 297490
K .</w> 297477
V ill 297463
te am 297437
tur ning</w> 297144
f ying</w> 297122
J os 296997
b y,</w> 296988
1 ),</w> 296943
B ill</w> 296916
what ever</w> 296911
Th ree</w> 296910
mo re 296865
" ).</w> 296857
ani an</w> 296793
tradi tional</w> 296647
ac quired</w> 296636
6 0</w> 296575
sh el 296548
pla in</w> 296540
ni e</w> 296512
Wh o</w> 296467
L O 296448
how ever</w> 296340
ant s.</w> 296281
countr y.</w> 296208
pec uli 296201
gain ed</w> 296116
G a 296080
B E 296078
econom ic</w> 296077
E astern</w> 295737
An n 295668
ac tivi 295656
li on</w> 295654
cor respond 295633
ing "</w> 295496
en s,</w> 295420
hou se.</w> 295419
all ed</w> 295206
s . 295166
moun tain</w> 295000
any one</w> 294945
ear th 294931
ard ing</w> 294921
19 ,</w> 294905
bo tt 294902
ti an</w> 294839
Fol lowing</w> 294782
p ast 294776
doc ument 294738
post ed</w> 294645
ac ts</w> 294628
k es 294604
centur y.</w> 294502
E ach</w> 294353
O ut 294327
He av 294111
ed ge</w> 293944
other s.</w> 293916
sh op 293803
201 3,</w> 293787
end ,</w> 293758
condi tions</w> 293746
Rev ol 293586
oppos ite</w> 293551
ag es.</w> 293527
Le agu 293456
p ed 293434
ris ing</w> 293428
man aged</w> 293398
u es</w> 293352
12 ,</w> 293310
i ans</w> 293268
B an 293146
sup posed</w> 293116
f ish 293058
b row 292993
l - 292915
S mi 292835
ill ing</w> 292813
Nor th 292772
laun ched</w> 292682
d anc 292624
wal k</w> 292537
g od 292404
b s</w> 292358
Gover nor</w> 292343
h ost</w> 292304
lo t 292091
ch all 292085
c ens 292064
-- I</w> 291983
son 's</w> 291943
ve y</w> 291770
long ,</w> 291553
2 ),</w> 291411
thou ght 291357
ro yal</w> 291343
< br 291342
8 - 291313
" ' 291312
F el 291250
t ells</w> 291233
emplo ye 291221
won 't</w> 291218
stre et</w> 291093
answ er 291047
bri ght</w> 291015
air craft</w> 290944
for t</w> 290921
ste p</w> 290892
st ain 290884
F ort</w> 290858
whi sp 290849
tre as 290795
Eng ine 290636
200 3</w> 290438
201 4,</w> 290407
dro pped</w> 290400
a c</w> 290370
stit ut 290305
E p 290296
ob li 290267
bro ther 290107
St an 290071
energ y</w> 290008
er y,</w> 289956
es ,"</w> 289943
bo x</w> 289935
200 9,</w> 289888
J un 289883
the e</w> 289870
er al</w> 289846
quar ters</w> 289785
twel ve</w> 289728
ad ing</w> 289694
Bo ard</w> 289656
gl ass</w> 289420
n ur 289419
stre am</w> 289371
dem onstr 289368
complet ely</w> 289344
D om 289324
10 .</w> 289212
death ,</w> 289196
you th</w> 289147
er ship</w> 289135
g ar</w> 289013
J ourn 289002
lo ved</w> 288974
z ing</w> 288906
n ers</w> 288873
ren ce</w> 288860
s h</w> 288826
ch er</w> 288793
fi re 288738
L and 288604
ser ious</w> 288535
di t</w> 288522
( N 288490
cap ac 288400
o '</w> 288374
fre ed 288333
organiz ation</w> 288232
lo se</w> 288196
differ ence</w> 288109
ex trem 288070
8 . 288018
W el 288002
happ ened</w> 287932
distribu te</w> 287772
fem al 287756
in s 287734
hom e,</w> 287733
Un der</w> 287617
Cong ress</w> 287614
us e.</w> 287589
ex plan 287547
exper im 287545
Y et</w> 287440
B at 287430
sugg ested</w> 287322
dou ble</w> 287256
W ood 287248
f it</w> 287221
exp ect 287178
con sul 287144
after wards</w> 287113
so f 287079
( D 286905
issu e</w> 286833
min e</w> 286786
con taining</w> 286686
s ought</w> 286592
appro ach</w> 286555
be ha 286540
wif e,</w> 286503
on a</w> 286282
serv ing</w> 286136
For ce</w> 285950
that 's</w> 285879
d i</w> 285838
Or der</w> 285784
sum m 285726
ra in 285696
in come</w> 285659
bes ide</w> 285654
scar cely</w> 285574
s lo 285463
" a</w> 285411
ta ,</w> 285390
swe et</w> 285192
C er 285117
organi zed</w> 285093
head .</w> 285053
.   285039
F C</w> 285028
stor e</w> 284996
artic le</w> 284996
Dev elop 284928
ha b 284807
ment s.</w> 284698
In f 284673
ru le</w> 284521
pa ir 284506
R ic 284492
S pe 284491
aff ec 284432
sti ll 284302
acc ur 284256
5 . 284250
no ble</w> 284229
tiv ely</w> 284184
Ro ber 284157
2 , 284068
A sh 284003
as tic</w> 283849
con s 283770
At lan 283762
ni ght.</w> 283736
t es 283731
an try</w> 283682
D er 283660
.org / 283621
L iv 283607
ben e 283463
spe aking</w> 283440
re comm 283405
20 ,</w> 283380
' ,</w> 283332
o di 283313
Am ong</w> 283288
L atin</w> 283264
power ful</w> 283228
in side</w> 283205
A ri 283198
comp la 283197
uni ties</w> 283053
ig nor 283001
4 9 282974
tim es,</w> 282831
201 5,</w> 282736
ed )</w> 282684
a im 282640
res s 282566
F le 282474
ac tor</w> 282426
st on 282325
O h,</w> 282305
go tt 282278
S ul 282194
S her 282154
cre ate</w> 282034
famil ies</w> 281900
clo s 281875
it es</w> 281845
h en 281821
Gre en</w> 281791
200 8,</w> 281618
YO U</w> 281607
expres sion</w> 281576
T our 281456
6 . 281359
stud ent</w> 281354
for d,</w> 281255
P u 281163
r ough 281054
the ory</w> 280959
h ath</w> 280879
Paci fic</w> 280809
c ent</w> 280660
res em 280655
Bl ack 280606
I C 280342
er )</w> 280223
fa ith 280202
ir on</w> 280017
We b 279974
or y,</w> 279966
r ated</w> 279940
contrac t</w> 279870
B ab 279833
v a</w> 279755
ation )</w> 279687
immedi ate</w> 279617
M edi 279552
f ish</w> 279325
" ;</w> 279112
S . 279076
S us 278907
adv anced</w> 278742
room .</w> 278723
feat ure</w> 278688
mid - 278610
p s.</w> 278562
c anc 278439
mer ch 278428
B es 278408
Pol i 278275
con flic 278104
( in</w> 278086
B ay</w> 278056
ne g 278043
Bi g</w> 278036
( 194 277991
P ho 277941
E ll 277923
200 2</w> 277889
d u</w> 277868
a k,</w> 277800
ag ing</w> 277789
lin e,</w> 277768
Sci ence</w> 277608
si an</w> 277592
comp ly</w> 277528
adv ent 277428
1 4,</w> 277413
li t</w> 277406
uni on</w> 277373
mo ther,</w> 277295
Te am</w> 277274
u el</w> 277146
coun ty</w> 277084
Civ il</w> 276847
en de 276812
t ext</w> 276741
do ,</w> 276728
wa iting</w> 276646
ac ting</w> 276636
es h</w> 276554
qu ality</w> 276457
C op 276386
D ay</w> 276374
m ass</w> 276127
Con st 276119
ro man 276014
con vic 275934
treat ment</w> 275928
fac e.</w> 275925
con clu 275919
in tegr 275915
campa ign</w> 275874
auth ority</w> 275813
pic ture</w> 275809
Alex ander</w> 275809
soci ety</w> 275763
An ton 275697
3 ),</w> 275696
da ily</w> 275677
m ic 275667
Ar ts</w> 275529
ec tive</w> 275503
B ishop</w> 275451
con clud 275435
fav our 275357
4 ),</w> 275321
Wh y</w> 275189
a :</w> 275126
r oute</w> 275104
tit ude</w> 275100
rest ric 275025
studi o</w> 274996
a il</w> 274993
iz e</w> 274955
Mar g 274938
U l 274825
s ),</w> 274715
y an</w> 274678
cre ating</w> 274592
app lied</w> 274450
W ell,</w> 274416
f estiv 274365
ref used</w> 274274
L ord 274249
spe ed</w> 274187
form at</w> 274027
ur g 273984
17 ,</w> 273938
ne eded</w> 273912
ex clu 273870
d ers</w> 273748
7 . 273725
3 rd</w> 273692
II I.</w> 273669
ti le</w> 273631
f ool 273405
ou l 273373
Gre en 273291
him self.</w> 273284
Prov inc 273273
euten ant</w> 273167
N et 273111
201 8</w> 272928
E ver 272871
5 ),</w> 272819
su peri 272818
de part 272803
m ale</w> 272757
b ound 272749
King dom</w> 272748
S ome 272640
tim ate</w> 272630
M ol 272590
h !</w> 272488
W ith 272281
Ser vice</w> 272105
d edic 271976
go al</w> 271968
Le e</w> 271938
u gg 271909
M r</w> 271899
prot ect</w> 271890
small er</w> 271825
eiv ed</w> 271812
respon sible</w> 271701
occur red</w> 271685
agre ement,</w> 271544
sch em 271504
sit ting</w> 271446
know ,</w> 271404
Franc e,</w> 271382
si vely</w> 271349
bu ried</w> 271257
oper ated</w> 271200
eg g 271189
main ly</w> 271126
wat er 271089
mor al</w> 271066
H O 271044
gen us</w> 271006
in qu 271001
ad es</w> 270909
pleas ure</w> 270892
charac ters</w> 270816
de par 270791
M P 270771
im possible</w> 270666
Sum mer</w> 270575
cam p</w> 270538
sid es</w> 270420
nam e,</w> 270378
pre p 270307
6 ),</w> 270290
ph as 270290
ar rest 270286
1 1,</w> 270277
[ Footnote</w> 270188
thre e- 270082
expres sed</w> 270049
gr at 270006
si de 269861
day s,</w> 269825
Tex as</w> 269756
comm only</w> 269715
ol der</w> 269714
as sa 269694
D on</w> 269690
F A</w> 269656
20 0</w> 269639
m ing 269637
gr anted</w> 269502
hi g 269501
commis sion 269357
Ire land</w> 269329
res our 269198
si e 269194
min ute</w> 269167
b li 269161
num bers</w> 269088
Ber n 269079
pre mi 269038
nor th 268994
buil d</w> 268970
em in 268922
sud den</w> 268869
ac tions</w> 268865
d on</w> 268863
ot a</w> 268841
bo x 268731
father 's</w> 268607
est er 268536
Youn g</w> 268430
polic y</w> 268411
death .</w> 268377
and - 268354
own ,</w> 268337
t ac 268323
star ting</w> 268282
200 1</w> 268275
on to</w> 268235
T am 268169
ri es</w> 268156
war ,</w> 268106
g al 268043
as ser 268021
Des pite</w> 267965
v .</w> 267921
' s,</w> 267913
L am 267907
201 6,</w> 267900
b un 267863
mon d</w> 267840
0 - 267794
y ard</w> 267728
em ber,</w> 267706
great ly</w> 267649
P ak 267598
om ,</w> 267566
other s,</w> 267455
A T</w> 267454
ber .</w> 267415
7 ),</w> 267358
T emp 267260
ven ue</w> 267180
5 00</w> 267177
he 's</w> 267137
F air 267031
her e 266986
adop ted</w> 266967
Cor n 266855
8 ),</w> 266814
le agu 266679
f li 266635
consi der</w> 266634
boo k 266630
distribu ted</w> 266575
offic i 266543
200 7,</w> 266540
fiel d,</w> 266486
un able</w> 266462
B il 266395
e ball</w> 266266
G U 266220
P ic 266209
Bri g 266166
tr a</w> 266093
ag o,</w> 266089
H ospit 266073
aw are</w> 266052
ab les</w> 266040
sc ore</w> 266015
S hor 265990
co ast</w> 265850
Jo e</w> 265839
T ay 265768
! '</w> 265521
S av 265461
ic k,</w> 265436
o es</w> 265408
dec or 265407
vic tory</w> 265325
Cor por 265221
uni or</w> 265175
Yor k,</w> 265175
c ross</w> 265143
d ated</w> 265122
ra in</w> 265084
Fre der 264981
mist ak 264980
O rig 264893
L im 264820
" and</w> 264818
M an</w> 264763
the ast</w> 264728
form ,</w> 264683
Sec retary</w> 264633
ol d,</w> 264563
recogni zed</w> 264442
ma r</w> 264431
Scot tish</w> 264403
T enn 264392
ab s 264357
word s,</w> 264352
aut om 264196
pro pos 264117
mi xed</w> 264077
th ri 264039
ed ."</w> 263895
lic ens 263790
em s</w> 263777
o ffer 263723
pro p 263712
subsequ ently</w> 263693
win ter</w> 263684
sol ic 263681
children ,</w> 263644
c it 263585
del ic 263409
Jap an</w> 263356
k ill</w> 263292
La w</w> 263272
ab b 263270
al og 263246
Pe ter 263170
ograp hic 263135
con om 263049
y ers</w> 263034
reg ist 263028
thre w</w> 262691
organ is 262689
H ear 262651
Resear ch</w> 262582
cl es</w> 262553
L ak 262545
ham ,</w> 262491
h i</w> 262431
N .</w> 262394
en i 262362
sc ap 262350
slow ly</w> 262326
T ru 262321
trou ble</w> 262306
ur a</w> 262295
pres sed</w> 262145
Pro duc 262084
we alth</w> 262043
net work</w> 262038
ta r</w> 261925
car rying</w> 261860
F ac 261730
1 ]</w> 261555
An dre 261473
af f</w> 261412
B la 261394
cor por 261388
M ul 261313
hand .</w> 261198
qu o 261194
ed "</w> 261155
au g 261153
H ous 261145
gi an</w> 261091
4 : 261065
Hol y</w> 261031
histor y.</w> 260971
uc le 260954
dol lar 260868
o st 260822
ent ly,</w> 260719
g n 260703
flo or</w> 260612
A z 260606
con tain</w> 260484
pleas ant</w> 260334
cor ner</w> 260296
od y</w> 260228
qui et 260204
oper ations</w> 260151
p up 260099
oc key</w> 260088
spo ken</w> 260086
On ly</w> 259986
ar di 259920
ex ac 259906
Nav y</w> 259885
ad o</w> 259865
cap it 259865
Arth ur</w> 259843
c hampi 259736
Direc tor</w> 259690
wat er.</w> 259649
C I 259636
com fort 259588
fre ely</w> 259560
afra id</w> 259535
B road 259514
W i 259464
ref und</w> 259409
en o 259365
le gi 259342
h em 259334
es tic</w> 259292
" No 259182
stand s</w> 259113
" I 259078
o il</w> 259016
g ets</w> 258959
H op 258925
ar gu 258845
comp uter</w> 258733
Parliam ent</w> 258728
S ,</w> 258685
olog y,</w> 258604
f ,</w> 258563
E mp 258435
dr am 258397
e ".</w> 258394
tor .</w> 258229
as on</w> 258216
anim al</w> 258144
k o</w> 258087
ev il</w> 258028
um b 258019
J im 257970
be at</w> 257968
be .</w> 257962
Con stitu 257893
Ar e</w> 257843
en - 257746
figh ting</w> 257637
ach us 257629
9 - 257543
t ation</w> 257447
Cha p 257395
wall s</w> 257258
v ation</w> 257218
res s,</w> 257168
sp ot</w> 256913
W is 256866
them atic 256800
" An 256789
e an</w> 256717
K u 256675
possi bly</w> 256648
ar chi 256322
A ,</w> 256257
n al</w> 256238
loc ation</w> 256165
L or 256086
ish ed,</w> 256063
nar row</w> 255913
S ever 255849
construc ted</w> 255686
t on.</w> 255676
ac compani 255540
phr ase</w> 255480
volunte ers</w> 255478
( B 255431
K i 255413
ac her</w> 255374
re mov 255345
L et 255328
st ar</w> 255306
step s</w> 255265
Chic ago</w> 255192
Th ough</w> 255105
sur pris 255099
In de 255064
struc tion</w> 255015
supp ly</w> 254929
pro sp 254927
C ity,</w> 254844
dig n 254791
R od 254782
el phi 254752
g rown</w> 254693
M aster</w> 254674
pl ans</w> 254595
A k 254478
Mic hig 254466
u e,</w> 254425
Man ag 254378
e Book</w> 254338
tre ated</w> 254247
um p 254225
pres ents</w> 254182
Virgini a</w> 254155
Com mon 254153
bene ath</w> 254064
1 3,</w> 254032
nam e.</w> 254026
Bu il 253965
cl ou 253833
comp ared</w> 253769
rec k 253756
ter - 253738
ear ned</w> 253680
all y.</w> 253665
E conom 253663
b ishop</w> 253605
interest ing</w> 253533
on "</w> 253532
s inc 253514
dis ci 253478
wa it</w> 253468
H ill</w> 253453
piec es</w> 253400
di am 253399
f ted</w> 253260
St ud 253247
advant age</w> 253184
b ass 253168
sc ul 253102
Educ ation</w> 253064
Mass achus 253047
d or 253033
rul es</w> 252922
s is 252904
princ i 252871
t ong 252760
per ial</w> 252740
m s,</w> 252682
Chr ist</w> 252664
escap e</w> 252593
b os 252512
-- "</w> 252502
dri ve</w> 252461
ol a</w> 252448
un its</w> 252343
et er</w> 252331
att ached</w> 252322
sec ure</w> 252284
et te</w> 252243
mem ory</w> 252239
cou ple</w> 252058
perfec tly</w> 252032
Mid dle</w> 252009
ext en 251990
ag o 251986
Wh ere</w> 251922
ven tion</w> 251880
exist ence</w> 251775
b rown</w> 251759
Il lin 251705
conduc ted</w> 251670
am ing</w> 251637
paren ts</w> 251569
P ur 251433
cri tical</w> 251350
t ari 251343
H i 251324
lad elphi 251256
morn ing,</w> 251056
accompani ed</w> 250924
Tur k 250914
201 7,</w> 250905
high - 250894
Su per 250833
ut ter 250757
rec over 250741
compan ies</w> 250737
_ The</w> 250730
the y 250714
K al 250687
il ing</w> 250579
fa ith</w> 250576
T od 250462
th rown</w> 250386
f ain 250366
f ought</w> 250337
h ome 250263
b ought</w> 250243
vis ited</w> 250234
l st</w> 250229
pri mar 250185
se e,</w> 250176
H om 250138
y ards</w> 250034
9 ),</w> 249970
l ac 249926
J im</w> 249924
larg ely</w> 249744
bre ath 249667
ech ni 249592
se x</w> 249570
long - 249570
off ers</w> 249481
refer ence</w> 249401
E very</w> 249315
receiv ing</w> 249232
pl om 249217
wat ch</w> 249197
Wor ld 249092
studi es</w> 249041
r y.</w> 249009
de partment</w> 249007
d ry</w> 248962
med ic 248933
W ind 248907
A D 248839
Jes us</w> 248827
K ir 248803
w ished</w> 248752
ll ed</w> 248667
for d 248626
<br ></w> 248625
anti - 248608
L ev 248574
th od 248547
olog y.</w> 248504
cap tain</w> 248389
ke y 248386
chos en</w> 248363
al leg 248300
hi d 248296
ha d 248288
beaut y</w> 248261
i on</w> 248073
acc ept</w> 248066
d ens 248064
ch es,</w> 248044
gr ound 247974
4 th</w> 247905
wr ong 247858
si m 247832
Con serv 247788
m es</w> 247734
m s.</w> 247713
h es 247649
Histor ic</w> 247626
Illin o 247537
hi ll</w> 247519
pol it 247490
exc e 247375
inter rup 247337
Spec ial</w> 247208
deriv ed</w> 247196
p ric 247163
g en</w> 247107
poss ession</w> 247008
pp er</w> 246988
F ig 246965
mar ks</w> 246934
vic tor 246914
P ort 246911
ad a</w> 246832
des pite</w> 246815
exc it 246804
la ,</w> 246788
our sel 246725
Phi ladelphi 246697
dec ision</w> 246679
Comp an 246662
I R 246658
ay ed</w> 246654
h ot 246631
h all</w> 246578
T ar 246576
4 7 246547
manag ement</w> 246467
con ce 246375
r out 246364
U C 246364
ad ver 246362
yel low</w> 246315
fav or 246307
cle arly</w> 246115
All - 246047
ti fied</w> 246014
el se 245912
competi tion</w> 245884
fr ag 245776
hor ses</w> 245754
Chi ld 245752
ong st</w> 245701
o ts</w> 245692
loo ks</w> 245637
es -- 245632
said :</w> 245623
I V 245610
sp ar 245602
is es</w> 245487
sen ior</w> 245290
low ,</w> 245269
C ON 245184
politic ian</w> 245159
reve aled</w> 245153
grow th</w> 245152
mi gh 245114
T it 245097
ure s,</w> 245052
sp on 245034
i us</w> 244930
TI ON 244701
6 5</w> 244641
le d.</w> 244518
c ous 244465
Democr atic</w> 244406
bur g</w> 244395
re aching</w> 244375
c o</w> 244366
Pi er 244333
s and 244328
s ?</w> 244319
thir ty</w> 244293
sou th 244232
P ow 244211
em per 244116
st aff</w> 244059
fif th</w> 244005
doub t 243876
H an 243871
ci ties</w> 243840
anal ys 243827
D et 243707
Zeal and</w> 243666
" That</w> 243582
ent ary</w> 243523
pro pri 243486
histor ic</w> 243483
re s,</w> 243421
fre sh 243344
F a 243268
U k 243243
ill a</w> 243226
eng ine</w> 243224
p oc 243217
n er,</w> 243114
j u 243102
v ast</w> 243095
cent uri 243006
effec ts</w> 242975
" In</w> 242842
sk i</w> 242821
m as</w> 242814
( R 242801
cas e,</w> 242779
V is 242737
9 0</w> 242732
const ant</w> 242718
fif ty</w> 242653
voc als</w> 242644
posi tions</w> 242599
win dow</w> 242460
U T 242459
W AR 242406
et y.</w> 242345
es ",</w> 242336
jud ge</w> 242316
c oo 242263
ol i 242254
cre at 242120
we igh 242117
go ,</w> 242072
w arm 242050
now .</w> 241972
200 6,</w> 241915
D re 241865
th an 241793
sing er</w> 241759
Or g 241692
col labor 241654
scienti fic</w> 241645
increas ing</w> 241630
C ,</w> 241619
fir m</w> 241617
stor ies</w> 241533
ag ricul 241529
gr as 241514
Har ry</w> 241480
V an</w> 241416
M en 241402
Ear l</w> 241256
la p 241250
form .</w> 241100
him ;</w> 241086
Bo b</w> 241047
famil y.</w> 240985
St ation</w> 240906
at tered</w> 240825
M ini 240708
in s.</w> 240699
r ati 240679
youn ger</w> 240618
vil le,</w> 240415
spor ts</w> 240394
ver th 240329
rep li 240302
fin ding</w> 240295
W ell 240183
bro ad</w> 240060
occasi on</w> 240011
R ock 240003
y n</w> 239951
ma xim 239859
provid es</w> 239837
connec tion</w> 239796
auth ori 239748
S om 239675
min d,</w> 239641
R id 239609
"H ow</w> 239568
men 's</w> 239555
i . 239478
L in 239447
promin ent</w> 239426
medi a</w> 239400
G ro 239385
H aw 239358
fall en</w> 239300
fir st,</w> 239244
before ,</w> 239234
con cent 239148
war m</w> 239114
v ig 239006
J ul 238876
wh er 238868
ar ity</w> 238821
incl u 238747
W all 238677
( 192 238664
apparen tly</w> 238634
E R</w> 238572
L ater</w> 238490
Val ley</w> 238382
C el 238339
head s</w> 238335
inc ol 238216
f .</w> 238205
Rep resent 238194
t es</w> 238108
sp ite</w> 238092
view s</w> 238067
h os 238059
cont ent</w> 237913
qu anti 237897
n ic 237763
sus pic 237725
se ts</w> 237697
An ti 237690
town ,</w> 237641
rel ations</w> 237639
School ,</w> 237602
perm itted</w> 237602
Mar y 237591
s !</w> 237575
per ,</w> 237519
re duced</w> 237512
I' d</w> 237499
hus band 237427
( and</w> 237426
l ord 237403
an "</w> 237322
att ribu 237237
e ffic 237171
re ver 237133
ma d</w> 237129
p es</w> 236922
m )</w> 236887
ti li 236849
conduc t</w> 236814
sa fe</w> 236799
con tained</w> 236782
whi le,</w> 236729
respon si 236667
import ance</w> 236625
doc tr 236590
ti ves</w> 236572
v ision</w> 236531
C ir 236492
spi red</w> 236356
cat eg 236316
ard s,</w> 236282
' I</w> 236271
ach .</w> 236232
it s,</w> 236200
or g</w> 236164
Radi o</w> 236120
id .</w> 236118
conc ept</w> 236080
W ill</w> 236056
dri ven</w> 236042
n est</w> 236027
and a</w> 235996
12 .</w> 235928
l itt 235896
we al 235849
sc al 235838
s ).</w> 235782
m ass 235779
J ust</w> 235747
mus e 235717
te enth</w> 235665
4 8 235632
k ers</w> 235397
Div isi 235375
famil y,</w> 235360
char ged</w> 235330
al "</w> 235220
4 5</w> 235155
ext ent</w> 235108
Up on</w> 235081
vol um 235017
el s,</w> 234990
anc es,</w> 234959
Engl and.</w> 234950
exac tly</w> 234943
situ ation</w> 234907
fil ms</w> 234873
ation 's</w> 234823
show ing</w> 234770
beha vi 234640
Care er.</w> 234626
vol ume</w> 234608
reg im 234602
pass age</w> 234489
tw ice</w> 234487
scul p 234484
G reg 234477
b ab 234473
distingu ished</w> 234444
de ad 234418
hom e.</w> 234193
typ es</w> 234137
" St 234095
medi um</w> 234036
photo graph 233821
am m 233647
off ,</w> 233580
friend ,</w> 233548
N a 233508
bir ds</w> 233409
Emper or</w> 233381
H ay 233292
retur ning</w> 233145
excell ent</w> 233144
philosop h 233136
v in 233120
ic s.</w> 233058
M ir 233008
bot tom</w> 232969
for ,</w> 232856
Elizabe th</w> 232806
mach ine</w> 232770
E L 232751
Massachus et 232725
go als</w> 232686
won der</w> 232594
gr ound,</w> 232579
Cl ub 232560
st ol 232275
c ity,</w> 232267
requ ire</w> 232238
2 4,</w> 232120
qui et</w> 232079
ic s,</w> 232054
19 th</w> 231973
si z 231949
star s</w> 231914
c lock</w> 231891
ar t,</w> 231856
Sy d 231726
ex tra 231604
bran ch</w> 231581
Pak ist 231542
gr ac 231538
H un 231482
L incol 231378
ac tual</w> 231343
b b 231322
pri or</w> 231231
N ow,</w> 231225
Marg are 231222
Y .</w> 231132
Franc is</w> 231036
C i 230910
“ I</w> 230890
re search 230872
ex tre 230809
posi tion,</w> 230769
on ;</w> 230733
fig ures</w> 230677
II ,</w> 230626
Rev i 230534
es hi 230531
al ity,</w> 230473
att le</w> 230444
( A 230440
ende av 230409
Le w 230312
tiv e,</w> 230308
p in 230246
D . 230192
t ex 230160
will ing</w> 230148
law ,</w> 230083
form ing</w> 230082
g ate</w> 230067
prov isi 229973
mod er 229953
Wom en's</w> 229901
bur y</w> 229812
str ugg 229799
an xi 229736
l iterary</w> 229729
Pres s,</w> 229599
individu als</w> 229587
s es,</w> 229585
ab ov 229548
los ing</w> 229537
id a 229471
M ount</w> 229417
O li 229392
wom an,</w> 229356
Colleg e,</w> 229350
comm itted</w> 229335
pro mp 229268
retur n 229183
En ter 229100
poss essed</w> 229034
o s,</w> 229012
cul tiv 228917
T ha 228804
se ek</w> 228795
R ac 228789
k n 228738
confir med</w> 228707
B rown</w> 228604
" _ 228549
el ements</w> 228531
el d 228527
O t 228453
199 9</w> 228437
O s 228436
trans ferred</w> 228395
destro yed</w> 228358
g row</w> 228261
pr on 228259
elec tric</w> 228246
v ar 228214
in her 228207
v ac 228118
har mon 228108
clas si 228042
initi ally</w> 228020
or n 227960
( as</w> 227910
Afric a</w> 227780
Lon don 227734
pre - 227706
D A 227688
man if 227675
tr ust</w> 227674
c en 227652
tr ust 227620
S P 227548
though ts</w> 227542
air ,</w> 227413
P ubl 227405
le y 227349
D ol 227249
mo re.</w> 227233
wor n</w> 227208
promis e</w> 227149
" It's</w> 227137
Feder al</w> 227131
cha ir</w> 226957
op h 226917
2 : 226894
tri um 226693
ad s</w> 226638
t echni 226636
O ver 226572
er o</w> 226532
ed g 226515
t our</w> 226512
in a,</w> 226466
A re 226243
T ,</w> 226140
beg ins</w> 226133
A wards</w> 226098
But ,</w> 226043
industr y</w> 225954
em erg 225816
A ff 225763
ug gl 225755
Per haps</w> 225737
ic .</w> 225618
perman ent</w> 225591
im ple 225548
M . 225534
clo sely</w> 225534
tion ;</w> 225513
amb igu 225485
0 ),</w> 225456
is m,</w> 225351
intellec tual</w> 225268
re por 225173
Festiv al</w> 225161
pow ers</w> 225130
ec ting</w> 225126
li qu 225058
guit ar</w> 225023
e at</w> 224978
em br 224885
we b</w> 224865
lin e.</w> 224760
ph en 224745
li ght,</w> 224714
manag er</w> 224701
interest ed</w> 224698
ad d</w> 224681
eg et 224655
H ill 224596
la st,</w> 224591
D an 224577
D am 224575
G lo 224399
avo id</w> 224361
h as 224243
! ”</w> 224204
ey es.</w> 224137
op hi 224126
slight ly</w> 224125
exist ing</w> 224051
k i</w> 224050
th row</w> 224047
gu ard</w> 224019
B os 224000
acc ept 223981
ex ec 223972
dem and</w> 223966
cre w</w> 223952
In depend 223892
system s</w> 223882
gra phi 223860
dis eas 223733
ap art 223731
cap tured</w> 223725
c ric 223722
── ── 223674
destro y</w> 223663
dec isi 223617
pres sure</w> 223613
f at 223603
hum an 223567
1 1.</w> 223539
rec ently</w> 223479
sm oo 223462
row s</w> 223417
thu si 223384
posi tive</w> 223341
Pre mi 223261
fac ed</w> 223198
add ress</w> 223128
d e,</w> 223100
or y.</w> 223083
that .</w> 223024
p ack 223003
K er 222994
Alex and 222992
s ound 222861
rec ording</w> 222856
un it</w> 222848
Indi ans</w> 222835
a f</w> 222820
R et 222752
spe ech</w> 222720
P as 222701
tou ch</w> 222629
ation ;</w> 222429
1 :</w> 222410
par k</w> 222371
t le</w> 222246
20 th</w> 222236
e _</w> 222231
occasi on 222171
Scot t</w> 222151
terri ble</w> 222037
ap ti 221981
al a</w> 221917
k ni 221871
relation ship</w> 221805
et c 221775
meth ods</w> 221561
n it 221557
adv ance</w> 221424
O k 221388
c ity.</w> 221378
ish ed.</w> 221365
sec on 221304
cast le</w> 221260
th ings,</w> 221245
Offic e</w> 221228
under stood</w> 221176
C z 221159
t ap 221115
inv est 221097
as signed</w> 221096
Is land 221086
Bo ston</w> 221071
min ister</w> 221068
ly ;</w> 221065
O w 220951
di ff 220934
tal king</w> 220742
promis ed</w> 220739
at es,</w> 220688
re bel 220640
Par is,</w> 220571
4 6 220559
An th 220518
con sec 220513
Al b 220503
Sou th 220503
L ove</w> 220493
" I'm</w> 220482
ri an</w> 220452
r ag 220442
em bar 220400
call ing</w> 220361
bur n 220337
Sat ur 220211
gr ams</w> 220201
li ke 220116
sen tim 219995
W he 219979
L ong</w> 219946
p el 219865
e ?"</w> 219858
D al 219826
record s</w> 219735
prof essor</w> 219660
ast on 219626
co st 219594
U L 219571
are a.</w> 219511
regi onal</w> 219376
Comm un 219260
S anta</w> 219253
Augu st 219143
ti e</w> 219092
her e.</w> 219085
set ting</w> 219085
h in 219077
f light</w> 219073
dang er</w> 219037
Y ear</w> 219036
pp .</w> 218948
draw ing</w> 218946
d ru 218913
" Project</w> 218832
k en 218790
t "</w> 218728
football er</w> 218608
" This</w> 218562
enc oun 218488
Pri me</w> 218459
tri bu 218420
hear t,</w> 218420
Y ,</w> 218380
purch ased</w> 218321
albu m,</w> 218301
quar ter</w> 218244
st air 218141
Com mission</w> 218128
comb ined</w> 218050
c ow 217938
compet ed</w> 217900
en ni 217876
P le 217790
gentle man</w> 217787
ul ation</w> 217737
st ock</w> 217733
H ur 217679
B ak 217618
fir st- 217609
M au 217605
tr ack 217575
v a 217569
meas ure</w> 217513
d ;</w> 217510
ush ing</w> 217492
ide as</w> 217486
chest er</w> 217470
si pp 217465
do or,</w> 217427
ri e</w> 217392
199 8</w> 217364
am ongst</w> 217360
ri ch 217329
Univers ity,</w> 217269
pri ce</w> 217172
es h 217167
spe ech 217126
M ore 217101
Sup re 217095
ris on</w> 217088
min or</w> 217051
foun der</w> 217008
Assem bly</w> 216998
z e 216892
j ur 216891
B ank</w> 216883
migh ty</w> 216744
in sul 216655
s y</w> 216648
y ",</w> 216632
attemp ted</w> 216619
ne eds</w> 216511
or 's</w> 216422
B ack 216421
trac ks</w> 216354
Mis sis 216347
cap able</w> 216252
gr and</w> 216238
anim als</w> 216199
disci pl 216158
M EN 216075
difficul ty</w> 215966
wat ched</w> 215888
ti fic 215806
s en</w> 215784
mar ine</w> 215762
not able</w> 215715
produc er</w> 215713
per su 215700
gr an 215635
edi tions</w> 215618
br inging</w> 215590
for gott 215570
est .</w> 215565
201 8,</w> 215334
repe ated</w> 215291
lo y 215224
promo ted</w> 215179
Ar gent 215142
co ff 215136
wor e</w> 215125
n ut 215075
ne y,</w> 215047
al ism</w> 215004
ti vel 214979
do es 214874
W IT 214849
conv inc 214835
in ity</w> 214716
cre ation</w> 214656
en thusi 214640
claim s</w> 214575
back .</w> 214557
e at 214533
appro pri 214501
ed -- 214489
K a 214482
par liam 214427
R aj 214388
rep ut 214344
5 9 214324
leg isl 214307
. org</w> 214267
multi ple</w> 214257
you ."</w> 214083
( T 214043
children .</w> 214016
Phili p</w> 213948
Bl ue</w> 213742
fo rest</w> 213741
"N o,</w> 213673
comple x</w> 213623
it s.</w> 213609
p ure</w> 213579
op posed</w> 213524
F OR</w> 213398
5 th</w> 213389
sch ed 213337
Ex ecu 213313
M ast 213303
col or</w> 213269
H A 213254
surr ounding</w> 213225
wom en's</w> 213207
t elling</w> 213206
enti tled</w> 213204
mo tion</w> 213194
cros sed</w> 213149
p ath</w> 213108
Bec ause</w> 213089
moun ted</w> 213041
cre dit</w> 212992
x ious</w> 212910
Rail way</w> 212907
is m.</w> 212823
bod y,</w> 212815
s _</w> 212786
magaz ine</w> 212769
situ ated</w> 212737
St ra 212723
Mi ke</w> 212721
re y</w> 212677
TH IS</w> 212644
coun t</w> 212609
hu ge</w> 212417
fiel ds</w> 212416
F al 212338
i a.</w> 212287
ha st 212189
sec urity</w> 212086
co ol 212021
dr in 211927
7 0 211925
an a,</w> 211920
call s</w> 211861
w and 211834
po et</w> 211821
feat uring</w> 211750
wor d,</w> 211674
Found ation,</w> 211612
is e,</w> 211608
Record s</w> 211581
mat ters</w> 211571
Dani el</w> 211537
cor rup 211451
ha ir 211388
dedic ated</w> 211387
wid ely</w> 211367
b and,</w> 211364
p ical</w> 211347
ist .</w> 211291
boo k,</w> 211284
Y ear 211023
li brary</w> 211021
posi tion.</w> 210989
ever .</w> 210977
Col lec 210917
re port 210853
gra v 210801
extrem ely</w> 210671
ter y</w> 210633
adm itted</w> 210564
um ber 210526
- b 210513
con sol 210490
Wal ter</w> 210376
w ere,</w> 210361
ti ed</w> 210354
municip ality</w> 210328
d al 210237
( with</w> 210234
Isra el 210230
road ,</w> 210220
att end 210216
H ind 210178
equ ally</w> 210133
sc ious</w> 210047
201 0.</w> 210023
fin ds</w> 209996
arti sts</w> 209952
d ance</w> 209898
Li brary</w> 209896
ra ise</w> 209863
D ay 209861
bel ow.</w> 209816
gradu ated</w> 209758
m it 209750
psy ch 209706
L au 209645
Olymp ic</w> 209599
On ce</w> 209556
do .</w> 209514
B ob 209512
M ain 209493
ta il</w> 209392
G ood 209382
per ha 209299
fr anc 209253
bir d</w> 209248
other wise</w> 209240
artic les</w> 209195
ren dered</w> 209165
gra ve</w> 209140
tra vel</w> 209128
n on</w> 209066
J ones</w> 209003
ish op 208982
K enn 208970
Republic an</w> 208794
et c.</w> 208760
C ros 208757
primar ily</w> 208744
hon our</w> 208725
Ne ther 208692
isc o</w> 208645
an ni 208630
not es</w> 208618
vol .</w> 208612
tem porary</w> 208599
cul tural</w> 208588
mom ent,</w> 208519
arrang ed</w> 208475
aw ard</w> 208458
fri ght 208439
pain t 208437
n e,</w> 208422
imag in 208375
C av 208331
w ick 208290
f are</w> 208286
in em 208283
yal ty</w> 208240
par ish</w> 208231
rel ation</w> 208194
: --</w> 208119
sha red</w> 208096
Missis sipp 208062
bri lli 208033
capac ity</w> 208002
iv al 207973
un n 207909
C ard 207803
sub m 207802
re ds</w> 207788
Pol ish</w> 207787
st on,</w> 207782
P lat 207764
  m 207761
17 6 207736
in i</w> 207716
che str 207715
exclaim ed</w> 207664
all - 207643
wou ldn't</w> 207589
hon or</w> 207572
Th en,</w> 207558
wonder ful</w> 207547
he at</w> 207517
uck y</w> 207362
M ore</w> 207361
jour ney</w> 207251
entr ance</w> 207232
F ather</w> 207229
unc tion</w> 207158
Un der 207121
in spired</w> 207068
w .</w> 207005
Willi am 206982
Tay l 206907
a str 206858
l ess,</w> 206858
grad ually</w> 206737
( a</w> 206717
f iv 206704
S ab 206679
flow ers</w> 206672
suffic i 206610
sen si 206575
whi lst</w> 206520
go ti 206515
om et 206400
thor ough 206388
C ub 206328
exc ep 206328
settle ment</w> 206318
Ad di 206219
R oo 206207
c y</w> 206131
2 1,</w> 206130
w ood,</w> 206123
t um 206113
bri ef</w> 206088
Mar t 206043
m and 205997
con scious</w> 205995
G ord 205959
E P 205948
dis p 205925
org an</w> 205901
hy dro 205893
mos ph 205809
con serv 205800
F L</w> 205799
2 ]</w> 205793
S ocial</w> 205755
Ch ris</w> 205442
are r</w> 205299
se - 205284
distinc t</w> 205284
L e</w> 205282
Sa x 205266
do or 205229
C . 205177
ple ased</w> 205130
An drew</w> 205114
issu es</w> 205090
om ed</w> 205082
Ad ministr 205074
em eter 204998
f ly</w> 204997
ques tions</w> 204892
3 5</w> 204816
par tly</w> 204801
su m</w> 204761
re jec 204611
Ge org 204505
dom estic</w> 204411
newspap er</w> 204340
Th ose</w> 204278
Sh ar 204273
ad ron</w> 204216
c es.</w> 204187
Supre me</w> 204171
bir th</w> 204163
y st 204139
199 6</w> 204127
row ,</w> 204118
C ab 204100
T own</w> 204065
fi re,</w> 204031
rema in 204010
surr ounded</w> 204009
2 5,</w> 203983
str uggl 203958
WIT H</w> 203943
l un 203868
head ed</w> 203857
regist ered</w> 203843
d read 203815
vo y 203815
sle ep</w> 203812
r are</w> 203797
5 %</w> 203760
curi ous</w> 203745
um p</w> 203736
tic ,</w> 203685
K ent 203680
St or 203653
An der 203638
R oute</w> 203606
V I 203553
b la 203532
enc e 203502
kno c 203501
ans as</w> 203499
200 5,</w> 203489
w ed 203486
un known</w> 203486
par ties</w> 203466
s / 203445
B . 203412
gather ed</w> 203391
He alth</w> 203211
ris k</w> 203197
Mar ia</w> 203176
L ong 203165
cou ldn't</w> 203128
y le</w> 203112
religi on</w> 203004
4 4 202984
( c 202980
bodi es</w> 202950
il y,</w> 202927
is n't</w> 202924
is m 202877
B ou 202870
fac es</w> 202843
on e's</w> 202820
pain ted</w> 202713
care fully</w> 202652
t one</w> 202621
Mil itary</w> 202620
et s,</w> 202609
design ated</w> 202460
do g</w> 202408
k 's</w> 202392
Franc e.</w> 202385
201 1.</w> 202376
P on 202355
end .</w> 202351
in es,</w> 202308
expla ined</w> 202307
comp re 202277
l on 202270
al ing</w> 202257
Mal ay 202209
spirit ual</w> 202195
attac ked</w> 202190
prog ress</w> 202145
B ang 202116
pla in 202112
A L</w> 202015
200 9.</w> 202012
ó n</w> 201931
John son</w> 201823
Con ference</w> 201755
K el 201722
cho ose</w> 201672
obli ged</w> 201620
be aring</w> 201568
j a</w> 201562
sha d 201542
M ov 201496
bas is</w> 201456
laugh ed</w> 201395
lin ks</w> 201391
so ft 201356
Sta r</w> 201282
tre at</w> 201278
sh ore</w> 201261
broad cast</w> 201225
remark able</w> 201202
tic ally</w> 201166
b low 201117
v eget 201066
im age</w> 201030
p gla 201002
A ra 200981
ain .</w> 200894
administr ative</w> 200873
for get</w> 200859
circumst ances</w> 200841
Ital y</w> 200806
b ar</w> 200766
St and 200706
B ay 200696
St eve</w> 200674
o k</w> 200631
gard en</w> 200617
ul ty</w> 200597
cl er 200584
to .</w> 200573
Ham il 200568
famili ar</w> 200520
crow d</w> 200479
A ut 200399
um in 200368
gol den</w> 200340
inv ited</w> 200232
sh ut</w> 200131
bri ef 200094
L E</w> 200041
put ting</w> 200001
n ucle 199929
know ing</w> 199919
TE D</w> 199904
ri d</w> 199813
Ser ies</w> 199773
2 2,</w> 199718
el le</w> 199655
you 're</w> 199621
si gh 199595
plan ned</w> 199573
li ps</w> 199551
aff ected</w> 199532
ous ness</w> 199530
3 0,</w> 199508
S E</w> 199492
Distric t,</w> 199491
el ess,</w> 199461
ri ce</w> 199284
br on 199260
F O 199257
hun g</w> 199163
vir tu 199161
s at 199058
tit led</w> 198982
S O 198927
o ke</w> 198888
en ever</w> 198886
dist ant</w> 198880
her o 198830
e h 198807
Nic hol 198776
prov ince</w> 198731
cl am 198700
plan ts</w> 198663
Sen ate</w> 198642
met al</w> 198623
jo y</w> 198559
s a</w> 198533
offic ially</w> 198495
serv es</w> 198494
201 2.</w> 198456
M un 198404
te aching</w> 198324
V an 198319
' S</w> 198297
S on 198270
reg arding</w> 198260
Champion ships</w> 198257
" but</w> 198252
chec k</w> 198243
be st 198240
sol em 198171
su it</w> 198153
199 7</w> 198149
mis sed</w> 198141
k is 198134
mar ry</w> 198089
-- --</w> 198076
sha pe</w> 197972
down .</w> 197933
or a</w> 197900
counc il</w> 197896
k ing.</w> 197888
ric al</w> 197877
fa i 197841
replac ement</w> 197793
di plom 197779
basket ball</w> 197759
b ell 197758
re r</w> 197753
Me an 197744
( L 197739
war .</w> 197713
on er</w> 197679
th ick</w> 197676
incorpor ated</w> 197674
ure s.</w> 197611
Pennsylv ania</w> 197594
Steph en</w> 197573
G H 197475
S in 197461
he ight</w> 197359
A h 197343
g as</w> 197325
execu tive</w> 197279
er s'</w> 197266
wh ere,</w> 197258
um "</w> 197254
sh ook</w> 197216
urb an</w> 197190
ul ated</w> 197158
prog res 197143
Sever al</w> 197119
sil ent</w> 197111
s anc 197059
b ed,</w> 196991
st ations</w> 196974
inter pre 196964
defe at</w> 196960
d ress</w> 196946
de v 196929
2 8,</w> 196899
h arm 196868
li br 196837
Mexic o</w> 196831
chall eng 196829
E l</w> 196827
el y.</w> 196757
si a</w> 196746
row ing</w> 196738
m on</w> 196686
com e,</w> 196671
pgla f 196666
be at 196625
toge ther.</w> 196562
app reci 196552
ar i</w> 196531
per s</w> 196528
vo te</w> 196500
est er</w> 196486
a ".</w> 196452
www. gutenberg 196447
estim ated</w> 196368
prof it</w> 196153
H il 196140
2 :</w> 196137
( dis 196119
before .</w> 196108
Se a</w> 196106
P ra 196100
J EC 196052
M AR 196031
hes it 196018
e able</w> 196007
Je an</w> 195992
ed - 195929
tri al</w> 195883
-- that</w> 195822
S ud 195679
ul a</w> 195630
ver e 195572
exp ect</w> 195532
in sist 195527
bro ther,</w> 195522
p he 195513
Jus tice</w> 195508
ing ."</w> 195507
Le on 195480
re present</w> 195465
le an 195449
. com</w> 195390
tur n 195366
Cre ek</w> 195333
Christ mas</w> 195284
lo s</w> 195274
will ,</w> 195259
ch annel</w> 195246
200 8.</w> 195228
anc ing</w> 195216
G ran 195199
G ul 195153
school ,</w> 195133
elec tric 195103
fl ying</w> 195102
fl ag 195010
lead ers</w> 194936
prac tical</w> 194934
On tari 194712
along side</w> 194704
k er,</w> 194703
ra ,</w> 194696
year - 194673
N az 194668
is lat 194637
re lat 194607
say s,</w> 194586
prot ection</w> 194571
st a 194529
att ack 194529
Pol ice</w> 194506
Cap e</w> 194481
t ear 194474
D ur 194471
" There</w> 194456
k ins</w> 194454
ques tion 194446
ag ent</w> 194422
jo ining</w> 194327
ation "</w> 194317
on 't</w> 194310
rapid ly</w> 194303
ad e,</w> 194282
( 16 194280
gr ati 194266
se ized</w> 194242
re view</w> 194208
2 3,</w> 194178
room s</w> 194158
assist ance</w> 194128
O l 194089
re fu 194078
Mad ame</w> 194064
la in</w> 194055
200 7.</w> 194041
Br un 194034
recog n 194002
respon se</w> 193990
N el 193985
g li 193962
pres ent,</w> 193940
hand s,</w> 193887
deliver ed</w> 193885
remember ed</w> 193866
hol y</w> 193833
fol k</w> 193706
Angel es</w> 193702
si mul 193684
fac ts</w> 193511
w ants</w> 193453
Vol .</w> 193439
peculi ar</w> 193423
f ts</w> 193393
Franc isco</w> 193341
in 's</w> 193319
exp an 193257
p ac 193245
B ru 193189
an other,</w> 193180
ren amed</w> 193109
S A 193098
bor der</w> 193084
ren der</w> 193063
day s.</w> 193032
ur ,</w> 193015
ab sor 192979
we en</w> 192924
N ar 192922
P ot 192894
Y es,</w> 192848
four - 192757
Brit ain</w> 192752
ext ensive</w> 192684
me ."</w> 192607
house hold</w> 192583
wr ong</w> 192573
R al 192549
friend ly</w> 192495
K r 192474
Sun day</w> 192471
9 . 192465
ex ha 192443
system .</w> 192425
201 3.</w> 192407
sym pa 192377
c ard</w> 192348
ple ase</w> 192328
gr ade</w> 192310
' .</w> 192303
Br ad 192295
ap prov 192260
H ome</w> 192216
fir m 192213
at mosph 192180
b omb 192106
con dem 192026
B lo 192006
we ather</w> 191995
a rest</w> 191913
Chur ch,</w> 191882
E di 191763
consist ed</w> 191721
17 5 191720
ca uses</w> 191706
tain ment</w> 191639
C ross</w> 191593
oper ating</w> 191588
Person al</w> 191513
Mini stry</w> 191496
stor m</w> 191476
enc es,</w> 191460
law .</w> 191409
ti al</w> 191384
tournam ent</w> 191334
pa ying</w> 191326
univers ity</w> 191236
men tion</w> 191148
Develop ment</w> 191019
adi um</w> 190952
sugg es 190930
inter view</w> 190897
mic ro 190833
Gol den</w> 190810
_ ;</w> 190756
w a</w> 190739
ther e's</w> 190732
1 : 190722
chi ld,</w> 190716
shar p</w> 190710
N apol 190587
I ’ 190568
natur ally</w> 190565
comp u 190563
2 7,</w> 190557
subsequ ent</w> 190512
ab or 190496
own .</w> 190476
th ick 190407
ep tion.</w> 190381
che er 190334
objec ts</w> 190318
stat ement</w> 190273
ch er 190236
en ge</w> 190232
edit or</w> 190225
O ver</w> 190173
Res er 190103
un k</w> 190090
activ ity</w> 190072
M O 190043
Mag az 190023
tur ing</w> 189991
dam age</w> 189946
ang el 189891
eng ag 189886
cul ture</w> 189885
I sa 189821
thous ands</w> 189803
inhabit ants</w> 189795
th a</w> 189694
lear ning</w> 189670
ch - 189662
an xious</w> 189600
el im 189588
R ad 189579
no t.</w> 189564
evid ently</w> 189533
medi an</w> 189527
ut ely</w> 189503
ure ly</w> 189503
adv oc 189440
2 6,</w> 189426
p t</w> 189411
l ' 189392
spec im 189343
la ke</w> 189282
Wash ington,</w> 189265
pass es</w> 189230
arri val</w> 189219
func tion</w> 189202
po ver 189199
co very</w> 189188
d s.</w> 189187
do zen</w> 189183
d 's</w> 189178
com e.</w> 189151
proble m</w> 189145
old est</w> 189135
dep ic 189126
Vi et 189114
al ity.</w> 189105
Al f 189070
am bi 189053
JEC T</w> 189041
H ong</w> 189001
L ind 188999
youn g 188945
D O 188879
S ong 188716
Execu tive</w> 188681
ent ry</w> 188662
ran g</w> 188654
mat ches</w> 188651
( which</w> 188644
k "</w> 188505
mov ie</w> 188505
1 4.</w> 188500
201 4.</w> 188496
am p</w> 188469
Bud d 188435
educ ational</w> 188423
H amp 188417
or ous</w> 188368
Coun t</w> 188342
S la 188328
Dou gl 188267
pro te 188228
p ale</w> 188165
NB ER 188035
S pain</w> 187980
we ar</w> 187921
e ous</w> 187858
activi ties</w> 187841
dro p</w> 187809
" :</w> 187803
Li eutenant</w> 187791
ma ,</w> 187764
though t,</w> 187759
Florid a</w> 187758
w ag 187630
town .</w> 187561
ste ad 187547
ti er</w> 187544
sir ,</w> 187521
fall ing</w> 187516
assist ant</w> 187483
19 .</w> 187450
1 3.</w> 187433
g a</w> 187424
TE NBER 187423
i an,</w> 187386
comm od 187361
ali ties</w> 187357
house hol 187330
th 's</w> 187280
" that</w> 187097
exp ens 187075
ne goti 187074
identi fied</w> 187062
sever e</w> 187040
ow ing</w> 187038
L ine</w> 187026
ma id 186986
Med ical</w> 186974
GU TENBER 186973
en z 186972
fif teen</w> 186953
per form</w> 186935
initi al</w> 186899
jus tice</w> 186871
te am.</w> 186860
our .</w> 186835
G ood</w> 186816
allow s</w> 186764
nor th- 186671
W y 186632
i an 186614
Stre et,</w> 186557
G ames</w> 186491
defin ed</w> 186475
ad or</w> 186381
s low</w> 186322
Sid eno 186314
Pla y 186264
"D o</w> 186253
W ill 186229
shor tly</w> 186221
sc ale</w> 186177
ri de</w> 186053
== == 185977
poc ket 185975
ful .</w> 185965
H ard 185932
15 .</w> 185932
3 , 185928
op position</w> 185896
est ate</w> 185884
Ath le 185860
w ounded</w> 185855
3 2</w> 185790
ro p 185736
Atlan tic</w> 185712
qu ick</w> 185620
f ill</w> 185604
a ren 185584
(dis ambigu 185583
L is 185573
[ Sideno 185558
Fr on 185530
gun s</w> 185501
ter r 185458
r ural</w> 185451
c and 185446
ab und 185432
We b</w> 185427
iz ation</w> 185382
Willi ams</w> 185367
nor mal</w> 185353
li p 185342
c ry</w> 185225
expres s</w> 185221
ir ing</w> 185186
em an</w> 185148
bu y</w> 185121
k h 185010
le ts</w> 184988
princip le</w> 184949
collec ted</w> 184948
attemp ts</w> 184945
w s</w> 184933
sex ual</w> 184895
Ad mir 184829
fal se</w> 184820
O ri 184794
c loc 184792
e b 184789
tra in 184755
sac red</w> 184724
A v 184672
prot ected</w> 184631
sig ns</w> 184574
convers ation</w> 184515
Americ a,</w> 184481
C hampi 184456
pow er,</w> 184386
9 0 184377
R ang 184351
ti a</w> 184295
broad cast 184256
us er</w> 184191
resul ted</w> 184173
sem i- 184165
B BC</w> 184145
in ner</w> 184110
a h,</w> 184086
ous ly,</w> 184047
j i</w> 184038
em ,</w> 184000
O ce 183840
notic ed</w> 183836
R ome</w> 183797
G ab 183742
p ages</w> 183735
k in</w> 183733
be y</w> 183730
Gre ec 183724
w inter 183703
ish .</w> 183667
Swed ish</w> 183642
enc ies</w> 183617
b an</w> 183610
them ;</w> 183533
s es.</w> 183446
celebr ated</w> 183431
et ary</w> 183352
ra m</w> 183313
Col or 183310
pat ri 183302
in formed</w> 183270
L angu 183254
ward s,</w> 183252
al li 183160
comm ittee</w> 183151
Portu gu 183144
w an 183138
disc over</w> 183107
happ en 183086
Con feder 183044
" In 182992
Hav ing</w> 182980
Not able</w> 182957
devo ted</w> 182922
roll ed</w> 182856
freed om</w> 182835
Is lam 182760
er able</w> 182697
b ell</w> 182672
intro duc 182639
199 5</w> 182612
R ay 182590
O r</w> 182575
maxim um</w> 182558
an tic 182556
ev il 182514
so vere 182510
199 4</w> 182469
o z 182466
Wal es</w> 182466
" -- 182432
" Al 182403
tou ch 182387
wal king</w> 182383
Emp ire</w> 182342
hund reds</w> 182297
lo ve,</w> 182295
[Sideno te:</w> 182288
ath le 182271
H im 182260
co ast 182257
post - 182240
s light</w> 182225
hear ing</w> 182196
199 2</w> 182184
ul ts</w> 182164
bre aking</w> 182156
proble ms</w> 182141
man n</w> 182137
us eful</w> 182094
determin e</w> 182068
valu able</w> 182064
1 %</w> 182041
bor ne</w> 182040
dro ve</w> 182025
gener ation</w> 182018
wat ching</w> 181973
contem porary</w> 181964
hear t 181948
ste am 181934
de :</w> 181860
val ley</w> 181840
X I 181795
n es</w> 181776
as sumed</w> 181667
201 5.</w> 181650
G os 181627
continu es</w> 181583
descrip tion</w> 181563
town s</w> 181528
e z</w> 181504
Cent re</w> 181440
to- mor 181440
F our</w> 181428
d well 181411
st ric 181392
cho ice</w> 181341
pre vent 181333
new ly</w> 181294
gradu ate</w> 181240
j am 181238
near by</w> 181166
ard s.</w> 181147
it e,</w> 181123
class es</w> 181110
en "</w> 181086
i x 181066
anc e 181065
beli ef</w> 181012
ful l- 180999
allow ing</w> 180910
igh ts</w> 180882
hand ed</w> 180813
ograp hi 180777
your self</w> 180763
interest s</w> 180731
PRO JECT</w> 180728
2 9,</w> 180698
ne .</w> 180638
b ass</w> 180627
ar y 180616
at ely,</w> 180556
dg e.</w> 180556
jo b</w> 180546
under standing</w> 180530
dr ama</w> 180521
X V 180480
int end 180471
sh ore 180450
re pl 180407
8 0</w> 180396
applic ation</w> 180381
ob vi 180339
pic ally</w> 180299
doc tor</w> 180232
pul led</w> 180225
pris on</w> 180176
K il 180155
C D</w> 180123
ha w 180068
Al so</w> 180022
in fin 180019
D IS 180015
fair ly</w> 179993
Ar ti 179900
id es,</w> 179898
sk in</w> 179878
on y 179795
at s,</w> 179716
em phas 179700
W as</w> 179698
second ary</w> 179688
o ch 179675
dis sol 179641
Russi a</w> 179635
med al</w> 179489
under stand 179461
re min 179455
particip ated</w> 179451
d ged</w> 179405
5 7 179401
P il 179393
att end</w> 179381
pre dic 179371
produc t</w> 179339
vic tim 179335
se es</w> 179329
wat ers</w> 179283
200 1,</w> 179248
ti ble</w> 179187
h r 179174
don e,</w> 179137
pic ked</w> 179130
l ers</w> 179103
mom ent 179071
sk i 179038
Cor ps</w> 179020
bor e</w> 178984
Christi an 178973
pri vil 178969
temp le</w> 178969
coun ter 178968
stri ke</w> 178962
em er 178944
ter n</w> 178937
success fully</w> 178926
W ay 178921
sil ence</w> 178895
citiz ens</w> 178892
w er 178846
( F 178821
main tained</w> 178770
appe are 178756
in sur 178723
ab led</w> 178718
ec ts</w> 178700
ra v 178620
Bet ween</w> 178594
K ur 178583
S pi 178543
of - 178500
ma thematic 178460
Bi ography.</w> 178433
" All</w> 178427
Comm unity</w> 178392
th in</w> 178383
t ask</w> 178348
cop y,</w> 178331
tr ag 178298
K at 178287
proce eded</w> 178266
devel op</w> 178244
t i</w> 178241
pro hi 178224
le ;</w> 178206
resul ting</w> 178179
Lond on.</w> 178152
P un 178120
t ren 178119
Pop e</w> 178098
appear ing</w> 178070
fin ish</w> 178069
ul ed</w> 178052
dre am 178031
au ,</w> 178002
tw are</w> 177967
re gre 177915
con su 177905
pro of</w> 177896
it age</w> 177893
for ty</w> 177882
ig i 177867
dang erous</w> 177786
read ,</w> 177765
fort une</w> 177735
wood en</w> 177694
cat ch</w> 177688
orig in</w> 177684
t all</w> 177646
re move</w> 177645
Maj est 177637
- in- 177606
ri ght.</w> 177586
Carol ina</w> 177570
t e,</w> 177505
di r 177490
I ra 177349
it ch</w> 177319
possi ble,</w> 177252
f anc 177230
c ris 177176
' t 177172
el a</w> 177149
tim ately</w> 177135
op pon 177103
fl at</w> 177088
ash ing</w> 177040
ev ed</w> 177001
w ine</w> 176928
pro grams</w> 176824
Reg ister</w> 176800
Fore ign</w> 176749
co sts</w> 176741
govern or</w> 176702
st aff 176678
1 ).</w> 176651
or al</w> 176631
Al ber 176631
Cha ir 176627
strong ly</w> 176603
Fur ther</w> 176589
de - 176587
( 190 176570
app ly</w> 176539
sc op 176535
6 th</w> 176497
5 00 176495
Con nec 176442
K am 176439
j i 176407
p ool</w> 176294
sup pos 176225
sing ing</w> 176224
Theat re</w> 176201
sh r 176198
B e</w> 176192
bl u 176174
earli est</w> 176160
produc ts</w> 176056
lear n 176056
ex change</w> 175990
academ ic</w> 175966
par t,</w> 175944
WAR RAN 175923
ach el 175909
v ul 175875
P ort</w> 175869
min im 175853
does n't</w> 175853
it or</w> 175822
ent y</w> 175768
ex pl 175758
ou d 175750
extre me</w> 175679
str at 175642
friend s,</w> 175636
nat ure,</w> 175630
saf ety</w> 175608
li ked</w> 175564
sa ved</w> 175520
ves sel</w> 175443
was n't</w> 175409
fe et,</w> 175258
pi an 175253
l ord</w> 175234
te acher</w> 175184
E X 175170
experi enced</w> 175151
200 4,</w> 175108
fi es</w> 175086
Al bu 175074
c ep 175026
tion ally</w> 174941
L anc 174939
deta ils</w> 174851
ner v 174850
V E</w> 174846
bo w</w> 174833
re ports</w> 174800
us al 174793
command ed</w> 174772
d il 174745
bur st</w> 174730
tor al</w> 174729
Tr ack</w> 174722
Sam uel</w> 174696
le "</w> 174629
system ,</w> 174608
Sup er</w> 174578
. com 174517
ol s</w> 174512
candid ate</w> 174505
liter ature</w> 174471
inv asi 174283
T Y</w> 174181
low - 174177
tra ined</w> 174155
Co ast</w> 174138
sym bol 174122
ro de</w> 174113
ch es.</w> 174050
equip ment</w> 173937
ran ked</w> 173905
lif ted</w> 173885
ro polit 173835
R and 173823
el ed</w> 173807
g le 173799
ab ol 173787
w rest 173693
ess es</w> 173685
establ ish</w> 173662
m ill 173630
princi ples</w> 173585
ex emp 173572
F u 173567
n ’t</w> 173525
aff ili 173504
16 .</w> 173494
afterno on</w> 173473
represent ing</w> 173434
N ig 173430
fi x 173362
stre ets</w> 173352
smil e</w> 173222
hospit al</w> 173201
perha ps,</w> 173080
ari a</w> 173079
ounc ed</w> 173039
Op en</w> 173035
indic ate</w> 173009
phen om 172985
wom en,</w> 172946
su stain 172921
ell .</w> 172843
t ears</w> 172827
fle et</w> 172823
s ending</w> 172822
c a</w> 172821
aff air 172799
m ap 172779
Mexic an</w> 172772
Napol e 172728
al ty</w> 172650
conver ted</w> 172628
o x</w> 172606
un fortun 172518
tou ched</w> 172434
jud ic 172426
Min nes 172423
B y 172397
, [ 172396
2 %</w> 172326
B ad 172315
b ill</w> 172309
ta k 172241
be gun</w> 172213
ap proved</w> 172195
occasion ally</w> 172165
ha d,</w> 172151
S our 172133
e u</w> 172131
Univers ity.</w> 172123
Christ op 172110
il ian</w> 172056
du ties</w> 171993
partic ul 171992
In d 171987
Tim e</w> 171961
sacri fic 171942
associ ation</w> 171913
acquain t 171844
il y.</w> 171793
f low</w> 171775
at om 171732
mar g 171716
l o</w> 171690
E st 171675
C D 171665
fin ed</w> 171654
al one,</w> 171645
over all</w> 171634
Ox ford</w> 171596
200 0,</w> 171534
pap ers</w> 171511
Th us,</w> 171481
King dom 171480
Bl u 171470
Asi an</w> 171468
w n</w> 171380
L an 171373
fall s</w> 171368
l er,</w> 171353
200 6.</w> 171350
produc ing</w> 171315
ann a</w> 171296
pr int</w> 171282
( 18 171275
industri al</w> 171264
tur ns</w> 171263
(disambigu ation)</w> 171219
voic e,</w> 171216
am i</w> 171127
superi or</w> 171017
se a,</w> 171005
are .</w> 170960
ty pically</w> 170912
3 ]</w> 170874
or nam 170847
tic s.</w> 170795
r hy 170766
a head</w> 170764
Mat the 170745
T op</w> 170733
l it 170732
Turk ish</w> 170731
fac il 170712
War .</w> 170699
T V 170666
C E</w> 170659
O .</w> 170647
Al bert</w> 170631
the tic</w> 170512
r um 170507
u ous</w> 170503
lead s</w> 170387
le y.</w> 170369
Pro test 170262
it self,</w> 170249
cha e 170192
suffer ing</w> 170136
B en</w> 170076
ac knowle 170073
Ohi o</w> 170064
Med ic 170056
( I 170017
spl en 169975
ne gl 169953
Doc tor</w> 169925
seri es,</w> 169880
ward .</w> 169875
main tain</w> 169839
201 6.</w> 169833
din ner</w> 169779
administr ation</w> 169765
strugg le</w> 169764
es ".</w> 169750
Th rough</w> 169727
20 .</w> 169698
ff ic</w> 169692
w ra 169690
Bus iness</w> 169648
ri v 169642
k itch 169618
w ings</w> 169611
ton 's</w> 169602
gi c</w> 169594
C B 169588
own s</w> 169535
be ar 169515
é e</w> 169449
moun tains</w> 169355
effec tive</w> 169350
ro ll</w> 169311
r ation</w> 169263
all s</w> 169247
gr ace</w> 169227
c ell</w> 169178
follow s</w> 169172
des per 169164
t ing 169155
L yn 169115
heav ily</w> 169027
w ant 168967
aff airs</w> 168825
co ,</w> 168802
wa it 168757
Isra el</w> 168751
enn is</w> 168749
establ ishment</w> 168725
V il 168719
scrip tion</w> 168717
dis gu 168703
territ ory</w> 168687
er :</w> 168590
under st 168587
d ge 168551
histor y,</w> 168536
in ts</w> 168530
B ill 168437
Q U 168410
C - 168408
feel ings</w> 168399
good - 168390
am oun 168376
G old 168370
win ner</w> 168365
u d</w> 168357
ch ann 168298
5 5 168279
Americ a.</w> 168253
ph y 168236
inst ance,</w> 168156
C )</w> 168153
3 :</w> 168153
lo ad</w> 168136
l as 168135
speci fic 168013
der ing</w> 167985
period ,</w> 167951
Freder ick</w> 167951
C u 167947
e k,</w> 167912
ess ing</w> 167909
L ad 167846
e ing</w> 167838
ep ing</w> 167785
div ine</w> 167766
appear ances</w> 167766
R ap 167715
cri me</w> 167705
sc attered</w> 167701
inst inc 167693
adv is 167678
far m</w> 167663
sel ling</w> 167659
fi red</w> 167612
F ul 167610
desi red</w> 167554
igh t,</w> 167529
199 1</w> 167487
Tenn es 167373
separ ated</w> 167314
oc rac 167262
ment ary</w> 167188
h an 167180
sou th- 167145
Ed in 167105
Com mission 167101
( b.</w> 167081
199 3</w> 167066
off .</w> 167047
sh op</w> 167026
d are</w> 167023
p ig 166988
subst anti 166971
ha z 166945
re s.</w> 166943
you ?"</w> 166875
Colum bia</w> 166858
b id</w> 166845
inter nal</w> 166828
N or</w> 166807
act ress</w> 166789
2 ).</w> 166786
wh enever</w> 166781
dres sed</w> 166781
require ments</w> 166767
expla in</w> 166764
Har v 166763
you 'll</w> 166741
nomin ated</w> 166714
bo y,</w> 166702
pe ac 166680
qu es</w> 166585
h at</w> 166533
star ring</w> 166511
dr ag 166501
S em 166476
b ,</w> 166475
R ock</w> 166387
in fer 166358
ey ed</w> 166339
ne u 166330
3 %</w> 166325
Don 't</w> 166320
ri ver,</w> 166294
Hous e,</w> 166275
A - 166265
p ag 166264
-- _ 166245
al so,</w> 166195
no ,</w> 166151
bur ning</w> 166134
road s</w> 166133
col our</w> 166115
enti ty</w> 166090
C lin 166080
us crip 166066
az z</w> 166035
Indi a.</w> 166031
stat e,</w> 165927
b a</w> 165899
si e</w> 165888
consist ing</w> 165871
anc es.</w> 165831
gu id 165814
ic e.</w> 165722
mur der</w> 165719
"Y ou 165714
do or.</w> 165667
tal ked</w> 165633
elec tion,</w> 165627
us ed,</w> 165613
Par t</w> 165611
a e 165584
S am</w> 165581
f le</w> 165558
lad ies</w> 165505
yn ast 165496
Gutenberg "</w> 165488
aband oned</w> 165460
foc us</w> 165443
] ,</w> 165330
Europ e,</w> 165277
comp il 165274
am e 165118
ch ron 165116
six th</w> 165107
g ood,</w> 165073
gam e,</w> 165026
accord ance</w> 164971
Wat er 164894
reli ef</w> 164849
ev al</w> 164841
ra il</w> 164820
on ym 164774
Sain t- 164763
Li fe 164735
 k m</w> 164735
sk ir 164706
e y.</w> 164686
am i 164676
pr oud</w> 164614
visi ble</w> 164582
phys ic 164581
land s,</w> 164446
tran si 164439
champion ship</w> 164429
Em pi 164388
uni que</w> 164364
authori ties</w> 164292
educ ated</w> 164288
ex trac 164268
" Ch 164266
II I 164251
tro op 164220
T ak 164206
chur ch,</w> 164203
ho sted</w> 164175
Rev .</w> 164154
j e 164147
land scap 164126
a _,</w> 164118
re ar</w> 164099
me ;</w> 164088
it y;</w> 164068
D V 164052
rest aur 164048
pot ential</w> 164031
d ul 163979
gu est</w> 163973
al y 163945
satis fied</w> 163939
( K 163874
,00 0 163816
T R 163803
al ists</w> 163793
ban ks</w> 163755
' "</w> 163627
Nor we 163626
on ce,</w> 163619
h an</w> 163600
it ?"</w> 163584
hor iz 163577
seas ons</w> 163571
om .</w> 163555
17 .</w> 163512
z ation</w> 163494
dri ving</w> 163408
Sy stem 163406
g ing</w> 163374
D ig 163368
re l</w> 163338
dem anded</w> 163335
over .</w> 163332
S - 163317
( 189 163281
ce ased</w> 163258
conclud ed</w> 163174
a ud 163145
R y 163093
9 9 163069
lo ose</w> 163066
comp on 163061
Princ ess</w> 163001
abs ence</w> 162988
b ent</w> 162965
defin i 162938
"D on't</w> 162935
mid st</w> 162934
Victor ia</w> 162851
G old</w> 162841
m igr 162839
hid den</w> 162838
const antly</w> 162802
wor se</w> 162747
ution ary</w> 162731
tim es.</w> 162723
G or 162716
Jer usal 162713
bur n</w> 162706
en or 162696
servic e.</w> 162694
pra y 162691
g as 162673
oc k,</w> 162529
some one</w> 162512
dig ital</w> 162504
shi re,</w> 162498
meth od 162478
enn y</w> 162424
sti r 162410
confid ence</w> 162378
in ch</w> 162274
sa d</w> 162251
sp lit</w> 162239
mess age</w> 162218
Edin bur 162216
W ar,</w> 162207
3 6</w> 162179
intro duction</w> 162141
bro thers</w> 162093
am az 162066
k illing</w> 162057
Scot land</w> 162051
s es 162049
pri est</w> 162037
S H 162027
en se.</w> 162015
" Not</w> 161982
mother 's</w> 161982
os si 161968
min d.</w> 161960
Engl and 161916
Pro t 161912
18 .</w> 161908
M unicip 161879
T ony</w> 161876
199 0</w> 161864
rap id</w> 161794
subjec ts</w> 161791
of .</w> 161751
gam e.</w> 161738
7 0</w> 161731
bes ides</w> 161710
j ob 161700
lu x 161669
re duc 161644
sol o</w> 161605
7 th</w> 161579
ly ric 161497
O reg 161491
pl ant 161468
ous ly.</w> 161450
P A 161415
school .</w> 161354
writ ers</w> 161331
o o</w> 161323
M es 161291
sent ence</w> 161244
S S</w> 161185
th is.</w> 161183
e ks</w> 161172
a ked</w> 161138
jo int</w> 161125
Sy m 161125
necess arily</w> 161116
equ ival 161094
promo tion</w> 161090
bri g 161055
addres sed</w> 161036
1 ;</w> 161007
a y.</w> 160997
Pr us 160973
Thi rd</w> 160972
absol utely</w> 160916
L es 160915
Kore an</w> 160883
scen es</w> 160861
ropolit an</w> 160763
con ference</w> 160762
King 's</w> 160754
ch ose</w> 160685
Ex c 160662
Au th 160633
mo bil 160603
lin k</w> 160597
we ak</w> 160575
Bor n</w> 160573
employe es</w> 160556
( ,</w> 160518
occ ur</w> 160442
Fi eld</w> 160361
tain ,</w> 160337
ac k,</w> 160326
le v 160316
B un 160295
adver tis 160249
fashi on</w> 160247
i red</w> 160187
Bi bli 160142
" Then</w> 160105
enjo yed</w> 160069
co at</w> 160040
e tic</w> 160032
arrest ed</w> 160024
5 6 159995
5 8 159954
Batt ali 159935
ho st 159919
ob lig 159887
wind ows</w> 159868
frequ ent</w> 159868
R on 159848
Ri ver 159843
God 's</w> 159812
s now 159804
dr ink</w> 159803
extra ordinary</w> 159778
P om 159768
S ig 159727
est ing</w> 159678
Californi a,</w> 159663
em ed</w> 159646
surpr ised</w> 159618
cle an</w> 159605
applic able</w> 159582
N o,</w> 159562
whol ly</w> 159521
mon ey,</w> 159519
L t 159504
al ter 159477
guit ar 159380
b on</w> 159337
Fig .</w> 159306
T ai 159278
bo ats</w> 159274
Ar k 159268
- up</w> 159191
meas ures</w> 159147
ro of</w> 159131
performan ces</w> 159110
"L a</w> 159087
s ._</w> 159047
N ik 159033
Cl ass</w> 159005
ste el</w> 158998
comp li 158986
TE R 158971
e !"</w> 158961
t ing,</w> 158943
---- "</w> 158921
occur s</w> 158879
T ok 158868
eBoo ks</w> 158767
h oo 158759
e ),</w> 158712
tend er</w> 158668
achiev ed</w> 158650
re m 158641
el s.</w> 158624
com mer 158614
viol ent</w> 158586
fru it</w> 158586
re mo 158521
fl ed</w> 158518
German y,</w> 158409
oursel ves</w> 158406
ent ering</w> 158403
Mus li 158322
U K 158184
[ _ 158149
H and 158129
ti ous</w> 158089
" De 158082
contribu ted</w> 158081
arm s,</w> 158078
dens ity</w> 158069
re new 158055
Un cle</w> 158053
pla y,</w> 158050
dis play 158036
An ne</w> 158035
deli ght 158001
la u 157960
ou ter</w> 157958
resid ents</w> 157956
Bri an</w> 157955
E u 157872
Con tin 157862
it ,"</w> 157826
st ayed</w> 157798
T un 157743
est e 157729
desc end 157685
gl ance</w> 157670
pay ments</w> 157656
se g 157649
( G 157648
3 3</w> 157642
ar ts</w> 157629
gir l,</w> 157621
201 7.</w> 157601
im men 157593
Po st 157571
N um 157558
d ur 157524
IN G 157510
no d 157499
H ave</w> 157487
exp anded</w> 157393
tow er</w> 157341
belong ing</w> 157310
Margare t</w> 157304
% )</w> 157302
countr y 157298
daugh ter,</w> 157209
Jew s</w> 157207
bran ches</w> 157198
sp ac 157179
re viv 157172
Th ere 157145
. _,</w> 157133
T ol 157106
reas ons</w> 157029
t able,</w> 157016
D ick</w> 157013
200 3,</w> 156940
Im perial</w> 156916
T ig 156877
gr ass</w> 156855
i g</w> 156833
p lo 156774
arti ll 156767
dis ease</w> 156705
cir cul 156700
ain 't</w> 156655
ha bit</w> 156599
pain ting</w> 156577
el 's</w> 156558
Bro ok 156534
hol e</w> 156523
S ports</w> 156518
dis h</w> 156517
pol y 156516
ta il 156500
e ast 156484
road .</w> 156457
Bel gi 156457
sol id</w> 156431
J unior</w> 156421
3 ).</w> 156340
H ad</w> 156339
ol e</w> 156306
respec tivel 156226
v it 156204
Premi er</w> 156183
Que ens 156099
B ure 156074
poin t,</w> 156058
analys is</w> 156051
col l 156044
X .</w> 156029
ob taining</w> 155933
ri ver 155926
al ;</w> 155900
cor e</w> 155838
tro pical</w> 155834
comp liance</w> 155826
benef it</w> 155788
ve hi 155777
" U 155702
t os 155696
5 ).</w> 155691
B I 155652
M ember</w> 155650
z .</w> 155618
work ers</w> 155603
r ound 155577
Ar n 155516
fav our</w> 155488
inten tion</w> 155485
inst ant</w> 155480
appoint ment</w> 155476
re ign</w> 155470
a w</w> 155457
prep are</w> 155445
Li br 155403
represent ative</w> 155356
der s,</w> 155337
3 00</w> 155313
Air port</w> 155278
a _</w> 155234
Rog er</w> 155219
techn ology</w> 155214
car s</w> 155206
com o 155200
quali fied</w> 155185
4 :</w> 155180
at es.</w> 155177
anal y 155072
pas sion 155067
ell er</w> 155063
S ac 155055
ca us 155011
Moun tain</w> 154992
Gr and 154983
Jack son</w> 154959
ic ked</w> 154931
An d,</w> 154931
tru ly</w> 154922
Michig an</w> 154899
ist s,</w> 154885
Anth ony</w> 154817
is ol 154816
w ret 154770
addi tion,</w> 154758
vessel s</w> 154758
compan y,</w> 154714
perc ent</w> 154709
attac ks</w> 154701
transl ated</w> 154680
cover ing</w> 154671
refer ences</w> 154641
an te 154640
n ations</w> 154636
charac ter,</w> 154632
D y 154613
mid d 154608
( E 154563
s ick</w> 154553
dec lar 154536
inter ior</w> 154534
wi fe 154523
in es.</w> 154464
New s</w> 154451
fiel d.</w> 154449
commission ed</w> 154432
rel atively</w> 154426
f ran 154406
sign al</w> 154405
rec ru 154348
deep ly</w> 154345
hous ing</w> 154328
themsel ves,</w> 154314
swe et 154311
c ode</w> 154293
govern ment,</w> 154292
g oods</w> 154284
Wil son</w> 154268
sour ces</w> 154268
re place</w> 154219
Reg iment</w> 154179
St ew 154169
p ushed</w> 154162
la y 154160
im prison 154156
Sw itz 154152
ut ,</w> 154146
p ha 154100
] .</w> 154059
n ice</w> 154035
dis play</w> 154031
Yor k.</w> 154023
g e,</w> 154019
communic ation</w> 153992
cover s</w> 153977
as king</w> 153942
ve hic 153940
requ est</w> 153894
al together</w> 153853
chang ing</w> 153844
found ation</w> 153813
m ac 153804
el ement 153764
en ;</w> 153750
" They</w> 153742
sha ped</w> 153716
possi ble.</w> 153715
hop ed</w> 153667
sp end</w> 153666
liter at 153620
Ep is 153574
intellig ence</w> 153573
ef ,</w> 153512
i ve</w> 153506
requi res</w> 153487
exhi b 153487
Sim on</w> 153433
Hum an</w> 153409
wom an 153389
acc es 153369
( H 153336
P ress</w> 153330
materi als</w> 153322
B ran 153311
Don ald</w> 153306
per pet 153297
ro g 153294
plat form</w> 153289
col leg 153265
sor ry</w> 153187
ess ential</w> 153185
escap ed</w> 153162
cav al 153132
dg es</w> 153100
bus y</w> 153091
consequ ence</w> 152984
part ner 152971
F our 152959
b ig 152946
200 5.</w> 152924
li ghts</w> 152910
T ow 152859
Comm and 152831
u ary,</w> 152818
_ )</w> 152816
Bar bar 152730
wa ve</w> 152709
198 8</w> 152695
imple ment 152655
( The</w> 152624
pro ph 152582
J r.</w> 152560
Li ve</w> 152549
d ut 152521
ship s.</w> 152512
V ari 152496
( now</w> 152452
d en,</w> 152390
t as 152378
J ord 152378
ti red</w> 152375
cour age</w> 152368
http://www. gutenberg 152304
resol ved</w> 152290
4 %</w> 152281
P age</w> 152221
cl erg 152210
Fam ily</w> 152190
Poli tical</w> 152183
ti ly</w> 152154
c up</w> 152147
reti re 152124
ho tel</w> 152123
Lew is</w> 152115
ag o.</w> 152109
influ enced</w> 152104
Pl an 152093
de vic 152072
go .</w> 152039
war ri 152030
tru e,</w> 152026
6 ).</w> 152023
preser ved</w> 152009
any where</w> 151979
as ide</w> 151925
A N</w> 151849
Bo y 151825
in et</w> 151815
n ick 151788
Jan e</w> 151751
B all 151720
so il</w> 151684
A l</w> 151666
surpr ise</w> 151656
Ar men 151654
o e</w> 151651
x x 151598
V inc 151581
Mem orial</w> 151572
con fu 151510
au gh 151509
M e</w> 151497
ac commod 151494
enjo y</w> 151486
Coun try</w> 151430
mag nific 151425
- based</w> 151422
lo ,</w> 151412
u .</w> 151388
Switz er 151381
hear t.</w> 151356
belong ed</w> 151335
do ors</w> 151274
fi re.</w> 151253
rel ative</w> 151241
G O 151231
y ?</w> 151195
elim in 151190
Vi enn 151140
tru th,</w> 151129
ra ising</w> 151121
exerc ise</w> 151052
fav or</w> 151043
Ma in</w> 151026
govern ment.</w> 151022
Peop le</w> 150994
arti st 150980
impres sion</w> 150901
de ar 150896
de pos 150874
res s.</w> 150847
explan ation</w> 150847
sk et 150829
ref ers</w> 150813
4 ).</w> 150800
wh en,</w> 150751
su rely</w> 150743
deli ber 150743
di men 150729
ang er</w> 150695
AN Y</w> 150683
wind ow 150677
le :</w> 150630
ad or 150628
Min ist 150590
D ick 150573
s wi 150564
R un 150553
bri ght 150548
ly - 150538
f ice</w> 150524
r ant</w> 150486
C L 150483
at - 150406
ro t 150397
ed ral</w> 150389
in ches</w> 150368
bra in</w> 150330
trademar k</w> 150291
el ing</w> 150258
parag raph 150249
in spir 150241
v ed,</w> 150224
Pri ze</w> 150220
av i 150206
wor st</w> 150180
command er</w> 150164
P H 150153
res c 150148
T O 150036
gent le</w> 150032
lab or</w> 150026
hon est</w> 150002
form al</w> 149952
Ar c 149943
olog ist</w> 149929
Bul g 149902
A dam</w> 149897
thin ks</w> 149891
y !</w> 149888
Americ ans</w> 149859
year- old</w> 149833
perform ing</w> 149828
3 4</w> 149777
ph y</w> 149754
necess ity</w> 149732
di ag 149697
198 9</w> 149662
B - 149653
He ad</w> 149650
P ed 149618
lin ,</w> 149582
inclu de:</w> 149581
a qu 149548
ic an</w> 149546
C ru 149511
bir th 149479
In don 149446
vill ages</w> 149403
enti ally</w> 149390
5 : 149379
Mod ern</w> 149377
n i</w> 149362
P ower</w> 149355
thin k,</w> 149349
n om 149348
step ped</w> 149343
m ud 149332
s ?"</w> 149327
b om 149323
s ar 149307
fr ame</w> 149285
ce as 149249
Ever y 149237
J . 149230
wa ited</w> 149212
p ist 149200
Br on 149191
ri a</w> 149128
wat ch 149070
st atis 149056
V E 148984
nav al</w> 148956
W rit 148889
ear th,</w> 148856
as pec 148779
sc oring</w> 148767
ff al 148762
contribu tions</w> 148749
; "</w> 148715
it ?</w> 148679
music ,</w> 148663
leg s</w> 148658
ni c</w> 148638
preser ve</w> 148614
at or,</w> 148591
proce ed 148569
c od 148548
w ound 148544
promo ting</w> 148541
7 ).</w> 148530
ste in</w> 148529
j eal 148512
character is 148487
er t</w> 148476
ex ist</w> 148448
dis covery</w> 148446
an n</w> 148409
Ma h 148401
al 's</w> 148354
5 :</w> 148342
T our</w> 148337
descri bes</w> 148316
tra ffic</w> 148312
l ing,</w> 148307
quar ter 148304
bod y.</w> 148296
pe as 148256
y ".</w> 148210
Ari z 148198
Cast le</w> 148186
reason able</w> 148177
se ated</w> 148110
min d 148101
er ies</w> 148090
stat e.</w> 148041
pro file</w> 148035
um s</w> 148030
Australi a.</w> 148010
Qu ar 148009
Par k,</w> 147994
P L 147955
Hospit al</w> 147950
ab o 147948
ul ate</w> 147931
suffici ently</w> 147929
p e,</w> 147923
enough ,</w> 147913
temper ature</w> 147898
ship s,</w> 147878
s ick 147846
su pre 147846
BO O 147833
E ast 147831
M S</w> 147812
man uscrip 147812
i di 147748
H ud 147747
my self,</w> 147746
F ree</w> 147673
B ed 147668
say ing,</w> 147637
hill s</w> 147631
B ell 147624
Syd ney</w> 147618
contro lled</w> 147608
suppor ting</w> 147592
f ate</w> 147533
ta ste</w> 147522
ali ze</w> 147520
( see</w> 147510
tem por 147501
C ow 147485
iz ing</w> 147472
ne st 147418
yi el 147368
w ol 147359
Jud ge</w> 147356
possi bility</w> 147310
ud e,</w> 147252
s _,</w> 147249
seri es.</w> 147248
8 ).</w> 147172
pl ate</w> 147157
amp le</w> 147157
im it 147152
happ iness</w> 147149
gr ounds</w> 147147
theat re</w> 147146
b low</w> 147129
Li ght</w> 147111
z y</w> 147023
pro por 147019
" She</w> 147004
S S 146993
( 15 146909
ll ing</w> 146905
ob st 146882
be tra 146877
3 8</w> 146854
W a 146815
c up 146758
public ation</w> 146696
th ank</w> 146687
ill - 146662
Tayl or</w> 146656
Con tro 146630
sc or 146611
re ality</w> 146533
A y 146519
ca using</w> 146486
ant as 146468
bra ve</w> 146467
L ang 146424
ter 's</w> 146424
Lou isi 146412
p edi 146406
forgott en</w> 146340
2 ;</w> 146318
R . 146296
stri king</w> 146218
soldi er</w> 146133
techn ical</w> 146132
gi e</w> 146121
appro ached</w> 146104
la v 146096
s tim 146081
cros sing</w> 146072
com edy</w> 146069
c lin 146043
audi ence</w> 146042
Histor ical</w> 146021
cerem on 146020
E mer 145969
comb ination</w> 145967
st ation 145950
f et 145873
class ical</w> 145849
faith ful</w> 145838
pati ent</w> 145836
them e</w> 145795
Ri ver,</w> 145741
Le ad 145712
deriv ative</w> 145711
Norwe gian</w> 145690
( 17 145666
Pennsylv ani 145653
C lo 145628
Wis cons 145627
level s</w> 145607
te ach</w> 145587
st ones</w> 145576
ul timately</w> 145555
coun ten 145537
mo tor 145514
N A</w> 145494
sou l 145491
D id</w> 145448
regi ons</w> 145378
bor ough</w> 145336
gr ant</w> 145311
sec ured</w> 145275
k el 145190
Europ e.</w> 145183
campa ign 145167
ex ternal</w> 145056
pl ed</w> 145050
L L 144998
u le</w> 144882
threat ened</w> 144878
acc used</w> 144867
D AM 144856
Inf antry</w> 144785
mur der 144750
ap h 144737
6 :</w> 144730
Georgi a</w> 144704
degre es</w> 144671
Portugu ese</w> 144669
loo k 144668
him self 144662
n - 144600
tran sport</w> 144595
dec re 144580
serv ant</w> 144577
"Th at's</w> 144567
shor t,</w> 144556
3 1,</w> 144553
Ter rit 144553
( also</w> 144541
Th ur 144527
resid ence</w> 144502
rul ed</w> 144500
B ot 144468
nar r 144435
At l 144424
es e,</w> 144372
prison ers</w> 144371
cha in</w> 144357
er y.</w> 144353
see king</w> 144347
Cl ass 144328
ha ven 144308
hand s.</w> 144303
trium ph 144300
com fort</w> 144294
hon or 144283
acc ust 144234
An im 144204
trans fer</w> 144203
mod e</w> 144196
pic k</w> 144140
G ame</w> 144117
( 188 144107
High way</w> 144104
ter i 144088
8 th</w> 144080
ographic al</w> 144073
D ri 144049
fil es</w> 144031
b in 144005
lin ked</w> 144001
p av 143995
cap ture</w> 143980
fil m,</w> 143933
vent ure</w> 143931
fail ure</w> 143925
un usual</w> 143914
al i</w> 143897
agre ement.</w> 143882
concer t</w> 143877
. =</w> 143876
TI ON</w> 143833
da ys 143757
Revi ew 143756
bri dge,</w> 143751
su itable</w> 143738
I V</w> 143727
circ u 143691
Sing ap 143678
tradi tion</w> 143662
pi one 143601
are a,</w> 143598
en s.</w> 143582
Ph ys 143567
evid ent</w> 143553
A F 143546
e ip 143534
purch ase</w> 143507
Asi a</w> 143488
pl us</w> 143484
sit es</w> 143484
d ates</w> 143480
exist s</w> 143478
C EN 143446
Bil ly</w> 143380
he l</w> 143378
lim itation</w> 143354
L og 143326
mis sion.</w> 143277
3 00 143275
pur po 143268
Rob in 143240
chap ter</w> 143205
Bar on</w> 143203
head quarters</w> 143195
b ag 143192
N ations</w> 143179
b lock</w> 143109
G on 143094
si di 143083
German y.</w> 143082
chem ical</w> 143081
4 ]</w> 143056
R ou 143014
mer ged</w> 143003
famili es.</w> 142982
bas eball</w> 142937
la st 142932
tre es,</w> 142927
y et,</w> 142905
pi ano</w> 142897
prev ail 142895
practic ally</w> 142878
far ther</w> 142819
ang le</w> 142801
ay a</w> 142762
us u 142735
mu st 142723
k id 142712
com plic 142690
sp ot 142566
es sive</w> 142546
D ubl 142529
modi fied</w> 142521
re presents</w> 142519
m 's</w> 142494
care ful</w> 142484
ra is 142483
Olymp ics</w> 142472
y c 142419
D an</w> 142402
mon t</w> 142401
7 %</w> 142395
dollar s</w> 142386
hop es</w> 142385
Sen ior</w> 142379
ma il</w> 142377
L ow 142277
p ir 142259
compre h 142231
s ed 142215
18 th</w> 142207
rest ored</w> 142155
j ew 142105
f itted</w> 142101
jus tic 142097
Ju an</w> 142095
Sha kes 142051
M en</w> 141987
Med al</w> 141944
ã o</w> 141923
appe al</w> 141923
way s,</w> 141904
imp ul 141879
li ght.</w> 141870
elec tions</w> 141858
sof tware</w> 141856
P itt 141841
quanti ty</w> 141841
G E 141827
Mar c 141826
alle l</w> 141819
cont emp 141805
as le 141799
"Wh y</w> 141788
A del 141784
! -- 141770
E ag 141758
i i 141744
order ,</w> 141739
Bri dge</w> 141732
se ;</w> 141722
poet ry</w> 141696
un ited</w> 141683
ex posed</w> 141678
ut ter</w> 141664
Mississipp i</w> 141663
A I 141657
thorough ly</w> 141643
chief ly</w> 141628
K in 141605
sa ke</w> 141604
f ra 141602
s ed,</w> 141594
' s.</w> 141584
id ing</w> 141569
shi r 141569
s in</w> 141567
indic ated</w> 141566
hi red</w> 141519
In c 141462
conflic t</w> 141443
6 %</w> 141421
emp ty</w> 141413
apparen t</w> 141407
tw o,</w> 141398
R av 141397
Wh y,</w> 141387
crimin al</w> 141377
distric ts</w> 141340
Nav al</w> 141302
8 %</w> 141284
u tive</w> 141282
j ust 141279
Gr am 141214
u tion,</w> 141171
electr on 141154
a ),</w> 141130
l est</w> 141122
offer ing</w> 141110
rec ol 141102
character istic</w> 141093
R ud 141047
D ave</w> 141005
al )</w> 140996
im ages</w> 140988
view ,</w> 140979
bus h 140972
Z e 140938
champi on</w> 140896
us ed.</w> 140881
" ( 140817
De ath 140811
s now</w> 140783
fi er 140761
st er,</w> 140749
univers al</w> 140707
im proved</w> 140682
ant - 140638
su re,</w> 140625
in spec 140622
s add 140617
brilli ant</w> 140616
sw im 140509
dre am</w> 140486
recogni tion</w> 140426
m ate</w> 140405
el ement</w> 140340
bel ong</w> 140339
200 2,</w> 140324
e ties</w> 140252
roc ks</w> 140229
offici als</w> 140214
ac le</w> 140183
know .</w> 140167
As sist 140085
wil d 140084
el even</w> 140062
p . 140053
Ch o 140050
4 00</w> 140019
tu res 139987
el o 139944
c ig 139942
re stor 139925
R ose</w> 139918
Dist ribu 139915
L and</w> 139901
Award s.</w> 139895
B eng 139869
nec k</w> 139769
projec ts</w> 139768
it self.</w> 139764
L iter 139750
des ir 139746
U T</w> 139727
H us 139683
7 5</w> 139617
Al an</w> 139616
bre ad</w> 139604
to t 139564
lo t.</w> 139554
plan e</w> 139553
ta .</w> 139508
di d,</w> 139483
Sw iss</w> 139444
exam ples</w> 139437
re t</w> 139434
7 :</w> 139397
T an 139388
Indi a,</w> 139364
st al 139332
cli ff 139276
Mon tre 139234
w ing 139177
aliz ation</w> 139172
P AR 139169
le g</w> 139158
boo ks,</w> 139138
Pl aces</w> 139106
altern ative</w> 139095
P E 139084
ol ,</w> 139081
servic e,</w> 139057
Pal est 139051
" When</w> 139041
ex act</w> 139035
Mo ham 139025
3 7</w> 139004
ch as 138981
201 8.</w> 138970
period .</w> 138958
mad e,</w> 138946
He ad 138916
ris es</w> 138875
ig n,</w> 138866
bu tt 138846
s word</w> 138839
enc y,</w> 138831
Des crip 138825
P ear 138821
M ot 138759
Ad v 138746
Sh ow 138745
Org ani 138726
incid ent</w> 138715
oc ese</w> 138709
arch it 138688
re in 138596
mar ch</w> 138580
inter pret 138572
king dom</w> 138563
convinc ed</w> 138548
sh ri 138539
rec eip 138495
ai red</w> 138479
Ni ght 138457
or ious</w> 138453
( 3)</w> 138431
hor ri 138412
pow er.</w> 138373
B apti 138362
S hel 138343
ash es</w> 138312
ang ry</w> 138277
sol ution</w> 138273
A venue</w> 138268
Leagu e.</w> 138265
reg ularly</w> 138233
chair man</w> 138212
ve ter 138211
hear ts</w> 138191
C ity.</w> 138190
in a.</w> 138177
K an 138176
stor y,</w> 138108
nin et 138095
S ri</w> 138090
Illino is</w> 138074
absol ute</w> 138070
Al ab 138054
y o</w> 138015
Br and 138015
attrac ted</w> 138001
fa ther.</w> 137999
la "</w> 137985
no ise</w> 137916
smil ed</w> 137885
ac ent</w> 137853
"N o</w> 137853
suff er</w> 137823
even ing,</w> 137821
del eg 137800
( for</w> 137775
Inter net</w> 137746
r ushed</w> 137744
198 7</w> 137716
198 4</w> 137671
dep th</w> 137653
y ester 137645
tra ins</w> 137636
s ale</w> 137596
gl ory</w> 137595
c rown</w> 137572
ing ly,</w> 137566
St u 137502
verth eless,</w> 137422
d inn 137374
t ab 137351
ou se</w> 137341
Thom p 137308
club s</w> 137300
or - 137296
in fl 137294
descri be</w> 137247
uni form</w> 137238
em ber 137237
or ation</w> 137179
antic ip 137133
fac tor 137129
speci fied</w> 137107
Compan y,</w> 137091
too .</w> 137087
lin e 137072
enor m 137012
Philadelphi a</w> 136873
O tt 136871
imp ati 136839
Fren ch 136824
W ater</w> 136816
comp elled</w> 136769
fi x</w> 136768
busin ess,</w> 136759
pri de</w> 136736
im prove</w> 136711
ask ed.</w> 136699
M en's</w> 136694
bit ter</w> 136654
Canad a.</w> 136634
lo como 136617
t ly,</w> 136616
ir s</w> 136603
ass ist</w> 136561
ind ul 136559
gu ide</w> 136520
ati ve,</w> 136515
pro portion</w> 136510
enthusi as 136493
Or le 136485
adap ted</w> 136479
mag ne 136406
add ed,</w> 136363
ban k 136363
ob sc 136337
4 8</w> 136267
Shakes pe 136256
chestr a</w> 136255
._ -- 136225
co al</w> 136209
kind s</w> 136186
j unction</w> 136154
are s</w> 136142
po is 136141
sol e</w> 136113
s ad 136086
Li ver 136070
tr e</w> 136067
A )</w> 136061
o' clock</w> 136031
re tained</w> 136028
conc ep 135971
circ le</w> 135966
read er</w> 135964
sw ept</w> 135958
ind ing</w> 135955
Pat rick</w> 135954
ga y</w> 135935
adv ice</w> 135922
b or</w> 135912
A unt</w> 135897
C ot 135882
s i</w> 135858
P ublic 135840
ex tra</w> 135800
Mar ine</w> 135800
muse um</w> 135789
Temp le</w> 135758
cloth es</w> 135751
" I'll</w> 135706
o )</w> 135705
sha dow</w> 135703
le ap 135665
F ern 135659
N ation 135650
exp edi 135642
LI MI 135630
in di 135581
educ ation.</w> 135560
dist urb 135559
develop ing</w> 135543
K now 135541
4 , 135510
is her</w> 135489
tit les</w> 135469
8 :</w> 135444
d ying</w> 135406
200 4.</w> 135374
splen did</w> 135343
festiv al</w> 135336
Tre at 135320
tod ay</w> 135315
Dougl as</w> 135275
ta st 135272
lat er.</w> 135272
judg ment</w> 135252
our s.</w> 135235
anc ell 135235
W H 135194
comp any 135167
re jo 135162
pic tures</w> 135157
Wom en</w> 135154
198 6</w> 135104
ver sions</w> 135066
h ang</w> 135063
l er 135058
v eng 135057
Th ou</w> 134997
tri p</w> 134972
engine er</w> 134963
exp edition</w> 134958
pro sec 134940
reput ation</w> 134913
fe et.</w> 134910
gu ess</w> 134897
Journ al</w> 134897
Gord on</w> 134886
r ound,</w> 134858
B ac 134762
Jer sey</w> 134705
C R 134690
dis claim 134663
How ard</w> 134661
occ er</w> 134630
conclu sion</w> 134596
J O 134562
f ancy</w> 134522
F M</w> 134517
4 2</w> 134478
B ag 134458
depend s</w> 134444
____ ____ 134439
Dav is</w> 134406
epis odes</w> 134400
proper ly</w> 134393
C os 134374
promo te</w> 134372
cle an 134358
af ter,</w> 134291
F OR 134241
ligh ted</w> 134237
f ond</w> 134196
ent re 134194
V ide 134185
sum mon 134184
Gover nor 134174
paragraph s</w> 134147
A tt 134123
N ative</w> 134114
franc hi 134110
lead ership</w> 134086
US A</w> 134064
concer ned</w> 134062
ap pre 134031
per sist 134016
ob edi 134008
vo ted</w> 133978
Fo x</w> 133912
co w</w> 133909
9 ).</w> 133892
abil ity,</w> 133830
N ag 133790
lo vely</w> 133780
I ow 133748
you ,"</w> 133726
b ed.</w> 133696
ma p</w> 133676
ch or 133669
ang ,</w> 133654
se ats</w> 133636
is lands</w> 133614
ir a</w> 133562
bre ath</w> 133537
v in</w> 133519
C rown</w> 133493
nav ig 133482
typ ical</w> 133471
LIMI TED</w> 133460
Du ch 133459
th- century</w> 133448
an other.</w> 133446
re marked</w> 133396
9 th</w> 133378
Massachuset ts</w> 133328
Medi a</w> 133320
ed ited</w> 133301
id e,</w> 133290
a uc 133257
ei ght 133228
where as</w> 133209
fle w</w> 133205
poss es 133188
o s.</w> 133117
l oud</w> 133117
S lo 133105
Jose ph 133104
de vi 133098
sp ic 133085
mach in 133074
ar t.</w> 133040
se t,</w> 133039
flo od 133036
Ch em 133008
U p</w> 132987
prot ec 132969
ha ,</w> 132968
stret ched</w> 132940
pas sion</w> 132929
bron ze</w> 132926
op ol 132909
re duce</w> 132895
Gu il 132884
Austri an</w> 132866
adm it</w> 132848
Phi lli 132825
Ber lin</w> 132793
dam aged</w> 132785
Connec tic 132775
tiv e.</w> 132688
Fo rest</w> 132646
e qui 132635
loc ations</w> 132623
I ran 132610
-- but</w> 132595
compos er</w> 132560
s al</w> 132534
schol ar 132514
bas ic</w> 132494
dest in 132485
s ounds</w> 132481
Ara b</w> 132480
fin ishing</w> 132465
c ath 132427
ture s,</w> 132424
2 / 132394
so - 132374
no v 132349
Franc is 132343
gover nor 132333
a . 132267
land ed</w> 132251
ri ding</w> 132195
b ian</w> 132172
D ic 132169
unc le</w> 132125
- like</w> 132098
read ing.</w> 132058
U se</w> 132045
y l</w> 132038
Mar ie</w> 132035
DAM AG 132016
Provinc e,</w> 132007
di al 131982
resour ces</w> 131980
list ened</w> 131978
“ The</w> 131961
o b</w> 131949
rest ,</w> 131927
mann er,</w> 131918
found ing</w> 131866
batt ali 131846
back ground</w> 131835
Techn ology</w> 131834
king dom 131828
p ounds</w> 131777
c ad 131766
tri es</w> 131763
y ?"</w> 131738
offic es</w> 131728
.... .... 131720
rug by</w> 131708
L en 131701
b ishop 131682
a is 131679
am id</w> 131664
jur is 131635
er ected</w> 131633
rac e,</w> 131628
Nor man</w> 131622
resist ance</w> 131614
am ent</w> 131613
nor m 131611
lo ve 131602
ob i 131596
" Z 131583
di min 131548
t estim 131544
schem e</w> 131544
po em</w> 131522
He bre 131506
por t,</w> 131485
E ric</w> 131472
gre y</w> 131434
view ed</w> 131396
God .</w> 131387
pain ter</w> 131385
fac ilities</w> 131363
th ;</w> 131362
kin d,</w> 131360
An na</w> 131359
d ings</w> 131356
3 9</w> 131342
our ing</w> 131331
No thing</w> 131327
ann e</w> 131308
clim ate</w> 131284
offic e,</w> 131282
Fi ve</w> 131261
gr o</w> 131257
transl ation</w> 131235
view .</w> 131224
" To</w> 131201
Fin al</w> 131184
graphi c</w> 131176
reg iment</w> 131118
pen et 131086
Fi f 131034
arti fic 130999
o g</w> 130995
Ch annel</w> 130988
M and 130979
exc eption</w> 130967
mo on</w> 130916
opport unities</w> 130910
M ess 130880
par allel</w> 130854
comfort able</w> 130840
198 0</w> 130787
ast s</w> 130785
L ast</w> 130780
v ain</w> 130765
b ath 130745
Rom ani 130687
cust om</w> 130680
P R 130647
Pri v 130644
Const ant 130624
de struction</w> 130588
Budd hi 130562
know n,</w> 130545
ed ,"</w> 130527
the e,</w> 130526
ac y.</w> 130511
P y 130491
Be at 130454
Comm unic 130420
fing ers</w> 130396
i b 130389
shou ld 130373
á n</w> 130362
guil ty</w> 130351
oper ate</w> 130319
ne arest</w> 130318
am us 130297
Nat ural</w> 130287
Cam bridge</w> 130248
T RI 130238
id en 130229
vers ary</w> 130200
en su 130188
c ells</w> 130176
ad ding</w> 130170
r ing 130142
st one,</w> 130120
in duc 130116
3 / 130113
sion al</w> 130091
R ug 130068
Ear th</w> 130057
o t,</w> 130034
G un 130029
4 ;</w> 129961
Prov ince</w> 129945
D own 129928
pl enty</w> 129922
de vil 129921
A then 129916
K ong</w> 129898
B uck 129895
a o</w> 129879
' The</w> 129864
sbur g</w> 129855
interrup ted</w> 129836
se "</w> 129826
accust omed</w> 129818
( d.</w> 129814
philosoph y</w> 129801
hy po 129788
3 ;</w> 129739
agricul tural</w> 129630
rac ing</w> 129628
cle ar 129582
em ber.</w> 129568
Found ation's</w> 129523
neu tr 129508
Al - 129458
heav en</w> 129455
tion "</w> 129442
compl ying</w> 129440
ri er</w> 129415
N ature</w> 129412
V ar 129402
al co 129399
g res 129371
Arch itec 129361
her self,</w> 129360
brief ly</w> 129346
D aw 129299
enc e;</w> 129297
An y</w> 129277
16 6 129268
n s,</w> 129254
enc y.</w> 129240
" New</w> 129216
vot es</w> 129211
B uc 129209
b y.</w> 129199
pres sion</w> 129197
om an</w> 129192
Regi onal</w> 129189
la bel</w> 129170
mem or 129161
CA A</w> 129155
sing les</w> 129154
Inde ed,</w> 129122
him ."</w> 129098
t ext 129075
hang ing</w> 129073
as s,</w> 129065
B our 129060
in aug 129029
D ue</w> 129004
ev isi 129003
16 8 128978
W A 128958
le ast,</w> 128954
wor ship</w> 128907
K y 128878
' T 128866
co ordin 128829
pr ince</w> 128826
198 5</w> 128803
wou ld 128784
U pper</w> 128776
pal ace</w> 128731
K ansas</w> 128723
sa iled</w> 128721
Liber al</w> 128713
part y,</w> 128712
por ting</w> 128709
Canad a,</w> 128688
re ven 128679
Chap ter</w> 128665
oun ce</w> 128653
al one.</w> 128637
el eg 128630
Li f 128625
trademar k.</w> 128616
band s</w> 128597
ha r</w> 128593
fe ed</w> 128549
G o</w> 128538
id ity</w> 128537
Corpor ation</w> 128537
an th 128518
wa ste</w> 128500
Con cer 128491
St ock 128484
ke e 128429
com ic</w> 128392
prec ious</w> 128363
u tions</w> 128359
dist ur 128336
jour ne 128335
mod els</w> 128319
di ver 128314
pr ud 128287
N ight</w> 128272
T RA 128271
s ang</w> 128243
exist ed</w> 128231
E mil 128229
C an</w> 128178
exp ense</w> 128111
Lou is 128097
Alf red</w> 128084
ER .</w> 128075
En viron 128071
fol i 128067
p ine</w> 128052
Su n</w> 128046
men tion 128022
De ath</w> 128006
de bu 127987
Po int</w> 127944
tion ary</w> 127923
GUTENBER G</w> 127921
wel come</w> 127912
ass ass 127889
Win ter</w> 127863
ul ous</w> 127843
br ings</w> 127777
ac tion.</w> 127756
te am,</w> 127756
myster ious</w> 127740
The od 127725
u e.</w> 127718
w rec 127711
perc eived</w> 127695
arm ,</w> 127691
9 %</w> 127676
ro ,</w> 127676
hand some</w> 127670
dark ness</w> 127648
c ard 127620
U P 127596
pri ze</w> 127586
comm unities</w> 127575
viol ence</w> 127562
C ome</w> 127520
restric tions</w> 127520
ste am</w> 127518
With out</w> 127497
ex pos 127474
gra y</w> 127468
z o</w> 127443
it z</w> 127440
k ov 127433
vi ve</w> 127359
os ity</w> 127336
" to</w> 127333
En d</w> 127325
Studi es</w> 127309
peti tion</w> 127265
perform ing,</w> 127232
jus ti 127226
la hom 127223
bur ned</w> 127206
hus band,</w> 127202
en h 127194
hor se 127169
dis cre 127121
proc ed 127121
equival ent</w> 127118
g or 127079
5 7</w> 127050
ap art</w> 127049
ev in</w> 127045
O ut</w> 127043
eg o</w> 127037
comm ent 127016
po p</w> 127014
M ik 127004
fic tion</w> 126990
P sy 126987
Th or 126955
Egyp tian</w> 126864
ac tion,</w> 126858
Anton io</w> 126844
ni ghts</w> 126843
L ud 126832
" you</w> 126808
"Wh y,</w> 126806
Californi a.</w> 126803
Phi losop 126799
mov ements</w> 126798
resol ution</w> 126777
gg ed</w> 126776
Is lands</w> 126753
D omin 126738
part ner</w> 126733
fla g</w> 126711
mp tion</w> 126710
Manag ement</w> 126706
sevent h</w> 126685
o th 126646
mat ter,</w> 126630
gl ass 126625
un a</w> 126616
calcul ated</w> 126614
se ud 126605
arrang ement</w> 126581
Ben jam 126572
arti stic</w> 126557
le d 126553
Det ro 126528
" Di 126522
inj ury</w> 126516
u tion.</w> 126511
contr ast</w> 126471
" Is</w> 126467
B eg 126456
immen se</w> 126419
smo ke</w> 126414
y es,</w> 126412
bu ri 126388
bour ne</w> 126385
Ital y,</w> 126384
A li 126350
es - 126319
H end 126300
Ind ustri 126265
la d</w> 126264
ü r 126252
Engl ish,</w> 126221
sal es</w> 126217
supp lied</w> 126173
R an 126135
ra rely</w> 126084
& c.</w> 126075
t s 126072
cy lin 126071
cr yst 126068
N am 126061
st o 126061
t ue</w> 126037
bu d 126026
ud es</w> 126016
M S 125999
writ er,</w> 125989
employ ment</w> 125965
happ en</w> 125963
Hu gh</w> 125944
list en</w> 125942
4 4</w> 125897
delic ate</w> 125876
document ary</w> 125872
per cent 125865
elec tion.</w> 125833
Jim my</w> 125826
fr ing 125798
f asc 125787
im posed</w> 125786
á n 125784
min ds</w> 125783
H is 125778
exhi bition</w> 125771
N ap 125770
neg ative</w> 125750
consider ation</w> 125735
T S</w> 125694
thir ty- 125667
chur ches</w> 125650
carri age</w> 125642
sel dom</w> 125604
trademar k,</w> 125599
P ain 125594
liber ty</w> 125590
P RE 125576
Ma x</w> 125520
cen sus</w> 125505
passeng er</w> 125498
og en 125492
on )</w> 125455
poin ting</w> 125450
Australi a,</w> 125426
conven i 125424
Cast .</w> 125419
D anish</w> 125416
Af gh 125390
Mis sion</w> 125380
ent 's</w> 125347
Sec urity</w> 125331
Is land,</w> 125323
Pier re</w> 125322
Lincol n</w> 125285
g es</w> 125267
br and</w> 125265
E D 125262
ai m</w> 125220
5 ]</w> 125218
c ov 125206
Al i</w> 125203
mom ents</w> 125203
H ot</w> 125195
st airs</w> 125142
w oods</w> 125138
K ol 125016
tis m</w> 124972
in :</w> 124897
sh e,</w> 124882
ak a</w> 124855
en able</w> 124811
ket s</w> 124811
Con t 124777
inj ured</w> 124761
D od 124758
4 1</w> 124744
C ou 124742
Mid d 124705
doc tor 124695
engine ering</w> 124672
S ong</w> 124635
n am</w> 124628
pres ently</w> 124591
accur ate</w> 124582
ad equ 124571
cut ting</w> 124569
eag er</w> 124564
ann y</w> 124514
music .</w> 124501
st up 124494
Mar qu 124484
fa il</w> 124479
ti ,</w> 124456
mon ey 124441
1.E. 1</w> 124421
1.F. 3,</w> 124419
thes is</w> 124412
adj acent</w> 124391
ab str 124370
Bal tim 124370
rail road</w> 124347
T est 124276
John ny</w> 124274
well- known</w> 124267
flow er</w> 124259
with ,</w> 124231
don e.</w> 124223
centuri es</w> 124200
ber g 124199
Gab ri 124135
an )</w> 124124
í a</w> 124113
Co st 124104
K on 124097
doctr ine</w> 124060
An d 124051
hur ried</w> 124013
d row 123993
z es</w> 123966
institu tions</w> 123948
anc est 123921
voic e.</w> 123897
1.E. 9.</w> 123854
vis ed</w> 123836
belong s</w> 123803
A D</w> 123788
( died</w> 123726
ec k 123708
198 3</w> 123705
sk y,</w> 123695
world 's</w> 123678
at s.</w> 123677
Ar tic 123668
4 7</w> 123659
me ,"</w> 123617
en ly</w> 123611
P in 123607
tic s,</w> 123603
mor tal</w> 123598
comb at</w> 123588
chang e.</w> 123587
prac ti 123536
Pro gram 123524
b all,</w> 123449
Vol ume</w> 123448
a b</w> 123445
ida e.</w> 123430
Sp ir 123406
wear ing</w> 123394
re "</w> 123369
responsi bility</w> 123340
re signed</w> 123337
still ,</w> 123333
( 187 123291
c k</w> 123280
cre ature</w> 123250
Tour nam 123235
accoun ts</w> 123192
dem and 123183
Engine ering</w> 123182
bu ll 123171
C oo 123157
ir y</w> 123143
consec utive</w> 123107
Ok lahom 123102
hy per 123093
h ence</w> 123017
D E</w> 122992
( W 122978
5 5</w> 122978
wit ness</w> 122976
cerem ony</w> 122958
on ing</w> 122955
house holds</w> 122952
mon ast 122944
cens us,</w> 122929
fa ul 122902
sel ection</w> 122891
licens ed</w> 122883
oper a</w> 122882
N H 122872
recover ed</w> 122863
et ed</w> 122862
,00 0.</w> 122817
aut um 122813
H all,</w> 122801
comm enced</w> 122788
tol er 122783
den ied</w> 122779
hur t</w> 122770
al es</w> 122757
17 0 122747
prov ision</w> 122742
' em</w> 122733
car p 122725
nucle ar</w> 122725
o y 122722
ar ose</w> 122713
cast ing</w> 122699
h ood,</w> 122698
charg es</w> 122698
Christop her</w> 122697
dru g</w> 122694
F ut 122657
air .</w> 122651
langu age,</w> 122646
. ;</w> 122599
Feder ation</w> 122595
Gir l 122587
h .</w> 122584
Th at's</w> 122582
epis od 122577
il a</w> 122560
commis sion</w> 122524
f ab 122518
themsel ves.</w> 122518
t an</w> 122506
laun ch</w> 122494
foc used</w> 122454
ing 's</w> 122450
Y u 122434
str ing</w> 122407
ish - 122396
B Y</w> 122375
T reas 122370
Je ffer 122365
at titude</w> 122361
ef f</w> 122348
expan sion</w> 122340
Bi ble</w> 122331
r ating</w> 122309
qu e,</w> 122298
School .</w> 122290
no is 122284
to x 122274
af ford</w> 122233
S we 122223
sla ve</w> 122209
lau gh</w> 122205
dri ver</w> 122191
high way</w> 122170
Cro ati 122160
independ ence</w> 122091
16 0 122076
what so 122074
ig ned</w> 122064
Mic ro 122050
on :</w> 122034
"S o</w> 122032
imp act</w> 122024
sa ys 121985
N ev 121982
Peop le's</w> 121952
In stitut 121940
Jac ob 121940
Mr s</w> 121932
Joh n,</w> 121921
wit ness 121895
cred ited</w> 121890
h ockey</w> 121883
Har t 121857
def ense</w> 121855
J acqu 121825
ac id</w> 121822
198 2</w> 121820
aw ards</w> 121815
9 :</w> 121813
iv es</w> 121767
Portu g 121737
histor ian</w> 121696
func tions</w> 121669
m ation</w> 121662
effic i 121659
Sen ator</w> 121657
Loc al</w> 121633
to- day</w> 121618
, --</w> 121594
Ser ge 121589
n el.</w> 121548
cou ld 121548
t ang 121533
R ural</w> 121512
10 . 121512
pil ot</w> 121511
ari ties</w> 121510
assu red</w> 121488
se en,</w> 121480
gi ft</w> 121470
g est 121463
I ni 121450
glo bal</w> 121436
municip al</w> 121416
( 1 121414
depar ture</w> 121404
bl ind</w> 121401
fac ing</w> 121391
C ov 121384
u ce</w> 121361
col ored</w> 121361
N ever</w> 121328
no body</w> 121311
th ings.</w> 121309
E ,</w> 121304
mat ter 121298
sh ed</w> 121267
inc lined</w> 121250
de ad,</w> 121242
sy mp 121237
del igh 121235
Gl as 121233
Ca ther 121233
Pol y 121232
er b 121225
def end 121209
mo ther.</w> 121202
o tic</w> 121198
m am 121195
st ation,</w> 121186
chur ch 121183
weap ons</w> 121179
ed r 121171
T - 121135
scre en</w> 121119
camp us</w> 121118
May or</w> 121117
Rom e,</w> 121101
serv ants</w> 121100
retur ns</w> 121062
O L 121054
argu ed</w> 121053
thod ox</w> 121044
Ma y,</w> 121019
leg islat 120973
def end</w> 120970
rac es</w> 120961
Pri or</w> 120931
w an</w> 120918
er to</w> 120908
build ing,</w> 120893
H ot 120891
sm all,</w> 120886
k ings</w> 120885
Comm itte 120877
pu zz 120827
ast ro 120808
O d 120792
in ev 120783
II "</w> 120753
her o</w> 120752
u ted</w> 120733
l en 120686
n "</w> 120666
con sum 120658
div or 120650
Vi ol 120639
F itz 120624
us ;</w> 120623
col lap 120623
H awa 120593
sp rang</w> 120591
hi l 120584
b one</w> 120578
fac ility</w> 120575
se a.</w> 120563
c os 120555
la sted</w> 120551
sal t</w> 120534
pp .  120437
imm igr 120431
P ass 120420
br and 120406
ud ed</w> 120378
sport ation</w> 120376
6 6 120375
Car l</w> 120367
thin k 120335
Smi th,</w> 120319
e a</w> 120263
Wil d 120260
gen u 120257
cont ra 120215
w et</w> 120198
L oo 120149
- + 120137
tion :</w> 120124
Sy stem</w> 120123
T ot 120115
D S</w> 120056
wor th 120036
te en 120036
qu ot 120035
el abor 119999
reser ve</w> 119926
F - 119906
fl at 119905
acces sible</w> 119905
ne phe 119901
K ing,</w> 119886
ne arer</w> 119856
in su 119849
er s;</w> 119838
def ence</w> 119834
et s.</w> 119822
( ;</w> 119780
ard o</w> 119771
cham ber</w> 119753
morn ing.</w> 119739
pra y</w> 119738
Y an 119735
b are</w> 119732
G az 119721
17 th</w> 119716
e ).</w> 119690
es cor 119688
Fri ed 119683
bur g,</w> 119671
onym ous</w> 119653
imag ine</w> 119635
st om 119631
B ren 119629
p lot</w> 119597
we 'll</w> 119584
an no 119562
her ;</w> 119562
Are a</w> 119553
es ),</w> 119551
200 3.</w> 119543
t )</w> 119541
C it 119522
cop ied</w> 119457
sk ill</w> 119451
busin ess.</w> 119441
W IL 119400
Ag ricul 119375
ic ally,</w> 119360
sa il</w> 119324
t ude</w> 119302
follow s:</w> 119299
ni a</w> 119277
remain der</w> 119269
ol d.</w> 119263
or "</w> 119260
197 2</w> 119254
ro yal 119250
res cu 119245
lo ad 119243
B RE 119242
beat en</w> 119209
Town ship</w> 119202
discus sion</w> 119198
read ily</w> 119150
ing er</w> 119134
ad r 119126
compan y.</w> 119115
N CAA</w> 119109
sec ret 119109
peop le 119085
langu ages</w> 119082
so oner</w> 119071
Sar ah</w> 119039
prof ession 119008
Pat ri 118997
b igg 118979
prob able</w> 118974
( 1)</w> 118965
ri val</w> 118960
ation ."</w> 118945
ac ks</w> 118922
200 0.</w> 118920
197 9</w> 118904
H ell 118888
"W e 118885
correc t</w> 118885
land ing</w> 118883
archit ect</w> 118848
7 ]</w> 118839
d ust 118808
p en</w> 118793
Ab ra 118793
v ed.</w> 118791
fund am 118762
F ab 118728
Islam ic</w> 118726
compani on</w> 118724
cas es,</w> 118716
the ore 118686
tr ace</w> 118679
e enth</w> 118673
cl esi 118622
Lor d,</w> 118616
M other</w> 118601
dis put 118536
inv ent 118510
f id 118494
ari es,</w> 118453
sym path 118448
poss ess</w> 118447
cas e.</w> 118432
So on</w> 118431
Jos é</w> 118392
Prof essional</w> 118362
Ch all 118361
satisfac tion</w> 118324
Israel i</w> 118322
T im</w> 118321
repli ed,</w> 118307
resul t,</w> 118304
T A</w> 118293
D ak 118286
J av 118282
whit e,</w> 118280
n y 118263
e _,</w> 118252
B ER 118250
on ia</w> 118249
se ar 118244
at a"</w> 118241
mil it 118237
spir its</w> 118232
j ack 118224
Com ple 118214
Wh at 118170
in sec 118121
C level 118087
ber g,</w> 118063
Greg ory</w> 118058
" Re 118050
in ary</w> 118048
con greg 118048
aff ir 117977
shoo ting</w> 117971
ur s</w> 117940
b read 117834
le ft,</w> 117782
S till</w> 117774
ke 's</w> 117771
as es</w> 117753
5 ;</w> 117728
Gr ant</w> 117726
a than</w> 117706
4 3</w> 117704
equip ment.</w> 117701
regi on.</w> 117688
it ely</w> 117686
With in</w> 117669
O ak 117658
answer ed,</w> 117658
su ic 117651
ad e.</w> 117635
sh ell</w> 117628
All en</w> 117610
lif t</w> 117609
inj uri 117566
de emed</w> 117557
hel ping</w> 117548
Leg isl 117543
Ge ography.</w> 117510
la h</w> 117488
eful ly</w> 117452
4 6</w> 117447
ed ?</w> 117446
Lab our</w> 117422
V ery</w> 117410
al t</w> 117383
arg ument</w> 117382
ak er</w> 117370
own ers</w> 117344
it o</w> 117338
thes e,</w> 117338
Hol ly 117318
P el 117303
vehic le</w> 117297
sit e.</w> 117296
F red</w> 117268
ov ed</w> 117235
ph ase</w> 117229
197 6</w> 117210
lic ense</w> 117180
pat tern 117164
199 9,</w> 117160
bo t</w> 117155
juris dic 117136
MEN T</w> 117112
w all,</w> 117098
ar c 117094
ro l</w> 117029
Uk ra 117028
prec ip 117009
aff air</w> 116997
e ge</w> 116983
b old</w> 116981
s mar 116979
P ost</w> 116974
Bas eball</w> 116959
S imp 116958
af for 116915
compil ation</w> 116908
enem ies</w> 116899
E th 116897
list ening</w> 116857
M ach 116854
G oo 116854
concer n 116834
Sp ani 116831
than ks</w> 116737
X - 116723
per .</w> 116716
clo sing</w> 116713
land s.</w> 116676
ab sur 116673
el - 116669
ff ,</w> 116666
rec ep 116610
ask ed,</w> 116577
la .</w> 116573
se ed</w> 116562
utter ly</w> 116539
hour ,</w> 116513
T ake</w> 116490
hun ting</w> 116482
en abled</w> 116478
drum s</w> 116447
al iv 116428
be t</w> 116420
alog ue</w> 116397
dis played</w> 116387
com position</w> 116367
exten sion</w> 116366
lo aded</w> 116362
comp ens 116355
coun t 116352
don ’t</w> 116346
in tim 116323
my th 116321
Hamil ton</w> 116308
west ,</w> 116276
Back ground.</w> 116218
T U 116206
cros s- 116195
ous ed</w> 116189
leng th,</w> 116172
16 th</w> 116132
exc ited</w> 116100
difficul ties</w> 116082
ock et</w> 116068
ity :</w> 116063
R ow 116060
6 8 116051
quiet ly</w> 116033
contro vers 116005
gener al,</w> 115990
b y- 115973
R ay</w> 115958
ph os 115952
though ,</w> 115929
R ound</w> 115920
F ord</w> 115917
M am 115913
tre e,</w> 115911
know n.</w> 115899
De an</w> 115877
ma ke 115865
Se ason</w> 115846
k new 115841
and er 115838
"B ill 115784
K az 115761
as si 115749
N FL</w> 115736
grou p 115735
instr ument</w> 115735
ut tered</w> 115724
AS C 115692
cal m</w> 115688
u al 115669
19 20 115636
it ure</w> 115618
all ing</w> 115601
ent ;</w> 115599
hi de</w> 115590
om s</w> 115565
b old 115563
Law rence</w> 115547
j er 115546
be ating</w> 115542
10 th</w> 115533
V e 115514
h ast</w> 115507
phenom en 115491
accompl ished</w> 115478
W OR 115469
s an 115463
com for 115455
man age</w> 115436
Hung arian</w> 115431
wh el 115423
st an 115414
distinc tion</w> 115414
19 00 115367
s wal 115357
Ri ver.</w> 115356
Car l 115344
cl ust 115286
te eth</w> 115229
fu el</w> 115226
le ft 115224
a ."</w> 115218
dec k</w> 115200
la m</w> 115194
fun ds</w> 115166
pra ised</w> 115164
you 've</w> 115158
fe es</w> 115157
w as.</w> 115142
passeng ers</w> 115132
Sp ace</w> 115131
W ed 115123
ri dic 115108
acquain ted</w> 115097
Bru ce</w> 115097
appropri ate</w> 115086
Tor onto</w> 115070
tran spor 115038
u a</w> 115020
BOO K</w> 115020
K no 115000
te a</w> 114999
ear ning</w> 114979
ement s,</w> 114960
cous in</w> 114949
S crip 114928
198 1</w> 114918
n 's</w> 114899
M AN 114894
Ch er 114880
haven 't</w> 114834
ographi c</w> 114830
occup ation</w> 114825
ong ,</w> 114821
An dr 114790
pe ak</w> 114772
plan ning</w> 114771
accid ent</w> 114769
inst ance</w> 114757
writ es</w> 114743
jo y 114698
U D 114682
ri gh 114677
enjo y 114672
r age</w> 114622
t :</w> 114574
" For</w> 114543
Wel sh</w> 114536
Dep uty</w> 114528
An n</w> 114510
fem in 114501
Musli m</w> 114500
may or</w> 114479
ant e</w> 114474
prevent ed</w> 114464
sacri fice</w> 114460
presid ential</w> 114458
h o</w> 114451
al d 114446
se a- 114446
" ",</w> 114405
star ts</w> 114390
Web site</w> 114354
D all 114348
L ower</w> 114316
z e,</w> 114313
C row 114303
provinc ial</w> 114300
M ack 114274
e ti 114261
uc i 114248
s wa 114246
L ig 114222
K evin</w> 114215
p ill 114205
bl ind 114203
spe aks</w> 114194
enorm ous</w> 114190
met res</w> 114166
J an</w> 114158
L ank 114140
et - 114139
keep er</w> 114117
cy cle</w> 114095
el der</w> 114062
German s</w> 114042
ad ult</w> 114034
o on</w> 114023
fiv e- 114008
"L et</w> 114000
c him 113986
S of 113984
L il 113945
roll ing</w> 113929
pra ise</w> 113923
multi - 113908
rejec ted</w> 113901
Tel evision</w> 113898
investig ation</w> 113885
F ro 113873
sub - 113857
st ock 113842
arm y,</w> 113820
ur ged</w> 113790
me at</w> 113774
re alized</w> 113763
cy cl 113762
c ool</w> 113759
organiz ations</w> 113756
ab out,</w> 113753
Vic tor</w> 113751
r ound.</w> 113729
instr um 113690
U - 113671
Si x 113656
the - 113645
C ric 113632
Ma x 113631
i. e.</w> 113626
pro of 113588
ement s.</w> 113588
list ing.</w> 113584
sec retary</w> 113574
ri vers</w> 113536
Pu erto</w> 113514
whi st 113513
K or 113494
attribu ted</w> 113482
cru el</w> 113419
receip t</w> 113394
the astern</w> 113391
h t 113371
Sp ain,</w> 113338
prec ed 113335
ou tw 113321
es c 113315
Exc ept</w> 113313
V el 113299
nar row 113291
voic es</w> 113280
I - 113232
M itch 113201
-- to</w> 113175
bo ards</w> 113162
tic .</w> 113150
196 8</w> 113121
12 th</w> 113060
ing )</w> 113056
fa ult</w> 113040
Col lin 113030
offic e.</w> 113018
stic k</w> 113014
d ynast 113000
indic ating</w> 112998
pl ying</w> 112985
194 5</w> 112975
H ockey</w> 112965
You th</w> 112964
Li ght 112963
Admir al</w> 112963
ful ly,</w> 112958
invasi on</w> 112948
( O 112933
197 1</w> 112906
scri be</w> 112892
p s 112867
w ick</w> 112844
proper ties</w> 112825
in "</w> 112824
di str 112816
au x</w> 112796
ab out 112794
exha ust 112785
ou l</w> 112764
vir tue</w> 112723
sla ves</w> 112712
sympa thy</w> 112693
kind ly</w> 112690
mis sing</w> 112673
journ alist</w> 112662
vis iting</w> 112661
sist er,</w> 112613
w ound</w> 112608
c attle</w> 112600
th rowing</w> 112600
per sec 112578
beg inn 112569
hous es,</w> 112566
ro les</w> 112552
boo k.</w> 112526
es !</w> 112523
S af 112496
loc ked</w> 112480
gam es.</w> 112480
( 186 112470
old - 112457
f ed</w> 112456
b ic 112455
Chair man</w> 112451
plac ing</w> 112440
del ight</w> 112419
high ,</w> 112408
mor t 112397
s and</w> 112394
grow s</w> 112393
T on 112385
children 's</w> 112373
assist ed</w> 112372
o thy</w> 112367
Mat t</w> 112355
privil eg 112353
fin als</w> 112308
ri st,</w> 112300
proce ed</w> 112288
R ub 112260
ep ,</w> 112247
Squ adron</w> 112212
En erg 112197
exam in 112176
furn ished</w> 112173
% .</w> 112163
ph on 112139
Thi r 112138
b our</w> 112122
16 9 112101
mar ched</w> 112068
Braz ilian</w> 112065
til ity</w> 112063
ide al</w> 112030
qu is 112015
con cre 112002
H it 111999
w ins</w> 111981
5 2</w> 111977
200 1.</w> 111971
6 ]</w> 111964
tw ith 111923
Hel en</w> 111892
N ob 111881
agre eable</w> 111880
gen i 111874
er ."</w> 111862
sion s,</w> 111852
tan e 111843
197 4</w> 111839
Cz ech</w> 111824
dec ide</w> 111821
k en,</w> 111799
gen e</w> 111792
dis playing</w> 111788
friend ship</w> 111773
cy clo 111767
gl orious</w> 111725
P . 111709
200 2.</w> 111702
b ou 111700
law yer</w> 111662
B ah 111658
U E 111655
lab our</w> 111654
be ars</w> 111653
differ ences</w> 111567
con fer 111562
4 9</w> 111552
di a</w> 111525
hi ther 111518
g il 111501
mer .</w> 111467
wh ence</w> 111464
co t 111451
West ,</w> 111444
der s.</w> 111437
U M 111428
Harv ard</w> 111425
lad y,</w> 111402
é r 111401
f us 111369
bo l</w> 111366
n er.</w> 111360
bur g 111326
sh ut 111285
H ab 111239
int ense</w> 111213
st ating</w> 111206
S or 111170
I v 111170
Au thor 111167
on ."</w> 111165
197 8</w> 111157
sugg est</w> 111156
inst antly</w> 111138
0 ).</w> 111120
colon ial</w> 111110
hor se,</w> 111099
smoo th</w> 111094
pre ferred</w> 111047
Matthe w</w> 111043
care er,</w> 111040
treat y</w> 111039
cour ses</w> 111025
lim it 111023
as "</w> 110992
Sec ret 110985
Offic er</w> 110985
tal e</w> 110976
j an</w> 110945
coun sel 110945
execu ted</w> 110940
t ack 110918
strang er</w> 110909
pre gn 110876
da ,</w> 110858
long .</w> 110858
Indon es 110844
o is 110828
St ev 110817
pover ty</w> 110784
whe el</w> 110768
Net work</w> 110758
mil k</w> 110746
gentle men</w> 110742
P G 110733
un like</w> 110720
wal ks</w> 110712
ear ,</w> 110698
stat ements</w> 110682
D - 110679
Go th 110640
s — 110632
k ar 110629
popul ation.</w> 110628
sh e's</w> 110624
m ill</w> 110618
aw ful</w> 110603
mi x</w> 110574
app ed</w> 110570
end or 110544
fu ri 110529
H ugh 110522
A qu 110518
att or 110510
l i</w> 110485
EN D</w> 110468
N ext</w> 110451
C A</w> 110444
k ill 110400
t z 110398
In c.</w> 110394
c es,</w> 110379
mo th</w> 110378
" Con 110375
litt le,</w> 110337
desc ended</w> 110333
iss ance</w> 110333
Ad am 110294
E sp 110281
C emeter 110260
Al ice</w> 110247
shoo t</w> 110219
m es 110217
on ian</w> 110215
Man chester</w> 110182
br ut 110181
list en 110177
whisp ered</w> 110168
ext inc 110149
strat eg 110122
ur n</w> 110114
= " 110113
F igh 110110
encour aged</w> 110087
Spec i 110053
gh ,</w> 110023
s !"</w> 109995
su re 109992
C ec 109983
sett le</w> 109970
& c 109960
ran ts</w> 109958
destro y 109957
ch i</w> 109950
C ant 109940
sour i</w> 109932
g ul 109922
ash ,</w> 109916
tri bes</w> 109907
ph er 109901
N A 109880
hom es</w> 109874
fi ed,</w> 109871
On line</w> 109870
w are</w> 109825
lim it</w> 109799
main taining</w> 109795
p ity</w> 109781
pre dec 109772
Ri o</w> 109741
ym n 109737
H . 109721
per son,</w> 109718
suspic i 109668
correspond ing</w> 109657
re sign 109648
Mill er</w> 109645
4 00 109636
rep ly</w> 109619
c ards</w> 109593
fe ared</w> 109587
pr int 109584
et on</w> 109554
ce ase</w> 109552
am ate 109550
lo os 109550
eng er</w> 109536
ö r 109498
fac ulty</w> 109487
fl esh</w> 109482
R ain 109474
clos er</w> 109448
fain t</w> 109447
c ed 109427
femal es</w> 109421
cred it 109418
fi ght 109415
albu ms</w> 109405
produc tion,</w> 109403
sec tions</w> 109399
iter ran 109389
C en 109377
don ate</w> 109372
7 ;</w> 109369
Satur day</w> 109359
wil der 109353
S T</w> 109302
fat al</w> 109302
H all 109296
wor d.</w> 109292
star t 109292
M L 109285
T op 109244
thr ust</w> 109227
d é 109189
remo te</w> 109189
Bas ket 109186
A vi 109172
T en</w> 109150
l us 109147
wa ves</w> 109127
altern ate</w> 109116
N . 109113
P ul 109112
instr ument 109092
lo - 109089
w ishes</w> 109083
197 5</w> 109075
as sum 109073
De part 109066
sou l,</w> 109065
Some times</w> 109057
p - 109050
N ep 109046
Mis souri</w> 109026
fac tory</w> 109014
Pol ic 109003
ens is"</w> 108999
er e's</w> 108991
h ate</w> 108974
F err 108972
he im 108967
t ell 108964
appro aching</w> 108964
Mus ic 108933
v est 108901
Y el 108894
respec tive</w> 108876
sh ine</w> 108875
b are 108868
"O ne</w> 108856
ba by</w> 108847
Color ado</w> 108834
fier ce</w> 108825
Uk rain 108817
ti de</w> 108809
rough ly</w> 108804
B ,</w> 108802
Minnes ota</w> 108800
b t 108798
produc es</w> 108755
there by</w> 108749
sched uled</w> 108745
Par k 108744
Constitu tion</w> 108734
em pi 108725
A ma 108697
e ternal</w> 108678
ar ise</w> 108674
Co .</w> 108632
Whi ch</w> 108632
t able.</w> 108627
ach ment</w> 108611
hor ror</w> 108588
gr ass 108579
recol lec 108530
er s"</w> 108523
Pol and</w> 108496
stud ying</w> 108479
et 's</w> 108453
Vol unte 108453
re pro 108441
dis posed</w> 108379
de ar,</w> 108377
level .</w> 108349
P ad 108346
: 0 108344
197 7</w> 108333
f at</w> 108331
con trad 108320
nat ure 108295
mon ey.</w> 108270
ex er 108259
ath ,</w> 108234
C ad 108231
for ward,</w> 108196
Par ad 108193
pursu ed</w> 108190
mou th,</w> 108174
Cap it 108158
wis e,</w> 108155
Pakist an</w> 108142
F ire</w> 108140
D ' 108132
E qu 108103
e _ 108102
word s.</w> 108102
( V 108096
197 0</w> 108096
you ?</w> 108092
13 th</w> 108047
Tim es"</w> 108036
me ets</w> 108020
bal ance</w> 108018
re conc 108007
P lot.</w> 107977
N u 107971
etc .,</w> 107963
recogn ised</w> 107963
way s.</w> 107933
ac u 107932
rhy th 107924
ff i 107923
r ou 107914
Char lie</w> 107899
Ar g 107895
S car 107887
Her itage</w> 107872
Americ an,</w> 107856
cent .</w> 107854
anch ol 107852
sie ur</w> 107849
inst alled</w> 107829
ti sh 107808
199 8,</w> 107785
in ser 107759
bil lion</w> 107748
flow s</w> 107737
th um 107678
, ’</w> 107673
d ust</w> 107672
K ra 107669
H as 107668
U ta 107662
at o 107662
acc um 107662
err a</w> 107643
J a 107633
band 's</w> 107615
Har ris 107608
P - 107585
ac t,</w> 107583
A M</w> 107578
ar s,</w> 107527
u el 107514
bigg est</w> 107513
educ ation,</w> 107508
charac ter.</w> 107489
dic t 107484
fe e 107479
specific ally</w> 107469
no .</w> 107451
colum n</w> 107448
poli tics</w> 107443
Child ren 107414
mechan ical</w> 107378
Rec eption.</w> 107370
J i 107355
M ap 107350
B A</w> 107321
aw a</w> 107319
prof ess 107302
st ation.</w> 107284
uc t 107275
hol der</w> 107273
spec tac 107267
bre a 107257
ke e</w> 107256
tor s,</w> 107239
promin ently</w> 107234
in ian</w> 107204
Ch ang 107195
Wor k 107170
ing ,"</w> 107134
in ess,</w> 107124
Sil ver</w> 107122
an o 107116
Servic es</w> 107115
Comm ander</w> 107110
prison er</w> 107102
dy nam 107084
sugg ests</w> 107081
no se</w> 107052
- day</w> 107045
fund ing</w> 107039
Clar k</w> 107035
ble - 107006
favour ite</w> 107002
Jer ry</w> 106968
Commun ist</w> 106961
dog s</w> 106955
e ating</w> 106946
mor tal 106938
An dy</w> 106934
8 ]</w> 106923
tra il</w> 106901
K im</w> 106874
W r 106862
Pe ace</w> 106860
consci ousness</w> 106857
def ect</w> 106834
sion s.</w> 106811
susp ected</w> 106809
wif e.</w> 106801
mu ch,</w> 106785
u tili 106781
al ist 106771
f are 106769
succ ess.</w> 106766
solem n</w> 106739
larg e,</w> 106726
rac e.</w> 106719
Independ ent</w> 106699
NO T</w> 106695
al u 106694
Publ ish 106671
temper at 106670
.-- _ 106661
ful ly.</w> 106651
hour s,</w> 106649
I V.</w> 106641
Y e 106641
consider ing</w> 106607
bac king</w> 106570
sc and 106537
plan ted</w> 106537
Ro y</w> 106526
j unior</w> 106524
Pitt sbur 106524
F un 106521
k a,</w> 106517
sing le- 106502
so- called</w> 106482
Educ ation.</w> 106476
ha ir,</w> 106462
recomm ended</w> 106455
Af ter 106440
scre en 106433
u res 106419
Met ropolitan</w> 106401
ke en</w> 106398
order .</w> 106393
artill ery</w> 106393
RE C 106378
d ale</w> 106377
Afric a,</w> 106376
ocr atic</w> 106359
co graph 106354
pul l</w> 106341
m it</w> 106340
off ensive</w> 106332
ask a</w> 106321
A us 106320
J eff</w> 106315
sun g</w> 106314
m ² 106311
on t 106301
uni versi 106294
invol ving</w> 106288
A ven 106274
on ce.</w> 106271
Bar on 106269
am e,</w> 106256
eld est</w> 106236
egg s</w> 106232
po t</w> 106231
P )</w> 106220
ough ,</w> 106219
wind ow,</w> 106217
terr or 106199
16 7 106188
Legisl ative</w> 106087
F inn 106085
Buil ding</w> 106024
nat ure.</w> 106011
ore s</w> 106001
in ;</w> 105952
th y 105943
: -- 105938
cl oud</w> 105936
ke y,</w> 105900
tel eg 105898
é ,</w> 105881
Egyp t</w> 105875
N O</w> 105870
go d</w> 105864
min ing</w> 105852
d educ 105849
Common wealth</w> 105845
month s,</w> 105841
ha ve,</w> 105799
tri be</w> 105795
ri ver.</w> 105794
rac ial</w> 105786
environ mental</w> 105750
pri est 105738
tru th 105738
H az 105734
perm it</w> 105733
e. g.</w> 105713
Princ ip 105706
prec eding</w> 105702
ob serve</w> 105673
a er 105644
propri etary</w> 105639
char t</w> 105629
Benjam in</w> 105607
Addi tional</w> 105589
p ace</w> 105573
build ing.</w> 105568
neighbor hood</w> 105549
ex - 105540
ro ots</w> 105521
ol der.</w> 105514
compet e</w> 105496
R est 105478
ri val 105478
Rug by</w> 105478
6 ;</w> 105470
Pho to 105443
Nic ol 105440
gl ad 105423
Moun tain 105420
197 3</w> 105397
oc e 105354
enc ing</w> 105348
5 , 105336
guit ar,</w> 105331
list s</w> 105302
Ral ph</w> 105271
des p 105260
ques tion,</w> 105251
doub t,</w> 105247
identi ty</w> 105241
meas ure 105232
( from</w> 105229
it ated</w> 105225
w er</w> 105223
amb ass 105221
Ale x</w> 105194
star red</w> 105181
Mean while,</w> 105177
architec ture</w> 105168
anim ated</w> 105154
every body</w> 105126
15 th</w> 105106
M eg 105102
H oo 105096
8 ;</w> 105095
ha g 105090
shar ing</w> 105065
li eu</w> 105059
an other 105028
s ati 105020
St atis 105020
Je an- 105003
W rest 104997
con spir 104993
quali ties</w> 104976
Jer se 104974
Med iterran 104969
exemp t</w> 104957
Fre ed 104955
sat ell 104944
row .</w> 104917
Ren a 104910
N ick</w> 104868
9 ]</w> 104850
sub sidi 104837
pl es,</w> 104825
let ter,</w> 104819
"O f</w> 104804
l en</w> 104770
g ang</w> 104754
retire ment</w> 104743
re sumed</w> 104738
di c</w> 104728
symp tom 104706
bo ard,</w> 104702
store s</w> 104678
speci es.</w> 104666
k a 104665
week ly</w> 104635
Ch ron 104604
s ession</w> 104589
Ir on</w> 104576
Ag ain 104548
r ush</w> 104502
Mic hel 104496
re vel 104473
s man</w> 104471
ag e;</w> 104438
as ks</w> 104432
child .</w> 104430
pati ents</w> 104428
second - 104422
prosp er 104388
y et 104336
p ly</w> 104333
St ri 104308
Ho tel</w> 104304
" - 104300
lan e</w> 104298
subjec t,</w> 104285
vill age,</w> 104271
r ,</w> 104269
commun ity.</w> 104262
ing -- 104243
N Y 104232
G EN 104221
ide .</w> 104212
strong er</w> 104209
poin t.</w> 104201
roman tic</w> 104195
depar ted</w> 104153
J ar 104147
Jun e,</w> 104136
p ick 104135
fing er</w> 104125
Comm on</w> 104124
os la 104123
contrad ic 104115
se e.</w> 104107
em ic</w> 104095
Kh an</w> 104087
pri me</w> 104062
Indi ana</w> 104049
speci es,</w> 104043
B ell</w> 104036
r ates</w> 104035
pron ounced</w> 104027
e x</w> 104025
fl our 104012
S ti 103990
adj ust 103987
mom ent.</w> 103954
lo an</w> 103951
lyric s</w> 103948
11 th</w> 103942
" As</w> 103927
pr ise</w> 103926
tin y</w> 103913
Ven ez 103910
exam ination</w> 103902
gam es,</w> 103895
Sec ond 103869
i ii.</w> 103861
de struc 103861
le af</w> 103844
assem bled</w> 103829
lo dg 103825
DV D</w> 103823
Orig in 103820
ard 's</w> 103786
divisi ons</w> 103786
concer n</w> 103760
critic ism</w> 103760
cour se.</w> 103722
Sy n 103720
Wor ks</w> 103696
Per sian</w> 103650
gener ations</w> 103635
B each</w> 103629
purpos es</w> 103617
R ey 103616
J en 103601
15 0</w> 103600
pra yer</w> 103565
insist ed</w> 103547
O ne 103511
bl essed</w> 103504
B yr 103494
chur ch.</w> 103488
B C 103482
H at 103481
g ods</w> 103449
15 0 103449
O cc 103425
ran ks</w> 103417
mast er,</w> 103394
trans lat 103393
my self 103377
em or 103370
Nichol as</w> 103355
con fined</w> 103328
ali ve</w> 103320
B is 103310
" On</w> 103307
asp ect</w> 103307
ma inten 103306
Chin a.</w> 103295
Frank lin</w> 103279
"Bill board 103278
( ? 103272
b rick</w> 103251
_ I 103243
ef s</w> 103229
forc e,</w> 103225
design s</w> 103224
r ass 103223
reas on,</w> 103189
contro versi 103163
y s,</w> 103158
M R 103153
pl um 103137
Ira q 103135
ab rup 103129
Mar k 103114
l s,</w> 103109
respectivel y.</w> 103097
14 th</w> 103090
and o</w> 103088
program ming</w> 103088
f - 103074
astr onom 103065
pre fer 103041
Reg im 103035
sing ular</w> 103011
auth ors</w> 103007
Be ing</w> 103002
lin es,</w> 103001
unfortun ate</w> 102992
not ably</w> 102987
s oo 102978
ak es</w> 102974
song ,</w> 102974
Bir ming 102974
dis crimin 102969
form ats</w> 102969
Spr ing 102959
fil ed</w> 102942
friend s.</w> 102940
f ans</w> 102938
Fi el 102937
"Wh o</w> 102933
ed !</w> 102926
P S 102915
S ic 102909
Phi l 102904
comm itte 102903
h ung 102900
d ull</w> 102897
mas sive</w> 102871
econom y</w> 102832
abov e,</w> 102814
5 1</w> 102811
et t</w> 102806
exam ined</w> 102786
pap er,</w> 102780
Gul f</w> 102779
Chin a,</w> 102771
ri dge</w> 102754
ich ,</w> 102739
S ep 102730
oper ates</w> 102714
D in 102710
Indi an 102704
TH AT</w> 102700
low est</w> 102672
mix ture</w> 102669
be g</w> 102651
f ishing</w> 102633
N S 102622
p ast,</w> 102618
5 4</w> 102610
sig ning</w> 102563
Stat e,</w> 102552
ov a</w> 102548
wind s</w> 102527
A pol 102523
in e"</w> 102494
pri mi 102466
clesi as 102449
The y 102432
" Un 102394
spec t 102387
F ull</w> 102385
W es 102363
mis sion,</w> 102362
trav elled</w> 102348
Jon athan</w> 102327
196 9</w> 102325
w ich</w> 102324
wee k,</w> 102320
music ian</w> 102316
continu ous</w> 102299
Char ac 102271
ST AR 102261
Afric a.</w> 102260
process ing</w> 102232
cri ed,</w> 102222
thr one</w> 102215
over whel 102212
n atives</w> 102201
gi ant</w> 102196
c oc 102192
B ey 102168
rec re 102162
at us</w> 102149
ER ,</w> 102140
Des ign</w> 102138
de vice</w> 102120
c us 102103
grou p,</w> 102087
2 "</w> 102081
en si 102075
iv od 102071
wom en.</w> 102051
C ari 102050
el ess 102016
Sp an 102010
Sal t</w> 102002
institu tion</w> 101977
C up 101962
5 / 101938
equi pped</w> 101930
Brig ade</w> 101923
doc uments</w> 101920
toge ther 101906
Ire land,</w> 101901
A A 101894
struc tures</w> 101892
portra it</w> 101891
re action</w> 101858
nerv ous</w> 101836
ox y 101833
Glo bal</w> 101826
se as</w> 101825
F L 101813
---------------- ---------------- 101813
mo tor</w> 101800
u sion</w> 101788
D EN 101785
c inem 101784
clo th</w> 101769
milli ons</w> 101759
[...]
